#version: 0.2
i n
Ġ a
Ġ t
h e
r e
o n
t i
Ġ o
e n
e r
Ġt he
Ġ s
Ġ c
e d
Ġ in
i s
a l
e s
Ġ p
o r
Ġa n
a t
Ġ b
a n
Ġo f
i t
r o
Ġ w
Ġ m
Ġ d
Ġ f
i c
Ġan d
a s
a r
ti on
in g
Ġt o
l e
u s
Ġ re
Ġ h
Ġ e
en t
o l
i d
o m
v e
r a
e c
Ġ is
l y
o s
Ġ n
e t
Ġt h
a c
u l
a m
Ġ l
a tion
Ġ T
Ġf or
u n
Ġa s
it h
i l
in e
Ġ (
o t
u r
t er
Ġb e
u c
Ġw ith
Ġ A
i m
Ġ I
c e
u t
Ġp ro
t s
Ġ g
Ġc on
v er
f f
d i
s t
o w
i r
Ġo r
Ġ C
o p
ĠT he
a b
on e
ti c
e l
Ġ S
Ġa l
Ġ us
at e
i g
Ġa c
u m
u g
Ġ 1
r i
Ġs t
es t
Ġb y
he r
Ġth at
o d
a y
m ent
o c
Ġ v
t h
s i
e p
Ġ it
re s
Ġc om
Ġ 2
Ġ P
ti ve
Ġa re
e m
Ġin c
d uc
at ed
a d
id e
Ġe ff
it y
Ġw as
ro m
ic al
Ġw h
ĠI n
s e
Ġe x
Ġ D
Ġ on
a in
is t
Ġ r
Ġ M
a g
un d
p p
Ġa d
Ġeff ec
y l
as e
u d
q u
re at
re d
i a
es s
o g
Ġc an
Ġ H
Ġa t
an t
i f
Ġc h
he n
p t
Ġ B
Ġ E
i z
Ġ F
Ġ2 0
Ġh as
Ġ le
Ġd e
c h
re n
t her
Ġ he
Ġs y
u b
o re
r ug
Ġ N
Ġn ot
er s
r an
Ġ U
Ġh a
Ġt reat
t ed
Ġd i
en d
Ġd is
al ly
u re
ic h
Ġre s
Ġbe en
Ġin t
s o
o us
Ġcon t
Ġm et
Ġf rom
ve l
Ġs e
Ġus ed
ig h
y p
a k
Ġw e
p h
os e
re as
a us
tion s
Ġal so
Ġcom p
Ġha ve
el l
Ġd rug
i b
Ġwh ich
Ġs h
Ġm ay
u p
l ud
a ti
Ġp re
Ġa b
ent s
Ġ L
Ġ1 9
Ġ im
Ġ R
Ġus e
Ġo ther
Ġn e
o x
ab le
g en
Ġtreat ment
Ġeffec ts
uc h
Ġa pp
Ġ G
) ,
Ġ O
Ġs p
ar y
or m
an d
ĠI t
Ġc l
Ġinc lud
o und
o od
Ġit s
ti v
il l
i on
ug h
t e
on g
h y
os t
i v
Ġ k
om e
' s
p or
Ġ en
a z
ac t
ra p
u e
â Ģ
ation s
si on
Ġa g
Ġ "
en ce
a p
at es
ul ar
Ġm ed
Ġl i
al l
Ġc o
) .
0 0
Ġth is
Ġan ti
Ġp ar
Ġb l
Ġpro duc
or s
Ġfor m
Ġs uch
Ġin f
as t
m in
Ġ W
Ġp l
c t
c y
v ed
an ce
ro p
ter one
Ġ est
p l
o ut
g es
l ow
ag e
Ġwe re
aus e
Ġ un
ra tion
Ġp er
o ur
Ġb ut
Ġth an
i p
Ġr is
i es
Ġp ati
ĠT h
a il
Ġa m
g e
k e
ow n
Ġg en
al s
in d
Ġre c
e ar
or y
ra m
h ib
am e
ce pt
Ġp res
Ġris k
ig n
en ti
Ġre duc
v id
ro l
a tive
ra di
o id
âĢ ĵ
Ġm ore
Ġs ub
ul d
i ti
Ġle vel
am ine
Ġinc reas
Ġ und
c o
Ġs u
et h
Ġ 3
ĠU n
v en
p er
Ġm an
n e
Ġf ound
t en
Ġ 5
Ġsy n
Ġ J
Ġin hib
or d
d ro
c er
is m
Ġm g
i e
o le
ab ol
i al
ran s
Ġo ver
r ic
t he
ĠS t
it ed
f ter
ir st
o b
ul t
Ġ y
e ver
in al
Ġund er
Ġd os
ar k
Ġc ar
Ġas s
m on
a v
in es
Ġac id
Ġre l
Ġp e
Ġ20 1
ri b
i le
Ġpati ents
Ġf irst
Ġp ot
Ġcon s
Ġl ow
Ġh yp
ol og
Ġh igh
Ġp h
Ġmet abol
o di
c c
or t
Ġc ell
y s
ĠTh is
Ġthe rap
he d
b in
ac e
igh t
at h
Ġlevel s
y c
Ġre cept
vel op
Ġs ome
ar i
y m
Ġd ec
ti m
oc i
ar m
un c
radi ol
Ġapp ro
b le
if ic
ec t
Ġin ter
ro gen
o ugh
Ġac tiv
ar d
Ġim p
am in
Ġde velop
Ġg ro
min ist
Ġw hen
Ġinhib it
at er
Ġcon c
op le
Ġa fter
l or
u di
Ġthe ir
Ġbl ood
o uld
ot h
Ġd ep
us t
ar t
re ase
Ġp os
Ġn o
iz ed
l ic
ff e
Ġres p
res s
Ġal l
Ġre por
r y
Ġmed ic
Ġs er
at ing
Ġsu pp
Ġcom bin
il d
Ġa v
Ġt rans
Ġint o
st em
ur ing
Ġb et
il ity
Ġb en
c es
it e
b er
ow ever
Ġo cc
l u
r on
Ġ one
an s
am p
l d
Ġpe ople
Ġ K
Ġm ost
Ġ Î
ec h
er m
Ġwh o
Ġb ec
Ġs ign
Ġ V
re e
Ġst udi
u al
ec tion
Ġdis e
Ġinclud ing
Ġd o
Ġinclud e
Ġthe se
Ġm on
Ġsy stem
om m
in s
s y
ti s
g est
i um
w e
ac h
Ġ 4
om en
er g
Ġmet h
p tion
ut e
ra c
ro s
Ġ20 0
Ġd ue
Ġin d
ul ation
o v
Ġa r
Ġor al
Ġt im
ac k
Ġgen er
Ġm ark
Ġt ak
Ġh y
Ġt w
az ep
ro ugh
Ġeffec t
in ical
un t
Ġsy m
al th
on d
Ġh ad
Ġs c
Ġthe re
as s
Ġex p
ren t
r im
Ġt ri
pt om
Ġg l
ac ter
f ic
Ġin j
Ġre g
n own
Ġw or
en s
di tion
t ain
Ġass oci
Ġf ol
as es
Ġt est
ti l
Ġs ide
a x
Ġd es
a f
Ġd ose
Ġincreas ed
a tic
ĠUn ited
Ġm e
an ts
Ġocc ur
ver y
Ġsp ec
ĠA s
Ġw omen
f orm
c ular
Ġs ol
v es
Ġb i
D A
Ġl ong
r al
Ġst ud
Ġdos es
d e
Ġcom mon
he m
ges terone
Ġtherap y
u res
et y
Ġs ur
Ġdrug s
Ġdise ase
ĠA n
Ġh um
on s
Ġc aus
Ġon ly
Ġav ail
minist ration
at ory
c ess
Ġcl inical
Ġs im
oc k
ĠA l
a re
am ide
Ġconc ent
Ġtw o
Ġin s
Ġcan cer
Ġre ac
Ġ ra
Ġmark et
Ġw ell
Ġinc rease
Ġe m
Ġd uring
l i
res sion
Ġo x
Ġw he
o k
Ġstudi es
Ġsyn the
end ed
Ġavail able
Ġpre v
il ar
Ġstud y
os is
ear s
Ġ20 2
Ġsym ptom
y t
Ġassoci ated
Ġ ro
qu i
e x
it al
Ġm od
p ir
si ve
ra in
od y
unc tion
Ġab out
Ġli ke
og en
ĠH owever
ver se
ical ly
Ġrec omm
Ġeffec tive
Ġth rough
Ġthe y
ul ts
Ġk nown
st r
Ġh our
Ġ es
ĠSt ates
u tic
o in
Ġt yp
ĠC h
Ġc ause
Ġ qu
we en
Ġrecept or
m a
Ġrepor ted
g an
Ġcont rol
Ġpro te
n ess
Ġch an
on t
Ġo p
ĠA d
Ġactiv ity
eth yl
sy ch
Ġsign ific
Ġp hen
ay s
Ġp ain
ran d
Ġgro up
Ġ 6
Ġ up
Ġhy dro
ra z
Ġo b
Ġst r
Ġsh ould
z ym
Ġest radiol
u tion
as ed
Ġbet ween
Ġc ol
Ġli ver
ation al
Ġcombin ation
g n
Ġre m
Ġv ari
if e
Ġo ut
Ġf e
Ġm in
Ġdi ffe
Ġsymptom s
Ġc or
ic e
tic s
u ally
Ġhour s
ac et
Ġb oth
ar b
ĠU S
Ġpot enti
e f
ĠA m
Ġsignific ant
op h
Ġm en
Ġres ult
i ous
Ġcell s
Ġfol low
m un
i tion
an e
l ine
si ble
Ġs m
g er
i x
5 0
s or
Ġl ess
ia z
P A
Ġch ild
Ġtim e
Ġh ig
Ġs o
re l
s is
Ġex t
c rib
Ġn ame
Ġen zym
os terone
Ġle ad
c ed
ar ch
i ve
ti p
iz ation
ter n
Ġ ur
vid ence
Ġth ose
ĠH e
Ġa ff
Ġre qui
Ġe v
k s
Ġv it
Ġto x
l is
Ġs ec
f ul
p ec
ul f
rom e
u rop
Ġn on
Ġ end
r ine
Ġind ic
Ġpro gesterone
Ġsim ilar
Ġin v
en cy
i ed
Ġman y
Ġsh ow
Ġappro ved
a red
er v
Ġpre gn
Ġb ody
Ġcont ain
Ġb reas
l ed
Ġg iv
ab ility
Ġpar tic
h ol
ak e
Ġ1 0
Ġbe ing
Ġph arm
ro duc
k in
Ġe vidence
y n
Ġm us
Ġan al
Ġch lor
ve re
f ore
Ġh al
Ġm ain
ind ing
t ing
Ġre se
Ġe th
Ġac et
Ġwh ile
Ġben z
o ve
Ġest rogen
Ġhig her
is e
ar ge
Ġ j
Ġd ist
er c
Ġp ub
ic ity
it s
ie w
th ough
Ġad dition
hy dro
Ġbreas t
f er
ent ly
Ġd et
ep am
Ġag ain
is s
ic i
Ġac c
i tive
Ġc hem
Ġb rand
Ġs al
am m
olog ical
d ay
Ġe p
Ġdis ord
Ġimp ro
Ġ if
Ġus ing
Ġex per
Ġs ug
ir on
Ġhe art
Ġin di
Ġt ra
l es
Ġan y
Ġf unction
ac c
Ġn um
i ly
d ose
ment s
Ġmed ical
Ġy ears
Ġat t
ĠF DA
Ġr an
e red
Ġ 7
u es
iti es
ter m
Ġre le
N A
Ġh is
ec ted
am ol
Ġcar di
le c
Ġc ent
Ġad verse
ot her
Ġhe alth
Y P
Ġchild ren
pir in
Ġcomp le
ad e
Ġ 0
Ġbec ause
i o
ti t
Ġad ministration
l er
r in
Ġ 8
Ġex c
or ph
ĠThe re
er ic
uc t
Ġpl as
Ġrecept ors
Ġcont ra
Ġresp on
ate ly
Ġm em
erg ic
Ġse vere
Ġmus c
Ġs af
odi azep
Ġse ver
Ġe le
d er
Ġp ol
ĠC YP
Ġhum an
Ġagain st
is ts
Ġp rim
Ġdo es
ut amide
Ġp ers
Ġhal f
ĠP ro
it es
ed i
n ing
Ġe ar
o f
Ġ 9
Ġof ten
Ġac tion
he t
ĠF or
an cy
Ġbl ock
v ing
Ġvit amin
v iew
Ġs kin
Ġthe n
an y
Ġinv ol
Ġlow er
Ġac tive
Ġc ases
Î ±
Ġco unt
he s
Ġf lu
Ġf l
ra tions
orm al
ver s
Ġ19 9
Ġhyp er
1 9
Ġindi vid
Ġp hy
Ġp sych
Ġv acc
urop e
Ġsh own
Ġsyn d
Ġa ut
Ġf act
un g
ur al
Ġprote in
ĠThe se
Ġreduc e
ĠE urope
p os
acet amol
re ct
l im
Ġb acter
Ġwhe re
Ġl im
in u
Ġw ater
Ġsm all
a ir
c ri
en e
Ġsynd rome
Ġwor k
Ġrecomm ended
os p
Ġdevelop ment
crib ed
Ġgiv en
Ġdis c
Ġre p
Ġne w
o ol
re ated
ys is
lis hed
a j
ed ing
Ġh orm
st e
Ġprev ent
Ġpotenti al
ĠM ed
Ġr ate
Ġ âĢĵ
Ġconcent rations
00 0
g et
Ġt able
id ne
ĠN e
ec tions
Ġl arge
in ce
ĠP h
d ep
Ġwith in
Ġw ill
Ġab sor
in ation
Ġad d
het amine
ti es
Ġn it
Ġdec reas
Ġpro cess
ter oid
l amm
Ġth ree
Ġ very
Ġmarket ed
por t
ech an
ĠÎ ¼
Ġpro t
Ġrese arch
Ġanti b
Ġne ed
as si
ra w
Ġdiffe rent
ac y
ol d
Ġf ail
Ġplas ma
Ġpres s
al e
Ġc at
Ġint ra
al ity
os ph
m s
Ġde ath
Ġres ults
ot he
Ġbenz odiazep
Ġcomp ound
f act
Ġc a
Ġm echan
Ġin duc
Ġk idne
Ġtest osterone
p ar
co hol
aj or
Ġp at
Ġre view
Ġre t
Ġv al
at ure
olog y
el s
act one
us ion
Ġd em
al c
Ġsever al
Ġim mun
on ist
ag es
Ġt iss
i or
f e
Ġn am
ri es
Ġas pirin
u le
ec tive
Ġth ough
in yl
Ġv ia
Ġc le
Ġb rain
ech n
Ġne u
ul in
is h
os s
Ġm ajor
Ġtri als
Ġfollow ing
Ġinj ection
Ġw ould
r u
ĠD rug
Ġmeth od
ce p
Ġd er
all ed
ar di
Ġad v
Ġan im
Ġreduc ed
Ġan t
Ġwe e
Ġs ulf
Ġm ic
el f
di tions
f ied
Ġpregn ancy
as cular
Ġg ast
Ġpro g
est radiol
Ġgen e
n al
Ġproduc t
Ġnum ber
e utic
Ġg reat
b o
Ġproduc tion
iti s
ro f
it ing
Ġ5 0
Ġmedic ation
Ġpar t
hy d
. ,
az ole
Ġs ame
Ġmon th
ren al
i an
Ġpati ent
Ġtak en
Ġco uld
Ġcon ditions
Ġ19 7
" .
om p
Ġam o
Ġ19 8
Ġdevelop ed
en si
Ġd el
Ġal low
Ġincreas es
I D
an ces
Ġstr uct
an g
ic k
Ġl ab
v al
Ġsub st
qu e
Ġal cohol
Ġdep end
Ġac ute
Ġder iv
Ġp o
Ġus ually
i od
Ġcon f
Ġf ood
Ġgl uc
Ġor gan
ol actone
Ġpress ure
ĠHe alth
odi um
ro w
Ġsec ond
n s
at a
ec ts
ir c
in ess
ven tion
Ġsynthe sis
Ġgro w
Ġpharm ac
x im
d raw
Ġcomp ared
Ġproduc ts
Ġs tim
yc in
ron ic
e ti
Ġcar b
Ġm ul
Ġmechan ism
Ġp ost
iaz epam
Ġpro per
Ġsh ort
Ġp ath
Ġp ur
is ion
Ġrel ative
Ġpar acetamol
iz e
re qu
rap y
amp le
Ġl oss
Ġphy s
ĠAm eric
e re
l ife
Ġb ir
Ġ19 6
S A
p hen
em ia
Ġde f
ic acy
ide red
Ġant ag
Ġhe ad
Ġre ce
Ġ u
se qu
Ġpartic ular
Ġd ays
Ġhe l
Ġc er
Ġthe m
i ally
Ġwith out
en z
Ġp op
Ġ1 8
Ġ id
ro und
Ġper form
ur ther
Ġmetabol ism
Ġdep ression
Ġl oc
Ġc ase
Ġcons idered
Ġc ap
Ġw ar
Ġpl ace
Ġenzym e
oc h
Ġcount ries
. "
ri tis
Ġexp os
ace utic
tiv ity
u als
ti g
Ġch ar
ĠEurope an
Ġpro st
an ti
ro b
gen cy
Ġt echn
ent al
m e
Ġ Z
Ġob s
inyl estradiol
Ġmusc le
Ġhorm one
at in
Ġdi ff
ic ill
Ġam p
u fact
ical utamide
Ġint roduc
tic al
ĠS ome
Ġinf ections
ĠC l
Ġr at
l l
it her
cri ption
Ġres ist
Ġm ole
Ġb inding
Ġn ore
2 0
Ġeff icacy
Ġhe p
Ġexc re
Ġreac tions
Ġse x
ul ations
ĠO n
in t
ren ce
Ġben ef
Ġwith draw
Ġur ine
Ġs us
at or
ĠC an
ar c
Ġtox icity
t al
a w
Ġcommon ly
Ġre st
r it
Ġrel ated
ld er
ag n
Ġ her
Ġbe fore
m it
is ed
Ġcaus ed
ul es
Ġexper i
Ġhel p
Ġconcent ration
out h
ven ous
ur y
Ġe lim
Ġear ly
1 0
ic s
Ġs odium
Ġkidne y
Ġm y
ĠE n
id es
minist ered
Ġtak ing
Ġimpro ve
Ġag e
Ġdis co
Ġc alled
t y
ros s
ro t
Ġb ased
osp ital
Ġover dose
ĠÎ¼ g
li ke
Ġman ufact
en sion
ter s
Ġrem ain
Ġc irc
ot on
us e
d om
og n
Ġbir th
Ġcombin ed
ut es
Ġmonth s
Ġindivid uals
Ġproduc e
Ġnam es
Ġbe h
r ing
Ġpro ble
ur rent
Ġpro gest
in ary
Ġc yc
Ġm ade
Ġsug gest
Ġal though
Ġf requ
Ġm uch
est inal
ĠC O
o ver
in c
Ġc alc
Ġf at
Ġam ong
Ġad ults
ill ion
z ed
id ine
Ġhum ans
ra d
Ġtherap eutic
Ġse iz
âĢ Ķ
Ġin iti
le ep
Ġg u
Ġd ys
l ing
ol one
Ġrecomm end
ing le
Ġt e
Ġh ist
ram ine
ĠS c
c on
d ine
Ġt reated
Ġd op
Ġe qu
Ġv ir
Ġvari ous
i oid
w ard
o h
Ġrequi red
Ġim port
er ate
l and
Ġpro m
Ġtri al
Ġs et
Ġp red
Ġwe ight
Ġcer tain
Ġb le
Ġs ince
Ġp rac
Ġpos sible
Ġ rap
icill in
Ġfail ure
em ber
y e
Ġof f
ar in
m edi
Ġinter ac
Ġd ata
Ġproduc ed
Ġto p
azep am
Ġwor ld
Ġpub lished
Ġinhibit or
Ġdisord er
Ġpers on
Ġ ve
Ġex ample
til l
Ġmem b
ord ing
Ġch ronic
ur n
Ġeth inylestradiol
Ġd am
Ġad ministered
Ġre f
Ġc yt
Ġtable ts
Ġ1 00
E S
Ġt em
Ġs uc
ĠF ood
el d
ĠR e
Ġdi rect
Ġdec rease
Ġt erm
Ġn ec
ph rine
Ġpro vid
an c
ause a
Ġ3 0
ov ascular
is on
ĠMed ic
Ġe ven
Ġme as
Ġcaus es
Ġs ingle
c l
om a
Ġm al
ub le
Ġra re
Ġaut h
Ġsignificant ly
Ġl ife
Ġre pl
ĠA t
Ġrespon se
ĠO ther
Ġw ide
Ġd id
lamm atory
Ġv ag
Ġ1 2
er al
ĠPh arm
w ay
Ġ ed
fic i
Ġmeth yl
Ġn ormal
Ġchem ical
Ġv ol
Ġh owever
Ġrece iv
on str
Ġst ate
Ġcons um
Ġapp lic
Ġlong er
r ate
ĠA c
Ġwee ks
Ġfe w
Ġe ither
om es
lec tive
in f
ar get
Ġac t
Ġpres ent
p ro
s tit
x i
er ved
pec ially
i red
ĠAd ministration
ĠD NA
Ġrele ase
Ġox id
Î ²
ĠL e
Ġwe ak
Ġgener ally
Ġpro l
Ġ ir
Ġl ater
ĠE x
ĠR es
Ġan tic
Ġran ge
hydro x
od e
us cular
Ġreac tion
Ġtiss ue
Ġ ver
Ġad renal
Ġpos itive
Ġrap id
Ġcon ver
ger y
Ġ Q
ĠC on
Ġs leep
M A
Ġreduc tion
Ġstim ul
ffe ine
Ġproper ties
m an
ar r
Ġs low
Ġn ausea
ol ol
Ġenzym es
Ġ Y
is terone
in a
Ġid enti
ĠW hen
Ġchan ges
Ġper iod
ĠI I
Ġser oton
T ool
Tool tip
t le
i eld
u red
en ess
Ġacet ate
Ġbeh av
Ġd ay
u ration
Ġvacc ine
orph ine
Ġele ct
or tic
Ġgreat er
Ġantib io
Ġtim es
Ġtyp e
othe rapy
Ġintra venous
Ġf urther
as is
xim ately
Ġble eding
Ġs till
" ,
1 7
ut ed
Ġf our
s u
Ġand rogen
Ġsaf ety
Ġwithdraw al
Ġhydro x
y gen
Ġgener al
Ġhe m
Ġdi et
Ġbenzodiazep ines
iv al
Ġmetabol ites
m ethyl
Ġc are
assi um
Ġl it
Ġto ler
en ing
Ġinf ection
Ġf il
ri al
Ġcardi ovascular
ch lor
ont inu
Ġt r
er min
Ġmedic ations
B A
ur on
Ġspec ific
ff ici
Ġinhibit ors
Ġgrow th
Ġdecreas ed
y le
end ent
Ġor ig
ari ly
H T
Ġb one
Ġchar acter
Ġ er
Ġintroduc ed
Ġshow ed
tip le
Ġst and
Ġd a
Ġother s
ly c
Ġsp iron
th isterone
Ġdem onstr
Ġdisord ers
ane ous
id er
ĠW h
Ġspec ies
Ġs ed
uc le
Ġoccur s
Ġdos age
Ġm ix
he a
Ġspiron olactone
Ġt arget
in k
le ment
Ġag ent
tiv eness
f t
Ġy ear
ĠÎ ²
) -
re c
Ġstr ong
Ġes pecially
Ġdes cribed
Ġimport ant
Ġinf lu
re ad
Ġcl ass
oin t
Ġ19 5
r one
Ġ1 7
or b
Ġinhib ition
Ġprog ram
Ġan xi
Ġt ub
Ġn at
ing s
ram uscular
int estinal
Ġgast ro
am ate
Ġpot ent
om et
ĠE st
ak ing
g ed
tim es
ac in
Ġcontain ing
r il
Ġm o
Ġhead ac
ran e
Ġb icalutamide
Ġcontra cep
ĠNe w
i vers
l ess
Ġsynthe si
Ġinf orm
Ġe ach
Ġde x
Ġb ind
Ġseiz ures
ĠAl though
Ġa round
Ġsol ution
ill s
ĠThe y
Ġabsor ption
Ġm ust
Ġcent ral
Ġsur gery
Ġpro f
Ġdam age
it or
ep t
ro x
Ġcalc ium
a id
Ġauth or
re t
Ġbe l
Ġ1 5
ol es
Ġop ioid
g o
Ġincreas ing
Ġle ast
om iting
Ġex pl
si b
Ġd iazepam
ic ol
Ġdop amine
Ġle v
Ġli p
si a
n o
ĠD ES
Ġpro v
ĠS p
Ġde fici
Ġph osph
er t
b ed
Ġlim ited
Ġf am
m ia
Ġ [
ĠAmeric an
m ic
Ġan other
Ġeffec tiveness
Ġcle ar
ion s
Ġbi o
ad a
az ine
in ol
h ing
tion al
1 2
Ġappro ximately
g ative
Ġint ramuscular
Ġform s
Ġseroton in
Ġp ow
Ġimp air
in duc
Ġmul tiple
N N
Ġamp hetamine
Ġamo unt
Ġinc id
Ġexpos ure
Ġindic ated
a ine
Ġd oc
ves tig
um ab
Ġobs erved
Ġcon cer
Ġprote ins
oc ortic
Ġmetabol ized
Ġen h
on es
Ġsol d
Ġmole c
Ġlike ly
Ġm illion
is sion
ve red
Ġtox ic
Ġresist ance
Ġreduc ing
Ġdisc ontinu
Ġpot assium
n er
Ġsub j
Ġsupp ort
Ġ ent
ul l
aceutic al
Ġev ents
Ġtreat ing
ĠÎ ±
Ġsc i
Ġn erv
Ġv omiting
Ġstudi ed
l as
Ġrequi re
Ġser ious
in ity
at ric
Ġp en
Ġb o
Ġpres cription
Ġpro ced
c in
Ġe t
g re
Ġprim ary
raz ole
Ġav oid
l o
Ġ â
od one
Ġ ul
Ġl ack
Ġv is
os ed
Ġ z
ogen ic
ĠA ust
ph yl
Ġpro p
Ġapp ears
ĠD i
ol ar
ĠC o
ith ium
Ġt um
al ysis
Ġchan n
Ġh ospital
amp hen
amphen icol
Ġgener ic
Ġp ri
Ġparticular ly
Ġcomple x
Ġdist rib
Ġin vestig
Ġs up
est he
Ġl o
ĠP hen
Ġf ree
n is
Ġth rom
Ġf ac
arb ital
. .
Ġpre par
Ġvag inal
fer red
Ġca ffeine
Ġpub lic
n ia
Ġth us
Ġbacter ia
Ġnerv ous
ra ct
Ġmetabol ite
rel ated
as on
ro ph
Ġab ility
ic ated
ĠP ar
Ġsome times
ie ved
ine phrine
op er
iz ing
Ġf em
Ġag onist
Ġim pl
Ġun til
induc ed
Ġle g
ra ph
ĠI ts
ic ot
Ġal one
Ġexcre ted
f old
Ġse qu
ĠO r
om er
Ġproble ms
Ġal tern
Ġgroup s
Ġbec ame
Ġdes ign
Ġpre c
r id
Ġda ily
Ġs w
ce ll
oc c
le t
A BA
al y
Ġac h
Ġelim ination
Ġrelative ly
Ġtyp ically
dep ress
Ġwide ly
Ġc re
ĠG erm
Ġ ly
Ġlead ing
ati ves
or k
yt oin
oc yt
Ġp a
ensi tivity
Ġgastro intestinal
Ġcon j
Ġcomp ar
Ġsupp ress
Ġresult ing
Ġsubst ance
un ts
b y
p rop
% .
ĠN ame
Ġthough t
ab ly
Ġdi ab
ri ol
r is
a im
ĠO ne
Ġprost ate
Ġprev ious
Ġaff inity
Ġplace bo
om y
ox ic
Ġcontrol led
ocortic oid
er ation
ob arbital
Ġb ack
an ol
n ed
av ail
Ġform ulation
Ġa min
Ġcon duc
Ġanxi ety
Ġag ents
{ \
ĠA fter
Ġs our
Ġ2 5
ĠC om
Ġtechn i
it ation
Ġinform ation
Ġser um
h al
ti ce
if ically
Ġ Â
Ġcomp on
ĠA b
v iron
ĠCan ada
Ġsaf e
raz epam
Ġstruct ure
Ġd uration
Ġform ulations
Ġ202 0
em b
Ġdefici ency
Ġcont inu
Ġro le
ap ine
en ces
Ġ X
t o
Ġm ake
Ġdiff ic
c ent
Ġs he
Ġun c
D H
ul ated
ul ating
Ġcan n
ĠB y
Ġe ye
Ġinvol ved
Ġreg ard
at hy
Ġanim als
Ġmin im
Ġpres cribed
Ġal ong
ĠWh ile
ĠAust ral
Ġo w
m L
Ġs ite
Ġpat ent
tain ing
Ġr ates
Ġcarb on
R I
h ip
se ud
Ġto tal
Ġad j
Ġox ygen
ĠM et
Ġ -
M P
Ġ19 4
Ġhigh ly
Ġnore thisterone
Ġy o
ĠI s
ivers ity
Ġm outh
Ġresp ective
Ġac ts
Ġsub sequ
Ġcardi ac
or r
e b
ĠA cc
Ġpe ak
un e
Ġantag onist
or ld
k ing
ĠC omm
Ġbec ome
Ġd own
as h
am eth
Ġse en
Ġn ucle
ĠIn di
Ġh and
Ġanti depress
Ġloc al
Ġnec ess
Ġapp ear
Ġn or
dep endent
Ġphys ical
ac tive
u ra
ir m
op hen
Ġ $
est osterone
g th
Ġanim al
Ġchlor ide
Ġaff ect
Ġcomp any
og s
Ġmedic ine
Ġstand ard
Ġincid ence
Ġre nal
s ol
A N
cy c
an ced
Ġest ab
Ġresp ir
Ġs ch
Ġuse ful
b ut
Ġcont rib
as one
l ob
Ġl ed
em a
un ter
Ġcl aim
a pp
erg y
ax im
Ġfact ors
ox ide
o red
it u
ati tis
ĠA p
yl ation
Ġinhibit s
d rug
Ġt end
Ġsci enti
ĠP re
and rogen
Ġcomple te
Ġor der
Ġdi agn
Ġdemonstr ated
Ġ4 0
Ġcaus ing
Ġc urrent
Ġprim arily
rof en
Ġs l
a di
Ġform ation
Ġst om
ont rol
ox y
Ġpartic ip
Ġass ess
Ġm ater
w h
er ing
Ġp ul
Ġmin utes
oc occ
Ġrespon sible
Ġbio avail
ic es
Ġfact or
Ġf ive
Ġpres ence
Ġs aid
en c
Ġbehav ior
Ġrespir atory
ĠG ABA
Ġde v
Ġ1 6
Ġo il
Ġt es
fic ation
Ġ ill
Ġm il
le x
Ġph ase
Ġdisco vered
tic ally
Ġins ulin
n ormal
Ġsuc cess
in ed
Ġde g
ĠW orld
Ġbacter ial
r ast
ot rop
Ġpharm aceutical
Ġf ib
d is
Ġinclud ed
et ra
A R
ri pt
b ased
hy th
r ant
Ġf ever
enti al
am ic
F DA
Ġtop ical
Ġab le
Ġs teroid
iaz id
Ġa ir
k g
Ġvari ety
Ġc he
Ġcon dition
Ġem er
f unction
et es
Ġtak e
Ġreceiv ed
Ġg o
Ġcontra ind
Ġus es
Ġm ight
ten sion
Ġ +
v ul
Ġmanufact ure
Ġk et
Ġen viron
Ġheadac he
Ġrisk s
Ġ =
Ġex erc
ra y
ĠUn iversity
hed rine
ol ine
pl es
Ġsynthesi zed
Ġp y
Ġbet ter
f y
fic ial
Ġsus p
ry st
aus al
Ġdi arr
op ausal
u k
al id
ĠS e
Ġsec re
Ġanti p
Ġexper im
ffici ent
g l
Ġflu id
ĠN SA
Ġvir us
ĠN ational
Ġstom ach
ĠI m
ste ad
Ġprov ide
Ġrespective ly
e tic
ĠW ith
lder ly
es sion
Ġcom m
Ġrepor ts
as al
her s
Ġf inding
Ġ radi
Ġan g
ti de
on ad
Ġthere fore
w ays
ip her
inf lammatory
ic l
al ing
og raph
um e
ritis h
ir d
Ġbioavail ability
erm al
op ro
l ab
% ),
amp hetamine
I V
g in
Ġcomp lic
ate g
Ġpre vention
Ġestrogen s
ten sive
Ġmethod s
Ġtra ct
ac ed
o y
ie ve
ĠB ec
Ġsex ual
Ġs ix
ĠU K
ap an
Ġmet a
Ġpo or
3 0
Ġbet a
Ġcompound s
Ġprom ot
Ġc ogn
Ġm is
ĠD ec
ĠA pp
ap s
k al
u tions
Ġappro val
Ġmain ly
Ġprol ong
a e
en se
Ġb u
pt ake
on al
ie f
ĠJ oh
Ġl ate
Ġman age
ameth asone
le ct
o z
Ġme an
ĠS h
Ī Ĵ
Ġ2 4
Ġanal ges
Ġs ep
yp ro
Ġm ild
le g
Ġcom mun
Ġha ir
ĠA r
Ġabsor bed
ĠB ritish
ten tion
on iazid
Ġgu id
Ġm ut
Ġse lective
Ġst op
re g
Ġdise ases
Ġ6 0
um p
Ġn ow
Ġhyp ot
res sive
rom ycin
Ġbenzodiazep ine
Ġtyp es
Ġbenef its
Ġactiv ation
Ġbenef it
Ġnat ural
Ġpregn ant
Ġantag on
Ġst art
tiv es
i ent
Ġadd ic
Ġsuggest ed
in ated
Ġab ove
Ġspec ifically
1 8
Ġare a
% )
Ġdiffe ren
Ġc ross
ox icity
Ġo v
Ġpl ay
iz z
Ġne gative
ĠJ apan
Ġha ving
s et
ĠC a
id azole
Ġimpair ment
Ġm orphine
z e
Ġper ipher
pl ay
Ġneed ed
ĠN or
Ġe lderly
ĠF ran
Ġm at
Ġfollow ed
Ġm odi
ĠC PA
Ġaltern ative
Ġpos sib
Ġpri or
Ġchan ge
Ġreduc es
Ġsupp lement
ut aneous
Ġest rone
f arin
ress ed
Ġ '
ĠI f
Ġab normal
Ġb re
Ġl ight
Ġinterac tions
Ġacet yl
Ġmod erate
Ġes tim
Ġanal og
Ġpotenti ally
ĠAcc ording
Ġan a
Ġbi os
Ġatt ack
4 50
al u
c op
ti al
medi ate
Ġdiarr hea
oc aine
tain ed
Ġs elf
in ally
Ġl ast
at ors
i re
m ost
ĠRes ear
Ġl ithium
er n
up rofen
Ġco ur
ĠA gency
Ġl ung
Ġperform ed
ĠIn tern
Ġimmun e
ect able
o qu
ag ing
Ġl ist
Ġchlor amphenicol
l ox
Ġindivid ual
Ã ©
Ġhist ory
Ġa p
Ġex ist
Ġh ow
em ide
ĠL i
iti dine
Ġout c
Ġexperi ence
Ġsystem s
ell ing
Ġlab or
a ve
I NN
ĠUn ion
1 5
im ilar
Ġneu rot
Ġo per
om ide
Ġwhe ther
Ġev alu
ĠBec ause
Ġh im
Ġcont rast
Ġb ro
li ed
ĠAl l
Ġrese arc
mon ary
Ġrat her
Ġanti androgen
Ġn icot
Ġst ep
Ġin st
ĠS ub
m en
er ve
Ġe very
Ġor ally
Ġhep atic
or n
over n
ter ol
ĠJ an
Ġmarket ing
Ġm ar
Ġsynthe tic
Ġes ter
Ġm ove
on or
Ġconc lud
ĠD M
Ġw ay
act ing
Ġadrenal ine
izz iness
ile p
ne um
Ġenviron ment
Ġr ing
s c
ro id
Ġmemb rane
Ġc ere
oph il
Ġsug ges
ĠC omp
Ġrapid ly
Ġcons ider
Ġdiffic ult
Ġtest ing
rob amate
and om
Ġdiab etes
et ine
Ġthrough out
pos ed
on ic
Ġdys function
Ġaddition al
Ġunder go
Ġre d
ver age
ĠC ol
Ġantibio tics
or ts
ept ember
Ġsystem ic
Ġon ce
Ġc ri
id ate
2 5
ĠP e
lamm ation
ĠAustral ia
Ġd ogs
Ġbi ological
Ġt rain
Ġamo unts
V ID
Ġp ass
Ġele v
l an
ort ality
Ġbe gan
cyc line
Ġg lyc
Ġop en
oc l
Ġrest ric
Ġprac tice
f or
Ġo ste
am ples
E R
ĠK ing
Ġacc um
Ġd ry
Ġm axim
ĠS eptember
Ġits elf
ĠD ep
Ġ1 4
Ġapplic ation
Ġl ink
Ġnecess ary
ĠC ent
p ite
Ġan esthe
Ġst ates
alid omide
ep robamate
rac tion
Ġphen ytoin
ĠD e
Ġwhe reas
Ġqu ality
Ġd ri
th al
ren ergic
ardi a
nis olone
u ary
Ġcl assi
n ow
och rome
c ers
Ġdet ermin
Ġp H
Ġinj ury
lox acin
am s
Ġl ine
Ġb reat
Ġcontain s
Ġcomp an
Ġre ason
oc ial
Ġus ers
Ġev ent
om nia
Ġanal ysis
r as
th ritis
ĠCO VID
re x
Ġlit tle
Ġsal t
T P
in ic
Ġtrans por
Ġf low
Ġ202 1
Ġmedic inal
sych o
op ram
Ġmod el
Ġderiv ative
Ġrepor t
ex t
ĠM PA
Ġ201 3
Ġest riol
Ġ201 5
Ġtiss ues
Ġm ortality
p inephrine
Ġcons ist
Ġmic ro
ic yl
Ġmon itor
yl ine
Ġur inary
om as
re le
Ġ200 9
Ġup on
ĠM ay
Ġt urn
Ġer y
Ġpl ant
Ġ {\
on ia
Ġsur f
Ġo lder
Ġow n
Ġcogn itive
ce ption
Ġmon o
Ġrat s
es is
Ġg ain
S D
us ed
Ġk e
b l
Ġ201 9
Ġpop ulation
Ġperipher al
Ġsur v
ĠNSA ID
Ġr andom
Ġinf lammation
Ġremain s
iz er
ro ved
en ced
ĠJan uary
ok ine
ĠH yp
Ġestab lished
Ġh arm
Ġmanage ment
Ġin stead
Ġm aking
C T
Ġb ar
Ġpos ition
ati s
Ġmanufacture r
Ġexerc ise
Ġac ne
Ġ201 6
Ġcor tic
Ġdirect ly
Ġf et
str uc
Ġhydro chlor
ĠN o
ous e
Ġar ter
Ġatt em
Ġd izziness
reat ment
ak es
Ġfam ily
re me
Ġ1 1
Ġc ost
Ġbind s
Ġ201 1
ab il
yn the
Ġphen yl
Ġm id
as ter
Ġl aw
Ġinhibit ing
Ġis s
Ġparticip ants
Ġdepend ence
ĠB l
ens ity
Ġp neum
ĠIntern ational
ic ation
Ġv i
g ing
Ġins omnia
ces sive
Ġinclud es
Ġcann ot
os teroid
ĠD ue
ob er
Ġis ol
Ġt ran
unc ed
Ġ8 0
Ġ &
Ġdos ages
Ġtem per
ĠI V
C A
Ġconf irm
Ġp ills
ĠAd dition
Ġend omet
Ġg rant
Ġconj ug
ĠCh lor
Ġpro b
g ue
Ġcyt ochrome
Ġst ro
Ġpath way
ox if
Ġcompan ies
an alysis
Ġdistrib ution
i as
Ġst ress
Ġv en
hyd ramine
om an
Ġphys ici
e ff
ĠO ct
stit ute
ac tiv
ib uprofen
Ġ201 2
m ber
ĠM arch
u ros
Ġtreatment s
C O
Ġcap s
ĠDec ember
um an
Ġ201 7
ism s
yp e
Ġvol ume
Ġgl and
Ġmetabol ic
Ġac ross
p le
ove mber
ot or
Ġover all
ul ate
ox id
l ation
Ġ201 4
Ġmil k
Ġtes ts
Ġv as
is tic
Ġm el
Ġver sion
ĠResear ch
fe rence
Ġexp ression
ol y
Ġint ake
em ic
Ġemer gency
ul atory
Ġad en
Ġpo ison
Ġwar ning
Ġcompon ent
Ġpul monary
re m
Ġm ac
Ġ hen
Ġ201 0
ep h
Ġadd ed
c utaneous
Ġproced ure
Ġl ar
Ġcar cin
Ġsulf ate
seud o
a ired
Ġspec ial
Ġdevelop ing
it ary
d es
gre di
Ġsugges ts
ib le
Ġpol ym
} }
ĠN ovember
ĠA ct
t on
ĠD es
Ġc ult
os es
hed ule
Ġin gredi
Ġcl ose
Ġhyper tension
Ġe as
Ġme ans
ript yline
iz es
ĠJ u
odi es
ĠAn other
on ate
con taining
t or
Ġidenti fied
c are
Ġtoler ance
g ical
Ġc reat
Ġmolec ule
Ġf er
Ġiniti al
Ġran itidine
ĠIn c
Ġconsum ption
Ġne ar
A S
Ġen g
Ġem o
m ph
ph a
que ous
Ġhy d
% ,
Ġvit ro
id one
Ġf oc
Ġst ar
3 5
k nown
Ġhen ce
ol am
Ġres id
ĠS ince
Ġcontracep tive
Ġantip sycho
Ġrem ov
Ġne urop
s ide
Ġwar farin
Ġgast ric
en sive
ĠD iazepam
o ate
oph yl
d ermal
Ġd rop
Ġthrom b
og est
ĠOct ober
op ted
Ġconduc ted
C H
ĠU se
om in
Ġd im
Ġgluc ose
ĠO x
ĠAp ril
Ġcere b
ep hedrine
ol ic
ver sible
Ġg overn
Ġprevious ly
Ġp ep
Ġgene tic
d en
Ġphen obarbital
ĠIn t
Ġab use
Ġcent ury
Ġre ferred
Ġ201 8
ic in
w ide
qu es
es e
Ġmed i
Ġlead s
Ġwh at
Ġmix t
Ġconclud ed
s oci
ĠT o
Ġp oint
Ġfrequ ently
ococc us
Ġappro ach
Ġmem ory
Ġcontraind icated
Ġimpro ved
Ġpop ular
c orb
Ġsep ar
Ġ ess
el ing
Ġdex t
Ġpot ency
1 1
Ġf o
ĠÂ °
Ġ202 4
Ġt er
if ied
Ġpol y
te in
Ġacc ording
eb ru
ot s
e g
Ġamin o
om ers
on azole
Ġterm s
ox etine
Ġgen es
Ġd ig
ebru ary
og lob
v ant
Ġm ice
ĠKing dom
ĠH IV
Ġguid el
ep razole
ron idazole
Ġare as
p ose
Ġac co
Ġm ass
Ġm other
Ġsl ight
igh ts
Ġly mph
ent ric
Ġep ilep
seudo ephedrine
it amin
Ġ197 0
Ġgl ob
Ġrep res
Ġaff ected
Ġdecreas es
Ġderiv atives
Ġre qu
Ġsecre tion
Ġb an
Ġtr ig
Ġcortic osteroid
Ġan no
Ġcomm erc
Ġen ergy
Ġb ound
az one
id al
Ġdel i
Ġac tions
ĠA f
ĠF ebruary
Ġnit razepam
Ġst at
Ġcirc ulating
ĠMedic ines
Ġsecond ary
vul s
Ġth ird
on olactone
Ġc ryst
Ġpro drug
Ġm ale
ĠJu ly
Ġl ic
Ġequ ival
ĠS w
ind ane
v i
Ġins u
Ġl a
Ġreg im
Ġb as
ra ins
Ġsystem atic
Ġanti h
Ġantibio tic
Ġl at
Ġdel ay
Ġd rin
Ġcontracep tives
otrop ic
yc odone
Ġbe low
ĠJ une
gest rel
id s
Ġall ergic
i k
Ġ9 0
Ġ200 7
b e
ch ing
Ġwee k
Ġ ibuprofen
st yle
Ġm ental
Ġsusp ension
ĠF ol
Ġprovid ed
Ġo pp
Ġch ain
ur ally
Ġgl ut
Ġind ust
Ġir rit
Ġint ended
Ġrel ations
Ġproduc es
â ĪĴ
Ġwh ite
ĠD uring
Ġsurf ace
Ġch o
Ġrec ogn
Ġdeath s
l us
Ġunder st
hydrox y
Ġa verage
ĠM any
1 6
Ġn erve
Ġhealth y
Ġinduc e
Ġfat al
Ġsuccess ful
Ġapp lied
ophyl line
Ġthere by
Ġtest ed
Ġt radi
ĠMed ical
Ġfinding s
Ġinf lammatory
ud e
ĠEn g
ĠM ost
Ġdiscontinu ed
Ġsup er
te e
uros emide
Ġ rib
op en
Ġallow s
Ġtable t
oc ardi
Ġacid s
end er
Ġ i
o ved
Ġt etra
il i
Ġnore pinephrine
a ff
Ġresearc hers
u ptake
ĠE R
a i
Ġpos s
Ġshow s
pl ant
ran olol
rele ase
Ġconcer ns
Ġ202 5
Ġem b
_ {
Ġrel ax
Ġal most
Ġdi ure
ĠG en
ers ensitivity
rop ri
Ġ200 8
ĠG l
til ity
ges tion
n it
an th
1 4
Ġne ur
ox in
Ġn ar
ri er
tis m
ax is
Ġs ocial
Ġra ce
ins on
Ġb ase
ĠH y
aceutic als
Ġchann el
ĠOr gan
dis play
Ġs ize
Ġser ies
display style
Ġb ond
Ġphy si
Ġy ield
phen idate
Ġed ema
ĠIn stitute
l in
unc tions
Ġp rin
Ġab s
a h
ĠGerm an
Ġoccur red
Ġf ull
Ġcomplic ations
Ġse e
Ġpharmac okine
I s
ent an
t rans
Ġsub stit
Ġ1 3
ar s
gen eration
re st
Ġcont in
Ġinf ants
ir ing
Ġpred ic
Ġrem oved
Ġf ield
Ġre uptake
Ġpro posed
Ġinvol ves
Ġprevent ing
Ġs ites
i er
o res
ad one
dom inal
Ġon set
Ġfil m
Ġ198 0
arb it
s p
Ġe l
Ġprepar ations
Ġtum or
ĠP C
Ġrequi res
Ġt ac
Ġsupp ression
Ġ196 0
oles terol
Ġstro ke
ĠB i
Ġv ary
Ġra ti
os ine
is ing
is ter
Ġis oniazid
m ol
ĠP er
ĠIndi a
ĠS pir
ur b
ist ant
Ġrele ased
om ic
ok ing
Ġnot ed
ĠM ore
Ġdiet ary
Ġa queous
Ġsub cutaneous
Ġad ult
Ġ ri
ain ed
ĠO ver
a u
Ġal le
Ġtrans dermal
mit ted
ay er
ent ed
ut ri
Ġfunction al
Ġtrain ing
Ġext ended
ĠA ug
od es
H B
an ger
Ġ19 3
Ġmechanism s
hyth m
ĠM in
eti tive
Ġd one
Ġne ut
Ġform ed
om ycin
ensi tive
Ġ x
Ġne ver
Ġoutc omes
Ġrepl ace
op a
qu id
Ġem pl
AN Tooltip
Ġk ill
Ġchann els
Ġflu or
pl as
res p
Ġc ode
Ġmen str
Ġmole cular
Ġrelations hip
o ic
t ase
ĠE m
Ġtra um
Ġl iv
ĠAddition ally
Ġ202 2
Ġestim ated
Ġclear ance
v a
at al
ar ing
Ġpl ants
Ġdiffe rence
ĠP ark
C l
Ġle uk
ĠB e
ast atin
Ġaddic tion
j ect
m et
Ġsu ic
4 0
e qu
form in
lis h
Ġt as
Ġopioid s
Ġbel ieved
Ġs ens
Ġve ter
Ġantidepress ants
Ġfrequ ency
Ġex tensive
Ġhypot ension
rol og
Ġf unctions
Ġanalges ic
Ġm eprobamate
le ar
ontrol led
Ġst ated
Ġconver ted
i atric
ĠCO X
Ġb ur
Ġser v
on vuls
ĠR ec
1 3
Ġsubj ects
Ġproble m
ĠAug ust
ogen ous
Ġperform ance
Ġext reme
Ġstart ing
ĠT reatment
ĠB oth
Ġ ion
s uch
Ġrec ent
am ines
Ġery th
ati gue
ar ies
ĠR ep
wh ich
arbit ur
he re
Ġm ig
Ġgluc uron
Ġsed ation
Ġpat tern
Ġanno unced
b s
Ġdef ects
Ġbre ak
Ġgluc ocorticoid
hy de
et s
re am
de hyde
qui red
Ġ ide
Ġst ren
Ġindic ation
Ġl en
ot e
Ġas th
phyl axis
Ġmixt ure
Ġmonitor ing
Ġresist ant
ĠQ u
cell ular
ro g
Ġmix ed
) ;
Ġinflu enz
M S
ĠAf ric
Ġmaxim um
Ġinterac tion
Ġexcre tion
Ġhydrox yl
Ġin active
ar ia
ĠLi ke
Ġn g
row s
ĠW ar
get her
y st
Ġto gether
Ġsour ce
ĠAs pirin
Ġvis ual
Ġsed ative
Ġtechni ques
T E
Ġs k
Ġrep e
Ġf all
Ġph ot
Ġform er
Ġ20 00
Ġmolec ules
Ġelect ro
og ens
r us
ox yl
Ġneur ons
Ġvacc ines
Ġrare ly
Ġsym p
Ġfac il
Ġt rim
Ġsal icyl
ĠL ab
ul ted
ĠNSAID s
Ġto o
Ġep id
Ġneurot rans
Ġro ute
ĠN A
ot oxicity
Ġal kal
lud ing
ĠS outh
Ġkidne ys
ol er
st ances
Ġch rom
su ed
Ġrandom ized
Ġsur gical
Ġf ar
Ġcyc l
oper ative
ĠN it
Ġsp ect
Ġdo uble
f lu
Ġtechni que
Ġmeas ure
Ġmemb ers
Ġasth ma
Ġreceiv ing
ĠJoh n
re en
art ment
at s
osph ate
Ġpossib ly
Ġtemper ature
Ġth alidomide
x t
ram s
at he
Ġab dominal
ce ed
u pp
w ork
ion ate
Ġprolong ed
ch ang
opram ide
Ġin hal
ocl opramide
ip ramine
m ission
Ġach ieved
Ġcon n
w ise
Ġqu ick
Ġfem ale
Ġob tained
Ġprocess es
Ġgovern ment
Ġantic onvuls
entric ular
H O
ogen esis
Ġlit er
um in
Ġch olesterol
Ġdos ing
Ġsubsequ ent
Ġun known
Ġval erate
Ġorig inal
Ġben e
Ġ7 0
Ġmod els
Ġcontinu ed
ĠA R
Ġpath ways
o ti
ari an
Ġ200 6
Ġp ap
ograph y
Ġdifferen ces
ol ution
Ġyo ung
av ir
Ġcat s
Ġelev ated
r ated
ru pt
Ġb arbitur
Ġmedic ines
te red
edi atric
Ġprot ection
Ġdex amethasone
in il
Ġse lec
Ġworld wide
Ġres ulted
Ġlabor atory
Ġf ul
ĠE E
o u
ĠP roduc
Ġhydro gen
Ġepilep sy
cep ti
ĠM an
ĠRe g
Ġdetermin ed
i asis
Ġderiv ed
I I
ĠEst radiol
Ġn et
Ġg ra
g u
onor gestrel
Ġg ood
Ġpneum onia
Ġper cent
m al
ri ed
Ġprof ession
s pec
or por
Ġlim it
amin ophen
ist ry
ĠM eth
Ġinter n
Ġpl ate
soci ation
Ġequival ent
ĠPe ople
o e
Ġf atigue
ĠAmeric a
Ġis sued
Ġclinical ly
Ġmul ti
il ine
Ġcon sequ
Ġbro ad
ere st
ag ed
lab el
Ġac cept
Ġenh ance
Ġsequ ence
ĠG u
Ġhep at
Ġexpos ed
Ġte am
Ġmean ing
Ġpres crib
Ġadv anced
Ġsubsequ ently
Ġmater ial
yn ec
Ġw ound
ward s
end ing
iv ed
ĠAn ti
chang ed
Ġinj ectable
ĠD is
z apine
Ġu ter
ĠGerm any
Ġhydrochlor ide
it ant
orr h
Ġposs ess
he x
erc ul
ĠII I
Ġpow er
entan yl
Ġr ash
fe eding
he l
Ġrel ief
al k
Ġstim ulation
Ġpa ren
N S
res istant
Ġguidel ines
Ġ1 50
Ġmono amine
ĠC al
Ġas corb
Ġex cessive
Ġsubst ances
Ġscienti fic
et er
Ġg rad
Ġep is
Ġwork ing
Ġ202 3
Ġsub str
Ġreg ular
Ġdisco very
Ġregard ing
Ġag on
form ation
Ġb ab
Ġg ive
Ġset ting
Ġsol utions
Ġdoc um
o ag
ad renergic
Ġsimilar ly
Ġsour ces
lan zapine
Ġar thritis
Ġprepar ation
Ġr un
Ġmy ocardi
Ġinhibit ory
Ġpur pose
Ġblock ers
ypro gesterone
c or
Ġdiscontinu ation
er b
is hed
ĠPar acetamol
ra g
ĠO ral
c hes
Ġbe gin
oci ety
Ġse em
ati ents
Ġsp e
Ġm as
Ġf av
Ġco unter
Ġrati o
ĠSpir onolactone
ĠC ar
Ġext ent
ĠPharm ac
p i
r um
ren ch
Ġstop p
ropri ate
oxif en
Ġattem pt
Ġcl on
Ġt ermin
ĠS ch
os ter
Ġdi phen
1 00
Ġqu es
Ġ19 50
Ġbu ild
ĠE th
Ġ199 0
Ġnam ed
Ġimp aired
tim e
Ġinf usion
c ardia
Ġal ter
oc y
Ġun changed
inc luding
Ġind ep
red nisolone
m eprazole
Ġbo ok
ĠS m
Ġint erest
Ġc ateg
ro ver
Ġ200 4
azep ine
Ġeff ici
Ġde hydro
rof ur
ti a
ific ation
op athy
ĠPro gesterone
Ġre ach
Ġdeg ree
Ġtac hy
C E
Ġprogram s
Ġn asal
et ary
ĠU p
Ġsol uble
an a
ĠS ever
Ġful ly
Ġl act
Ġendomet rial
Ġv ision
Ġinj ected
Ġess ential
m ed
Ġun like
Ġp ric
Ġtyp ical
ĠAm p
Ġmajor ity
Ġpre p
l usion
Ġy et
t a
Ġg el
hem ical
oly tic
Ġclassi fied
2 00
e al
Ġd il
Ġresp ond
DH D
cri p
Ġcommun ity
am es
ĠR NA
oid s
read y
r ist
Ġhydro ly
Ġox ycodone
ron ch
Ġcat aly
Ġ200 5
Ġdes crib
i ram
Ġm it
Ġc reated
h ood
at ures
ors es
Ġpoison ing
Ġpow der
Ġ âĢĶ
Ġwor ks
Ġbios ynthe
r up
Ġp seudoephedrine
pec ted
r ide
or ies
it tee
Ġoccur ring
Ġcontrib ute
all uc
i one
hol d
A T
Ġsus cepti
eral ocorticoid
ĠOrgan ization
ĠCom mon
Ġrec ord
ĠB enz
ĠSever al
Ġrecommend s
all en
Ġmen opausal
ym ptom
Ġhep atitis
renal ine
Ġproced ures
Ġal ready
in ergic
Ġallow ing
.. .
u ter
ĠF rench
Ġpl ac
8 0
Ġli quid
Ġ2 1
Ġchem otherapy
Ġhyp ersensitivity
ĠGABA A
ur s
ad es
amin ation
Ġconf usion
Ġiniti ally
Ġb ip
Ġantidepress ant
tip ation
enc ing
v ent
he st
ĠApp roved
Ġconver sion
Ġsurv ival
Ġp ump
Ġimpl ant
i op
Ġantic oag
Ġen anti
Ġtum ors
ro st
Ġinvol ving
Ġfood s
ut h
Ġatt rib
Ġbreast feeding
Ġsp inal
Ġex hib
ol s
ĠDM PA
O R
Ġac cess
ĠSc hedule
Ġmove ment
Ġstat us
Ġreplace ment
Ġeth yl
z ine
ri a
n a
pos es
Ġsever ity
il t
Ġbar rier
Ġv ess
Ġpar tial
Ġm ood
Ġdepend ing
i pp
alluc in
op e
ic ations
ol ism
Ġlip id
ĠD a
ĠN on
Ġisol ated
co unter
in ase
Ġpar as
as hes
ir al
he um
rap eutic
Ġassoci ation
ĠMedic ine
ercul osis
ator ies
Ġb asis
Ġsch iz
Ġs we
Ġtem por
ros is
Ġmet ronidazole
ke le
b al
s ts
low ing
Ġprogest ins
Ġinflu ence
Ġdeli very
l ast
Ġdist urb
Ġactiv ated
Ġst em
Ġsign s
Ġexperi enced
Ġtrans port
ĠH uman
al es
Ġl indane
Ġg as
Ġar tic
Ġbene ficial
D S
ĠF urther
D MA
Ġ iron
Ġs ick
R NA
Ġf in
ot t
ĠPharm aceuticals
men opausal
Ġm akes
am oxifen
Ġs itu
Ġf ind
Ġcurrent ly
ĠS te
E T
Ġc os
op las
Ġdiphen hydramine
rows iness
Ġprev ents
ĠP f
Ġpl an
Ġcont ent
Ġtrans plant
Ġphosph or
ĠComm ittee
Ġinfluenz a
y roid
Ġde ep
Ġmain tain
p y
ten ance
b ack
un it
p s
is es
Ġunc lear
om s
ĠS imilar
oph ren
Ġsubj ect
Ġf ract
of en
Ġhyp og
ĠH ospital
Ġlarge ly
erm ine
a ro
Ġb ronch
Ġp al
Ġn ons
Ġcyc le
Ġcompar ison
oqu ine
af inil
Ġal pha
Ġadv ant
a pt
Ġpers ons
k ed
Ġcaps ules
Ġul cer
pp er
Ġtachy cardia
Ġent er
Ġimprove ment
Ġoxid ase
c al
Ġl or
ĠS an
Ġc y
Ġcon st
ĠSt re
Ġd anger
Ġlab el
b enz
Ġfe ed
Ġrep roduc
Ġa w
Ġw all
ns on
r ig
Ġmost ly
Ġstren gth
Ġb al
Ġlink ed
ĠP atients
Ġach ieve
Ġdet ermine
Ġul cers
E N
t ors
ĠCh ina
as ion
tion ed
Ġint est
Ġthrom bo
it riptyline
Ġst e
Ġun i
Ġinvol ve
ro up
Ġen ough
Ġdec ision
Ġphosph ate
Ġmark ed
Ġan emia
Ġf ung
Ġprin c
c arb
Ġbehav i
Ġh orses
i ra
Ġb up
6 0
Ġschiz ophren
Ġg et
Ġ3 5
Ġorig inally
Ġveter inary
Ġf inal
Ġneurotrans mit
Ġquick ly
C I
Ġprovid es
Ġle ft
Ġcour se
om itant
Ġslight ly
y ear
Ġsupp or
kele tal
Ġ3 00
Ġsal es
Ġdrop s
Ġmin or
anc ing
Ġbip olar
ph or
Ġag ed
Ġm agn
Ġca ution
cy cl
P R
ĠM A
er ous
Ġbreat hing
Ġcomplete ly
Ġrec o
Ġauthor ization
ĠLab or
our nal
Ġ7 5
Ġn M
Ġestrogen ic
m ore
c ious
os por
roph y
Ġle ar
p ut
Ġal b
Ġauthor ized
Ġt rem
le y
Ġa x
s h
Ġen ti
eti te
HB G
Ġo ld
ĠT e
ĠSt udi
Ġpers ist
2 4
D L
en olol
open ia
ul a
Ġ âĢ
os a
Ġqu anti
Ġcho ice
M T
Ġ )
Ġc ur
ob ic
Ġn al
Ġs em
o tic
Ġcor on
w ith
Ġindic ate
Ġc ord
Ġp ut
Ġc al
ox icillin
Ġc ef
Ġactiv ities
ti ally
Ġv iew
Ġmet ast
Ġdesign ed
ol ysis
Ġliter ature
Ġmyocardi al
ec es
ant oin
ad ine
Ġm uc
an ic
yle phrine
Ġdehydro gen
ĠAs sociation
Ġre versible
Ġst rains
Ġc ast
Ġven ous
Ġantih ist
Ġapp etite
Ġmain tenance
Ġat tention
r ates
Ġtub erculosis
Ġinst ance
crip tions
Ġprop ranolol
) :
Ġpar ts
Ġh ot
ĠR ob
ip er
Ġobs erv
Ġacetyl ch
Ġd ensity
Ġcons tipation
Ġmanufact ured
Ġar r
Ġval ue
pos itive
Ġdis sol
ros cop
fer ase
S O
Ġimp act
Ġeth anol
ĠProduc ts
orm ally
Ġelim inated
w o
i als
re w
Ġa er
Ġs il
ap tic
iz umab
ĠUn like
Ġgiv es
ĠPf izer
ens ed
ĠFol lowing
Ġl ib
Ġle av
Ġear li
ons es
Ġfail ed
op ur
el i
Ġsupplement ation
Ġoxid ation
Ġwh ose
Ġschizophren ia
Ġl ig
p ass
sion s
P C
Ġen s
Ġexp ected
Ġabnormal ities
Ġproduc ing
omas tia
Ġinduc ed
Ġdev ice
Ġlen gth
Ġremov al
eti dine
Ġanticonvuls ant
but azone
Ġk now
Ġresp onses
y ing
Ġcol l
ly ing
and ing
Ġdi ethyl
Ġf ast
Ġill ness
Ġtranspor ter
ĠStudi es
Ġpen icillin
Ġempl oy
Ġne uron
Ġad opted
am b
Ġw ors
Ġre tention
Ġover d
im etidine
Ġmenstr ual
Ġt rac
Ġd en
ĠP sych
or al
ed eral
Ġreco very
Ġad equ
Ġprogest ogen
Ġsch ool
Ġin gestion
ĠH igh
Ġminim al
om al
Ġre ve
Ġm otor
Ġcommerc ial
Ġh allucin
Ġprof ile
Ġandrogen ic
Ġdiagn osis
Ġinf arc
ynec omastia
Ġindic ations
Ġlev onorgestrel
C o
v astatin
Ġmeas ures
Ġsm o
ĠA DHD
Ġinter act
Ġd om
Ġsu fficient
am azepine
ĠDes pite
Ġac quired
n es
t ri
us es
ĠPark inson
ĠD r
Ġret inol
Ġantipsycho tics
l it
Ġreg ion
Ġlar ger
ur ies
Ġmon otherapy
Ġstar ted
in n
ĠM ar
orr hea
ĠThere fore
Ġto ok
Ġrepl aced
resp ond
Ġes ters
Ġcereb ral
r uc
Ġat enolol
ĠE ar
Ġneu ro
al ian
Ġj ust
Ġm amm
op or
Ġmanufacturer s
Ġeng ine
Ġcont act
Ġhe av
Ġsubst anti
oc yc
Ġhe par
ad y
D P
Ġcorticosteroid s
Ġf entanyl
ĠTh us
Ġtraum a
Ġcap ac
Ġfew er
Ġin activ
ra de
ret in
Ġend ogenous
Ġtran si
Ġd rowsiness
Ġse ven
Ġcount ry
acet yl
Ġmod ern
Ġtechn ology
ĠJapan ese
es ter
Ġf und
Ġregim en
Ġprot ect
Ġidenti fy
ĠA TP
7 0
ĠT estosterone
Ġocc up
ul ates
amin ergic
an n
Ġpl aced
Ġh ome
Ġblock s
Ġp ill
Ġov ulation
Ġgrant ed
Ġconfirm ed
Ġaccum ulation
ĠP l
ĠE l
Ġd est
o ff
id ent
est rol
ĠN ov
Ġabs ence
Ġop tim
Ġed uc
Ġch allen
Ġtherap ies
Ġrequ iring
b rain
ĠS al
Ġw ord
d s
Ġv iv
Ġpre m
Ġim mediate
Ġinvestig ation
Ġn eph
ocyt es
Ġb illion
ra ine
Ġallow ed
ti le
Ġp s
Ġh om
Ġfrequ ent
Ġinj ections
Ġdef ined
Ġcre ate
Ġad oles
R H
Ġb est
ĠM od
Ġtrans cription
Ġcontinu ous
Ġint eg
ĠS y
itu itary
Ġthrombo emb
Ġ vers
Ġe y
Ġingredi ent
Ġup d
Ġu til
Ġevalu ated
Ġfat ty
Ġneu rolog
ĠV itamin
Ġpsych ological
Ġorgan isms
Ġdanger ous
Ġprol if
ag en
Ġexp ressed
Ġinter mediate
se e
c omp
ĠE U
Ġiss ues
Ġcor respond
op razole
ĠR us
g g
Ġre al
ĠO f
ly cer
Ġclaim s
Ġa th
Ġnit rogen
Ġenti re
Ġa z
T he
ric t
teroid al
Ġcle an
er y
Ġu pper
S H
b re
Ġextreme ly
cor tis
Ġsupp ly
Ġ200 3
Ġa id
Ġhig hest
Ġrepe ated
Ġst age
ĠFran ce
Ġreac hed
Ġphysici ans
ĠS er
Ġcont rover
ĠDrug s
b ound
Ġext ra
opro tein
Ġmethyl phenidate
Ġinfarc tion
2 3
Ġpharmacokine tics
omin ant
Ġpsych osis
- (
an ge
it able
Ġn utri
a rent
Ġan n
Ġprac tic
Ġt en
9 0
z ing
Ġne xt
Ġevent ually
im er
te x
Ġmon it
2 1
v ision
w ater
Ġs om
Ġc ocaine
Ġpur poses
Ġep inephrine
lus ive
ĠAfric a
st ream
o is
Ġs ensitivity
ap e
Ġre n
Ġn ature
ĠIn f
os ing
Ġinsu fficient
re duc
Ġradi ation
Ġtradi tional
Ġinduc es
Ġke y
Ġmeth adone
ĠCent er
Ġc op
Ġr heum
ac tic
Ġ200 2
Ġbec omes
ag land
le ments
p ine
or ation
Ġr ight
Ġst able
ed s
ap se
ĠS ociety
ell ow
ines e
ĠPro g
Ġcell ular
Ġcirc ulation
Ġmar row
Ġqu in
Ġconcer n
Ġcompon ents
Ġattack s
Ġox ide
Ġanticoag ul
ĠCl inical
s on
Ġp ure
medi ated
Ġval ues
Ġdiure tics
Ġlist ed
ĠP a
Ġhe aling
Ġbehavior al
Ġdis p
im e
Ġsug ar
Ġp ack
Ġpharmac ological
Ġaden osine
ol id
S C
reat ening
Ġapp ropriate
ĠB o
ĠSc i
Ġeryth romycin
r ich
Ġantagon ists
Ġd erm
se lective
Ġvir al
Ġhydrox y
Ġri f
ĠC D
Ġv ascular
Ġclose ly
% ).
k et
Ġundergo es
Ġintern ational
ow el
Ġinter fe
Ġdisturb ances
Ġapplic ations
ĠNor th
Ġhepar in
g ender
Ġsh or
ĠF l
Ġthe ophylline
ĠC ons
oxy cycline
Ġnum b
Ġdef in
rofur antoin
Ġmet formin
Ġexpl ain
ĠS ymptom
or gan
v is
Ġstruct ural
Ġinvestig ated
ment ation
Ġrec re
S RI
verse ly
Ġvacc ination
Ġavoid ed
Ġdes pite
Ġmodi fied
ogest rel
om ing
um b
hol inergic
Ġcharacter ized
ĠE s
ri etary
Ġsmall er
Ġmonit ored
iz ations
ĠS ec
Ġheadac hes
Ġop in
Ġmeas ured
Ġstr ateg
Ġs ter
Ġb rom
Ġdelay ed
ap ent
7 5
tic ular
ĠA g
Ġseiz ure
Ġac ting
Ġdepend ent
iz ers
iv es
Ġ2 8
Ġscienti sts
Ġ ions
oin ts
Ġir re
le ge
Ġj oint
Ġhe ld
hythm ias
el ves
as c
Ġfol ate
Ġf ace
P P
al ed
enc ies
lu x
Ġphysi ological
ce ler
Ġb us
Ġconsum ed
Ġmet oclopramide
Ġtak es
Ġso ft
Ġviv o
Ġorgan ic
ont in
ith romycin
Ġindic ates
Ġprogest in
all ine
Ġfe el
ĠB icalutamide
e ared
in ct
ĠP rop
ĠM y
Ġsus pected
ol l
ct al
Ġpres criptions
Ġemo tional
Ġslow ly
Ġintravenous ly
Ġleg al
Ġo lanzapine
Ġ2 3
or tion
Ġact ually
Ġdehydrogen ase
ĠM ethyl
Ġgiv ing
yp hen
Ġk inase
Ġvess els
Ġs ust
Ġt it
ad ol
Ġassess ed
ĠLe v
i et
ath ic
ĠSymptom s
G F
p re
Ġdi rec
Ġnat urally
Ġc erv
ole t
Ġantib odies
Ġins er
Ġpop ulations
Ġ5 00
opor osis
Ġmy el
Ġacetylch oline
och ond
ill i
ĠL ong
ti ous
ĠS erv
Ġdeg rad
im mun
Ġnicot ine
O H
as ons
Ġass ist
Ġthe ms
as ing
od opa
Ġstruct ures
ĠV al
Ġcoron ary
ĠY ork
ĠU s
Ġet c
iaz ide
Ġuni que
le p
Ġmusc les
Ġn an
os ition
Ġeas ily
Ġrece ive
Ġnum erous
C D
Ġg ynecomastia
d le
Ġbarbitur ates
ce mia
Ġsp ace
Ġth yroid
d em
th reatening
Ġhyp othe
Ġre vers
Ġmic rob
arin ic
Ġsupp lements
Ġprot on
Ġpen et
Ġst atis
Ġthems elves
Ġcol d
Ġne on
Ġdecreas ing
Ġ ult
ĠQ T
Ġint estinal
Ġsal ts
R A
Ġrepres ent
Ġro ut
Ġsp read
Ġbl ack
p art
Ġv entricular
ost atic
Ġmen ing
Ġex cess
Ġs amples
Ġto oth
ĠI NN
Ġfl utamide
Ġfav or
reas ed
Ġm es
Ġp ast
Ġar rest
p roduc
v ir
ne gative
Ġclaim ed
ĠL ow
en ed
ulf iram
Ġen co
eff ective
Ġcapac ity
Ġfet al
Ġcol lec
os in
Ġrele vant
t ype
Ġconc omitant
Ġblock ing
Ġcarb amazepine
Ġret urn
Ġlor azepam
Ġagon ists
a phyl
ru it
athe tic
Ġsh ock
ĠCh inese
ing u
ot oxic
ĠD ip
ĠC yc
ac hes
Ġe gg
Ġn ight
Ġsuper ior
ophil ic
ol ate
Ġopin ion
olog ist
Ġo meprazole
Ġcirc um
Ġfem in
ri um
Ġsign aling
Ġs ensitive
d ic
Ġe ight
Ġprinc ip
and s
rac ted
Ġ19 0
us c
Ġe rec
Ġiss ue
Ġacco unt
Ġserv ices
Ġac celer
olog ic
Ġimp lement
Ġp ig
rop ion
ass oci
Ġor th
Ġex ists
ĠW e
am ed
prop rietary
Ġb ox
ic o
N F
Ġh ir
Ġsw elling
Ġpolym er
b or
Ġadoles c
oth al
ex in
Ġp ediatric
fe ren
ĠMA O
su tism
Ġl es
Ġsuic ide
Ġmod ul
ut ure
Ġst ri
b inding
Ġtoler ated
Ġlat ter
ĠP res
b acter
Ġdi hydro
Ġret inal
Ġg onad
Ġdom ain
Ġmit ochond
Ġmedi ated
ĠS HBG
Ġstopp ed
Ġocc asion
Ġwas te
Ġcons ists
Ġprost agland
i ot
Ġhir sutism
Ġp anc
Ġar ti
Ġmanufact uring
f ort
leg iline
ir t
Ġcol or
Ġd at
Ġnons teroidal
Ġn ormally
Ġv enti
p rednisolone
Ġj u
m ark
ĠS he
if or
Ġw rit
L A
Ġantib ody
Ġthe ory
ne a
ĠS ur
ry pt
ac erb
cortis one
Ġcon cept
ĠS ide
Ġa im
c hem
ĠT ri
Ġam itriptyline
Ġsal e
Ġpric e
ĠG ram
Ġb ic
Ġ ure
Ġob struc
Ġc ut
Ġ2 9
Ġst ere
ad der
Ġdet ected
en es
ĠD en
yl ate
s es
Ġphysici an
ro us
ric ult
plas ia
Ġre asons
Ġt ric
ti tion
ĠInt ra
Ġf urosemide
ifor nia
Ġanesthe sia
Ġre ad
amin o
Ĩ Ĵ
er ia
Ġag g
Ġg ame
Ġcode ine
le te
âĢ Ļ
Ġoste oporosis
Ġb at
Ġstrong ly
unc hed
Ġd on
Ġbiosynthe sis
il ly
Ġsp ray
Ġst abil
olog ically
Ġprog ression
Ġso on
Ġhelp s
Ġrecommend ing
ĠL atin
Ġ200 1
Ġdoc tors
Ġprep ared
ran ul
ocyt osis
Ġcri tical
ĠP rim
Ġen c
Ġdoc tor
Ġattrib uted
Ġs um
Ġhyp othal
Ġhyp no
Ġfacil it
Ġcomp etitive
ub lic
ap rox
Ġmut ations
ab apent
Ġgreat ly
Ġprescrib ing
Ġc amp
abapent in
raz odone
nis one
Ġb owel
Ġco ugh
Ġstimul ant
Ġof fer
Ġcor tis
ĠM e
Ġinc orpor
Ġp r
ĠCal ifornia
ur sor
Ġemb ry
L S
as m
Ġ2 2
Ġhorm onal
Ġmis use
Ġme et
t age
hyd rate
iz ine
Ġneed s
Ġvers us
Ġadolesc ents
n RH
ac hed
el ine
p read
" )
j ection
en tical
Ġlic ensed
Ġun it
Ġke ep
Ġcol on
Ġsubstr ate
c hed
Ġ {
ol amine
ides pread
om bin
Ġw oman
ĠT wo
l av
Ġdisc us
ur ic
yl ated
Ġal g
Ġsc ler
ĠT rans
ĠS af
Ġf eces
ell a
ab les
opur inol
Ġt amoxifen
rom eth
ĠB et
Ġcomple ted
ĠP rol
Ġanalog ue
Ġ ,
oxid il
p id
ter ior
Ġa rom
Ġb ath
ody n
Ġmeth amphetamine
Ġeffective ly
Ġret in
Ġcl ot
ov ir
Ġrout ine
oc on
ĠG e
Ġtra de
Ġhist amine
Ġnicot inic
ĠHy dro
u z
Ġout side
Ġpap er
et her
Ġprec ursor
aprox en
t reated
Ġpsych iatric
Ġdi ed
Ġflu oxetine
Ġne ural
ĠM al
Ġenh anced
ect omy
Ġc all
Ġ( "
un ct
Ġno vel
qu al
Ġris e
Ġfoc us
Ġex acerb
Ġsp erm
al dehyde
an cer
Ġhe at
Ġascorb ic
Ġtrans gender
Ġli ve
ri x
Ġartic le
Ġor g
E A
t estosterone
Ġantic holinergic
Ġf ish
ph al
Ġan c
Ġantiandrogen ic
Ġmal ign
Ġâ ĨĴ
ĠZ eal
ress ing
Ġmem ber
Ġexperim ents
ĠZeal and
v ate
il s
Ġcom a
Ġreg ulation
Ġdev ices
a uc
Ġm ach
Ġr ights
Ġwithdraw n
Ġweak ness
Ġexperim ental
Ġmed ia
ore thisterone
ĠChlor amphenicol
Ġapp arent
Ġapp eared
Ġth i
od il
Ġw idespread
Ġirrit ation
ĠPh ase
9 5
ter al
in ate
Ġp sor
Ġre v
Ġinter val
adi ly
Ġreg ions
ĠEng lish
el le
Ġdep ressive
2 2
Ġw r
Ġpost menopausal
Ġrestric ted
led ge
associ ated
Ġcol i
Ġpro por
Ġ199 9
er ness
ĠM ic
Ġpar tially
act am
Ġ4 5
Ġcom b
ĠP hy
id o
d own
ĠF lu
os cop
P D
Ġper man
Ġthromboemb olism
Ġc e
ac tivity
Ġco up
ĠBenz odiazep
Ġpre ferred
ten e
Ġinter nal
Ġinj uries
Ġund ec
ĠSw ed
al so
Ġdifficult y
m ax
Ġe ther
ĠB ayer
Ġen l
Ġreg ulatory
m er
Ġl if
Ġban ned
Ġrif amp
o or
Ġus age
ĠM c
ys es
ĠPharm a
oc onazole
Ġphen ylephrine
ĠD ex
Ġle t
ĠD H
rough t
en ec
Ġc imetidine
Ġre ference
f ree
Ġbios imilar
Ġarr hythmias
Ġs ample
Ġinf er
abol ic
Ġmal es
un ger
Ġar m
d im
g y
ĠC ont
Ġneurotransmit ter
ro amphetamine
Ġre verse
Ġc ame
uc k
Ġgro und
Ġair way
Ġwh ole
i tions
ĠPC B
immun e
ren one
Ġcan cers
Ġsulf on
Ġbas ic
ti an
Ġacid ic
Ġpossib ility
Ġal ways
ph osphate
an olone
ros p
kal emia
Ġsur round
Ġr h
Ġcor tex
Ġprem ature
Ġsuscepti ble
Ġtrans fer
spec ific
Ġneurolog ical
Ġim aging
Ġprolif eration
cer tain
aro tene
orph an
ĠCol lege
Ġsc re
Ġval pro
. )
Ġprob ably
Ġg ram
Ġm ind
ment al
Ġgen ome
Ġhyper plasia
Ġhem orrh
Ġsynthesi ze
Ġc ypro
ĠAl so
ĠM on
ĠCh ar
g al
Ġro d
Ġperson al
Ġearli er
yc lic
Ġingredi ents
Ġo ption
ĠH er
Ġchan ged
l s
Ġrem ove
Ġenvironment al
ed ip
Ġlo op
Ġbreat h
Ġey es
Ġcon gen
Ġtw ice
ĠC och
Ġimpro ving
un s
Ġmig raine
ĠE d
ĠF em
Ġblock er
as ive
ĠCon versely
Ġa u
Ġnear ly
g onad
ĠIs oniazid
Ġsmo oth
ph thal
Ġf ore
Ġl ost
icl ofen
Ġex amin
Ġra d
Ġd ox
Ġfol ic
el ic
Ġcy an
s elf
an il
Ġmic ron
Ġperiod s
ĠN a
ran ge
ti fication
Ġcat ech
Ġm ag
id ocaine
ur red
Ġ199 8
Ġh old
Ġintra cellular
Ġhealth care
phen yl
ĠPhen ytoin
Ġof fic
it us
f usion
yp es
Ġcar ry
Ġadv ised
ĠS pec
es ium
ste ine
iclofen ac
est ed
Ġly s
Ġdifferen ti
ffe e
rop ine
ir r
Ġsequ ences
g ia
Ġt ree
Ġam b
f l
ĠB en
I C
ĠS DS
ĠP ri
vention al
Ġins ide
oti dine
Ġin gest
Ġ4 00
Ġex ceed
Ġneurop athy
R T
Ġex cept
Ġsur ge
ox ygen
si an
Ġanti gen
Ġpred nisolone
ĠCoch rane
Ġindust ry
b orn
ĠLabor atories
Ġcontin ue
al exin
os tic
ĠS yn
il ization
ethyl amine
ĠCan cer
Ġhe aring
Ġindep endent
Ġmater ials
ĠL illy
Ġadj ust
gl uc
ti d
if edip
ĠA st
Ġmetast atic
y r
ĠP ol
ĠD el
Ġsick ness
E E
T C
Ġsyn th
t es
am ycin
ĠF rom
orph one
Ġprovid ing
rox yprogesterone
Ġnar co
Ġ il
ox one
Ġmod afinil
ch ar
Ġbal ance
t ra
os upp
ĠC H
Ġinduc tion
Ġche st
Ġsuggest ing
Ġb rad
ĠL ithium
id ation
ĠW HO
Ġdet ect
k en
Ġdrin king
ĠD ise
i at
Ġtra vel
ĠC NS
Ġ2 7
Ġintroduc tion
oc arb
ĠSt aphyl
Ġwork ers
rol one
m g
Ġanesthe tic
Ġla unched
Ġw ays
Ġfet us
ĠSimilar ly
Ġra ised
Ġdec l
Ġfol lic
Ġpred ominant
ĠSub stances
Ġtas te
Ġepis odes
Ġn ational
d ol
if er
Ġam oxicillin
Ġcri tic
Ġbe g
Ġu ptake
sol ute
Ġsteroid s
Ġcom es
oc al
ĠE ff
Ġra b
Ġve in
Ġcont amin
Ġrecogn ized
Ġres ol
Ġst or
Ġmother s
ĠB rand
Ġchemical s
Ġ Ï
Ġques tion
Ġ2 6
Ġm ov
ĠR ed
Ġter at
Ġvol tage
Ġcontain ed
Ġad ren
tim ately
2 6
Ġorig in
p ts
id ol
ĠT op
Ġit ching
ph il
olog ists
r ical
ant oprazole
raz olam
ĠEn ter
Ġeduc ation
c k
Ġhe x
yp er
Ġb rought
at oid
ont aneous
o form
Ġin effective
az olam
ĠCh ild
Ġcann ab
b rand
Ġf uture
Ġre adily
Ġhepat otoxicity
Ġadvant age
de x
Ġreview s
re ed
Ġsim ple
it als
Ġl og
ĠSaf ety
on a
Ġch ol
Ġ6 5
Ġam mon
ĠIt alian
Ġanalog ues
Ġrecre ational
b ility
res hold
ph as
ĠS SRI
ok al
Ġstep s
Ġcl in
Ġintest ine
Ġv aries
Ġe u
ici ans
T A
Ġcortis ol
her ing
Ġsol ub
ĠFurther more
Ġc ure
ĠM erc
Ġalb umin
s ed
p razolam
s m
Ġfe atures
an ine
Ġadequ ate
st ate
ĠG nRH
Ġsuccessful ly
Ġv ic
Ġshow ing
Ġexperim ent
Ġinf ant
ast ro
app roved
Ġsol id
ore x
Ġcult ure
Ġpep tide
Ġde b
Ġ3 6
Ġhe ro
sequ ently
ĠM en
Ġconsist ent
ĠV TE
ran es
Ġ \
Ġvi ol
on ly
Ġpro hib
ign ed
Ġrheum atoid
us hing
ĠIn d
ard s
sy n
am il
Ġparen teral
ĠIntra venous
ic it
id ity
Ġv es
Ġunc om
Ġsuppor ted
r ill
Ġcan d
Ġb orn
as te
ec tious
ĠAn d
Ġp ort
ĠComp any
Ġsymp athetic
pp ed
Ġtend erness
er ves
and rolone
Ġloc ated
Ġsim p
Ġnucle us
ifedip ine
Ġl as
medi ately
Ġtub e
Ġgrant ing
Ġp el
ig ible
o yl
ĠStaphyl ococcus
ĠC our
Ġad renergic
ĠO p
Ġconf lic
r s
Ġfract ures
Ġil leg
ĠL im
Ġto wards
Ġapplic ant
u ation
ĠP ot
ĠM ex
Ġantipsycho tic
Ġglob al
un ted
Ġdepend s
Ġdat ab
ac es
Ġcongen ital
us ter
Ġpl us
Ġcent er
Ġoverd oses
Ġpractic es
Ġag es
Ġsynth ase
Ġâ ĪĴ
Ġanal y
ĠD C
Ġpromot e
Ġrad ical
Ġf a
Ġsub unit
Ġaut o
ĠHealth care
Ġpa rent
Ġcons cious
Ġmusc arinic
sib ly
Ġarter y
Ġvary ing
Ġam ine
Ġneu ros
Ġst rain
Ġsp ir
Ġspect rum
Ġag ricult
Ġcar ried
let es
ok ed
' t
arb onate
yp ical
o ar
Ġsepar ate
Ġco ffee
ĠW illi
Ġdep ress
Ġdist ingu
Ġimpro ves
Ġhyper kalemia
e k
ĠN M
Ġdistrib uted
Ġphen omen
, "
oglob ulin
Ġsu ff
Ġauth ors
ĠSy stem
Ġc it
row n
4 5
ĠIn ter
Ġun certain
on in
ĠA M
ĠS up
Ġd raw
Ġcompar able
Ġchlor oquine
Ġpro phylaxis
Ġtarget s
Ġ194 0
is ation
9 9
Ġcreat ing
u el
Ġavail ability
Ġm m
Ġim mediately
f en
z er
in one
ob acter
Ġhorm ones
adi an
Ġeu phor
at ur
Ġco ord
Ġl is
Ġamp icillin
Ġcateg ory
i ans
k ines
Ġb ot
ĠE C
Ġcor rect
ab sor
Ġrec ently
Ġtetra cycline
et amine
Ġc ore
Ġeff orts
ut ing
Ġex act
Ġbegin ning
Ġfac ial
Ġliv ing
ub icin
y ond
Ġf ix
is opro
ri le
Ġsust ained
Ġconst ant
Ġnucle ar
Ġmed roxyprogesterone
ac co
Ġp ituitary
c ontrolled
Ġremain ing
Ġman if
Ġh ost
ĠDep artment
Ġexperi encing
Ġyo u
Ġreg ulated
Ġ .
Ġs ent
og a
Ġe ating
Ġg ave
Ġro utes
Ġf it
ĠPhen obarbital
N H
Ġket oconazole
Ġun s
Ġrec ombin
Ġsp ontaneous
c om
Ġstimul ates
w here
Ġp ay
Ġab solute
Ġcol le
Ġfor ce
icl one
Ġle thal
Ġ199 5
Ġimpl ants
Ġh ard
ĠS uch
Ġtox in
Ġsupp os
Ġep it
Ġto b
Ġdis ulfiram
ang u
Ġcarcin ogen
Ġd oxycycline
al p
ĠA v
Ġb ile
Ġhe ter
Ġcyc lic
ĠUn der
ven tions
Ġglob ulin
auc oma
is c
an oate
ĠR el
ĠÎ¼ M
Ġse legiline
Ġhist or
Ġth reshold
Ġex ception
end ently
ok ines
Ġreve aled
2 9
Ġins tit
Ġax is
ative ly
raz il
Ġens ure
is tics
op iclone
Ġreduc tase
ip ment
okal emia
ist ing
ĠJoh nson
am et
ath om
Ġprev al
ĠAd opted
Ġrace mic
ad em
Ġsign al
P S
Ġs n
Ġd ental
Ġco ver
Ġgland s
ent a
Ġindust rial
ĠDip hen
e v
k a
Ġacc omp
Ġrep air
Ġscre ening
pl ace
Ġob j
Ġsignific ance
a ise
ud den
Ġexist ing
ĠB el
Ġbic arbonate
Ġplate let
Ġtrem or
Ġcontrover si
m eth
id ed
Ġk ne
Ġassess ment
oph age
Ġinterfe re
m ing
Ġli k
Ġoccasion ally
all ow
Ġst re
Ġc ris
Ġexc lusive
Ġsu itable
Ġsm oking
am ma
Ġleuk emia
g ers
at ase
ill ed
Ġlower ing
ĠS ulf
co bacter
yc hed
Ġlev odopa
Ġun able
Ġexp and
cin ate
Ġrib os
Ġst ages
ough t
Ġha pp
Ġgrow ing
v y
Ġv ul
ĠB io
c arotene
Ġmin eralocorticoid
Ġpsych o
Ġknow ledge
ul os
arge ment
Ġneut ral
am us
ĠP en
Ġdes ired
ĠStre pt
of i
Ġal k
Ġother wise
Ġoxid ative
ĠE p
Ġthromb ocyt
Ġs in
ĠJ ournal
pos ition
Ġtem azepam
er ty
Ġfil ed
Ġse ason
Ġmo tion
Ġana phylaxis
ĠB razil
l ig
Ġf ederal
Ġro om
Ġcos ts
ĠC B
Ġblock ade
ĠIm p
le ts
ĠN orethisterone
ary n
Ġbi om
en zym
a que
R s
ly cemia
Ġanti d
Ġmemb ranes
I n
s tim
Ġfluor oqu
ĠDex amethasone
ĠAd verse
Ġf raction
Ġun its
Ġmechan ical
Ġhypog onad
Ġemploy ed
az ol
Ġcent ers
ep hal
rometh orphan
ord er
Ġcor rel
Ġdet ail
g lyc
oph osph
it ual
Ġdec line
ĠAm ong
anol amine
ĠDiphen hydramine
Ġl in
Ġreac tive
Ġnit rofurantoin
Ġimmun oglobulin
Ġyo unger
Ġcolle ag
Ġcont ext
Ġatt ached
U S
end azole
he imer
ĠM ark
Ġtrans mission
Ġalle vi
enti a
in amide
Ġbl adder
Ġattem pts
f ung
l actam
Ġ199 7
Ġunderst ood
Ġsolub ility
ĠF urosemide
Ġdi vid
Ġacc ord
Ġfl ashes
2 7
E P
yc ardia
Ġstud ents
ĠMedic inal
ĠOn ly
ĠCour t
et ron
Ġg ut
Ġag itation
ling ual
ĠSp ider
Ġbab y
ac ts
Ġul timately
trans ferase
Ġsk ills
ĠP an
Ġve get
Ġstor age
Ġext ract
Ġdist inct
Ġf rag
Ġcon struc
Ġha z
Ġpat ch
Ġwrit ten
Ġaff ects
ĠP las
Ġextensive ly
Ġoutc ome
Ġy ellow
Ġelect ron
Ġseem s
Ġupd ated
c i
Ġgo al
C R
eti tion
Ġtempor ary
Ġad di
Ġcont rac
Ġchem ist
s en
Ġa way
p rom
ĠC are
og lyc
Ġpar a
ens in
2 8
L C
Ġsw it
ĠC ontrol
Ġpatent ed
fact or
Ġov arian
Ġequ al
Ġim m
ĠPhen yl
ti fied
ful ly
Ġtr ue
âĢ Ĳ
Ġactiv ates
Ġind ex
Ġpattern s
Ġreproduc tive
retin oin
Ġco ag
ges tive
Ġremain ed
ĠE r
Ġnet work
Ġlear ning
c ies
ot rex
Ġelectro ly
ulos keletal
3 8
n ort
Ġan hyd
tiv ation
Ġbec oming
reg ular
Ġinter vention
Ġide a
ĠMerc k
ĠOn ce
or ing
Ġlib ido
ĠNon proprietary
Ġc rim
flu or
os ide
Ġdext roamphetamine
Ġneuron al
Ġad apt
yl ase
ĠNe u
ĠA sia
Ġpy rid
Ġgrad ually
Ġ2 50
ĠSt ate
oglob in
Ġmagn esium
im etic
end s
Ġfo ot
Ġag ree
Ġbehavi our
ĠH ist
Ġneon atal
a ren
an al
Ġdi oxide
til b
Ġdocum ented
Ġanti gonad
aster ide
Ġbenz oate
Ġcontra ception
Ġf aster
ram idal
Ġsymp athom
osp itals
rof loxacin
an ish
Ġmicron ized
us h
Ġps yched
Ġdegrad ation
Ġenl argement
Ġcypro terone
t rex
Ġm ill
A A
ĠAustral ian
Ġinduc ing
âĢ Ŀ
Ġpur ch
gre g
Ġdescrib e
ĠBenzodiazep ines
d a
Ġprofession al
Ġmet al
ĠW y
Ġhydroly sis
Ġm L
Ġext raction
Ġdet ection
Ġimmun osupp
Ġman ner
B P
us ted
Ġfam il
Ġaccord ance
tion ally
Ġform ula
Ġcontroversi al
Ġat rophy
Ġconjug ated
Ġ >
Ġdiure tic
tern al
Ġdiab etic
en anti
ot ype
ce ment
ad ing
Ġl ines
Ġpro min
Ġcom e
enti ally
Ġcontin ues
Ġbab ies
Ġindi rect
Ġtric yclic
ens ation
ital opram
oper idol
Ġsitu ations
ar one
ĠF irst
ĠR are
Ġgl aucoma
Ġadd ress
oar thritis
Ġpol ic
man n
Ġz inc
an tit
Ġth ick
Ġconc lusion
Ġev olution
Ġdiagn ostic
ĠB ANTooltip
Ġlung s
ar a
Ġad he
Ġad ver
Ġout put
Ġin n
kines ia
o tide
r ating
Ã §
ĠAb out
th rough
Ġref ers
ĠCa ffeine
Ġtransi ent
bl ock
Ġquanti ties
g i
oph ag
B S
ĠSan ofi
s w
ro te
ĠT echn
ur ance
Ġrecommend ation
Ġdop aminergic
Ġcircum stances
B C
Ġ rough
Ġrel i
Ġdevelopment al
Ġdri ve
ĠBl ood
Ġs ole
es tern
ad ministration
ĠIt aly
Ġequ ipment
Ġrequire ments
phyl actic
v ic
in ib
Ġal tered
ĠH a
Ġdiff er
Ġmut ation
Ġnar row
Ġpro ven
Ġse arch
ĠG roup
Ġinf ected
gen er
Ġbl ue
ili ary
ĠSe vere
Ġdim in
Ġa ure
Ġdem entia
r yl
Ġt y
gen cies
Ġprot ective
Ġvic tim
ĠStrept ococcus
Ġcol itis
Ġprostagland in
im b
Ġox azepam
fy ing
Ġsur ve
O S
ĠEth inylestradiol
ĠEar ly
Ġles ions
Ġo d
Ġ199 4
Ġscler osis
Ġk g
land s
ĠMex ico
Ġh ouse
Ġimprove ments
ce tic
Ġleg s
Ġk ind
pec ts
Ġhallucin ations
Ġcon ventional
Ġdis rupt
Ġcat he
Ġactiv ate
Ġthe r
oler ance
ĠI L
c ar
Ġath letes
Ġg abapentin
ĠEst rogen
ophage al
om otor
Ġvirus es
Ġp i
rob ial
Ġket amine
Ġd ark
ren orphine
por ted
Ġvas odil
Ġcap able
ĠAmp icillin
C h
ip rofloxacin
ax ia
Ġenco ura
0 1
Ġpain ful
Ġhero in
otrex ate
Ġ /
n ers
ĠB ut
a fter
ti ff
Ġst ory
ĠAmp hetamine
Ġhypno tic
Ġvari able
min ister
pid em
ĠHyp er
ĠâĢ ľ
reduc tase
ie ving
Ġorg ans
Ġhypogonad ism
Ġandrogen s
d ue
h n
we igh
Ġprocess ing
Ġe c
of lav
ĠCom bin
ĠEng land
ĠRob ert
iv a
ĠTh at
Ġperman ent
Ġrel ieve
Ġp up
Ġs an
ĠThe rapeutic
ĠPro gest
Ġc ram
ver sibly
Ġappro aches
Ġdig oxin
ract ory
Ġsub s
Ġphenyl butazone
Ġirre versible
r ight
om on
ĠE vidence
Ġcons tit
Ġmin oxidil
Ġoste oarthritis
Ġt razodone
ĠL ess
olog ies
Ġgener ation
3 4
Ġsalicyl ic
Ġp ac
em oline
ist ance
acter ial
m y
Ġc ust
ri p
Ġheav y
Ġm ouse
di azep
ograph ic
tilb estrol
st ric
b u
l ies
ram adol
ĠH ar
Ġ9 9
ab ine
ĠAc ute
Ġp le
id a
ĠChild ren
Ġpub erty
Ġis chem
ad ox
ke y
Ġcharacter istics
ĠG astro
Ã© n
Ġsubstit uted
diazep oxide
Ġp air
Ġcolleag ues
Ġtrans l
anth ate
ĠGe or
ac he
Ġs ense
Ġnit ric
nort estosterone
Ġm or
Ġpass ed
ĠT ra
ĠM ich
Ġcl ar
Ġbrad ycardia
Ġcast ration
Ġch arge
Ġerec tile
Ġf ing
ant ed
Ġaure us
ĠEn d
Ġprogest ogens
oflav in
Ġm and
Ġde ad
ĠW est
Ġlip ophilic
Ä ģ
Ġvi olet
Ġopp osed
oc in
qu il
A s
min eralocorticoid
Ġswe ating
trex one
or ubicin
A L
las tic
Ġs ay
Ġpro ject
ĠR oc
ox ym
Ġtrans form
Ġne gl
Ġinsu ffici
Ġmodul ator
ur g
Ġcombin ations
Ġstruct urally
Ġprac tition
Ġenanti omers
Ġsc ale
oxygen ase
ĠC er
Ġat om
Ġfeed back
Ġpartic les
ĠC or
ĠP P
Ġsaf er
rapy ramidal
Ġt ax
ro at
Ġd u
or ith
ĠAl z
Ġprot oc
Ġcre am
Ġilleg al
Ġg rams
Ġir regular
ĠSh ort
Ġve ct
Ġ195 5
at ch
ĠCan adian
go ing
bre ak
ul ed
ĠM is
Ġmin eral
Ġ9 5
Ġphenomen on
inol ones
Ġus er
Ġd ate
ĠWilli am
eli hood
Ġbi oc
hyd ration
sol uble
Ġo phthal
and emic
ĠINN Tooltip
ol a
Ġsp as
Ġleav es
k i
ur ch
Ġmat rix
Ġbup ropion
roscop y
Ġju ice
isopro dol
A D
Ġcryst alline
ĠSte ven
adem y
' -
Ġp oints
Ġw rote
Ġgener ated
l ut
Ġa cetic
at um
Ġst rict
Ġappear ance
ĠComm ission
Co A
Ġc is
Ġcommerc ially
Ġcon gestive
Ġres our
ĠC ro
de red
Ġtob acco
Ġp g
ĠM eprobamate
Ġmed ull
Ġpl aque
Ġorgan izations
g el
Ġrecommend ations
Ã ¼
Ġh or
Ġanti mic
ans etron
Ġem ul
Ġg reen
rom et
Ġop i
Ġid entical
Ġ3 3
Ġbas eline
ĠF am
s tilbestrol
Ġl ayer
ĠS ol
ĠE ach
ĠEx amples
im al
ole c
Ġtermin al
Ġf al
Ġlik elihood
Ġpharmacokine tic
iz ole
le b
ocon stric
ĠN DMA
Ġ198 5
ad ed
Ġmain taining
ic a
ĠC hemical
ex isting
ĠSc hering
ĠÂ ±
Ġdest ro
Ġrifamp icin
Ġc od
Ġcon vul
Ġchem ically
Ġmal aria
ospor in
6 5
Ġanti mineralocorticoid
Ġb ed
Ġg ir
Ġsymptom atic
Ġuter ine
ĠR ich
ll a
Ġdys kinesia
ĠCyc l
et hy
Ġsp orts
E D
Ġd onor
um ed
Ġex ec
Ġrecord ed
Ġepit hel
ac tion
Ġh ospitals
Ġn aproxen
Ġele ments
Ġref lex
Ġharm ful
A P
f ord
at o
at her
Ġf en
ĠE v
ch ange
ĠTh ough
Ġs udden
Ġv s
Ġdri ving
Ġbe yond
ĠH ep
Ġdext romethorphan
Ġt in
ĠAlz heimer
Ġmusc uloskeletal
Ġqu antit
Ġacet aminophen
Ġsurround ing
H S
Ġre ctal
Ġdig es
iot ensin
enanti omer
ĠPa ul
irr h
Ġmen tioned
Ġhem at
Ġsh are
Ġhyp okalemia
ĠPCB s
ati ent
iod arone
ĠMore over
Ġanalges ia
irt az
Ġpsor iasis
ĠCh ris
Ġb ring
ĠM o
Ġloc ation
ĠH al
pec tive
it ory
Ġadv oc
Ġ Ã
Ġn ose
Ġim age
Ġuter us
ĠN ot
Ġl angu
ĠAc ademy
Ġseroton ergic
i ro
less ness
Ġcorrespond ing
av is
Ġbel ieve
Ġarti ficial
it ude
Ġk ept
Ġinduc ers
ĠSwed en
Ġ1 000
cept or
Ġacc ur
Ġc ul
ed ema
Ġexp ensive
Ġunlike ly
Ġingest ed
an k
Ġdec ades
ĠDM SO
Ġalg orith
n on
Ġex amples
Ġpl ain
Ġd iclofenac
Ġme at
Ġâ ī
ĠC ardi
ĠNit razepam
Ġprogest ogenic
Ġnumb ers
Ġp ent
Ġth roat
Ġpsych os
Ġste ady
u ff
Ġl idocaine
ob ut
Ġunderst anding
Ġcef alexin
ĠWy eth
Ġglut amate
Ġsetting s
Ġpanc re
Ġam nes
Ġblood stream
el t
ak er
ogen e
Ġal prazolam
om b
Ġunder lying
term ine
Ġminim um
Ġcon d
Ġstrong er
M D
e w
Ġem pt
Ġantihist amines
op rim
ste in
Ġcour t
ranul ocytosis
9 3
Ġt ro
7 8
s ulf
Ġen anthate
Ġhospital ized
Ġhypothe sis
Ġl ute
ĠP T
Ġ4 8
ĠW he
Ġlab eling
Ġbeg ins
Ġthrombocyt openia
am f
Ġexp ired
Ġfe eling
Ġr ings
Ġpresent ed
re p
Ġimport ance
Ġben ign
Ġfollow s
r or
Ġ ...
ax el
Ġdemonstr ate
Ġrestric tions
le v
op rop
Ġfacil ities
are t
Ġcol lab
Ġventi lation
Ġs un
Ġcoag ulation
m p
Ġal ert
Ġt ension
ar izine
ap a
Ġelect rical
Ġconj unction
ĠJ ames
Ġg est
Ġpoor ly
plas tic
Ġbuild ing
ocyc line
Ġacc id
I P
ĠTe va
Ġrough ly
if ene
Ġinter ventions
Ġw in
Ġproper ty
orm s
or ic
Ġex er
ron t
Ġorgan ism
Ġstimul ants
Ġnot able
Ġp andemic
ĠR an
Ġnal oxone
Ġshor ter
ĠH ear
Ġantagon ism
Ġsign als
Ġfeel ings
g ent
Ġas pects
Ġpromin ent
Ġper me
Ġfoc used
Ġsh if
Ġc rit
ĠE ast
ffici ently
Ġf ire
Ġis omer
Ġinsuffici ency
ĠPre vention
oz apine
Ġmid dle
Ġlim b
E C
id i
Ġ ros
Ġto day
Ġcom mit
Ġcomp et
Ġcre ams
Ġpat ches
Ġcl uster
ĠPhy s
it ter
Ġtrim ester
Ġaccomp an
Ġl and
Ġus ual
Ġpromot ing
d ers
ĠIn iti
Ġqu al
Ġca pt
Ġhand s
Ġpl ays
Ġpos itions
5 00
il ities
ĠI U
ĠH is
Ġdec omp
Ġmetabol izers
tig o
Ġauto immune
p ers
ath ione
Ġran ges
Ġsalicyl ate
Ġfung al
tim ate
ter ase
Ġinhib ited
n ot
N T
Ġc ephal
odyn amic
in ine
im us
Ġmodi fication
Î ´
Ġh ip
ĠI S
Ġinv asive
i tic
Ġb ran
Ġbehavi ors
Ġprog ressive
en ogest
Ġrepl ication
ond on
Ġexclusive ly
othe l
oh n
ĠInc reased
qual one
enec a
if y
Ġsc alp
Ġpersist ent
Ġresid ues
Ġplac enta
Ġs qu
Ġlymph oma
Ġserv ice
er obic
ber t
xim ab
Ġexperi ences
Ġlar gest
c ome
ect ing
Ġout break
Ġsuc cinate
ĠSm ith
Ġless er
Ġprom pt
prop anolamine
d L
Ġp anic
ot hy
ect in
H C
ĠC urrent
Ġimpl icated
Ġan th
Ġout weigh
of loxacin
ag on
Ġran ging
p e
s in
Ġde fic
Ġact ual
Ġrec urrent
Ġem erg
sc ale
Ġst ored
ĠB er
Î ³
Ġf ear
Ġderm atitis
Ġpre term
Ġhim self
ri age
Ġ199 6
ĠL ondon
Ġwh y
ax o
Ġpyrid ox
arb oxyl
Ġglucuron ide
Ġestab lish
Ġantib acterial
i ety
Ġon es
per idone
ĠPharm aceutical
Ġcontrol s
l ight
ic t
Ġpred nisone
ĠDise ase
uth or
h igh
hib ition
Ġoper ation
Ġleav ing
ar ic
Ġconc urrent
ĠNM DA
N R
er ately
Ġthe ore
Ġso il
es ity
Ġprim idone
Ġstimul ate
Ġsimp ly
av age
Ġantih yper
b rid
Ġ erg
Ġim ipramine
a res
Ġsc ar
ot rans
ĠC hem
Ġex ternal
Ġdel ir
Ġversion s
Ġwh om
Ġpost operative
Ġcris is
Ġag greg
Ġsup erv
Ġw ild
Ġref ractory
ĠAst ra
Ġmed ium
Ġprofession als
i ents
re tic
Ġpneumonia e
Ġch ance
Ġcyt okines
tim ul
Ġconsider ably
yp ionate
Ġrel ig
prop ionate
Ġrepor ting
H SD
Ġs ection
ten ed
Ġop ening
Ġtrans formation
Ġte le
ĠW omen
Ġsu fficiently
Ġ3 1
ob enz
3 3
Ġlow est
ĠGen eral
lep sy
v ac
ĠR et
Ġmethyl prednisolone
U C
ud d
ĠB ased
ur vy
ic ate
Ġ195 6
Ġcarcin ogenic
irtaz apine
E MA
oth iazide
Ġaffect ing
Ġ <
Ġeffici ency
Ġanticoagul ant
Ġsc hedule
Ġext rapyramidal
Ġst ain
Ġ199 3
ur ia
yn on
Ġves ic
ĠAc et
ĠSch ool
amf etamine
M O
Ġ rol
Ġcl os
rel and
op ing
Ġcomp osed
raz ine
Ġfl av
Ġtarget ed
Ġmo iety
Ġantid ote
n ol
ly l
Ġmod est
cl inical
Ġann ual
h am
Ġadj usted
a qualone
Ġsuppress es
Ġfal se
Ġb odies
Ġbond s
ĠRoc he
Ġnegl igible
i os
Ġbel ief
Ġstatis tically
Ġs ul
ĠR oy
Ġery the
Ġdis s
Ġop tions
Ġbreas ts
Ġlig and
r uct
at t
Ġam ph
Ġst ability
Ġanti fung
Ġbeh ind
Ġbus iness
Ġto ward
ensi ti
Ġprec ise
v ious
ep in
Ġreg ist
Ġradi o
ĠBl ack
Ġengine ering
Ġt ry
ĠE ven
ill ary
Ġrec ip
anc omycin
eth oprim
ĠSteven s
h our
of ib
Ġmat ter
Ġmac ular
unc il
Ġgene tically
a ign
Ġp ron
Ġes c
Ġd ram
av ing
Ġprohib ited
Ġd yst
yn aptic
ethy n
or vastatin
Ġint ensive
Ġmeth otrexate
ĠDa vid
z en
Ġantimic robial
ĠM ul
Ġint oxic
ex p
9 7
Ġdist ance
Ġpredic ted
ĠT ur
Ġang ina
Ġundergo ing
c alled
Ġc ess
Ġb ul
te b
ect or
Ġana esthe
Ġep hedrine
otrop in
a und
t d
op t
Ġf ig
Ġn urs
Ġal ign
ia tive
ĠGastro intestinal
Ġaccompan ied
re gn
Ġc ys
Ġd ye
Ġse b
Ġrelax ation
J oh
Ġob tain
Ġnec k
ĠGl axo
al king
ĠP ort
ĠE str
on ucle
ĠG I
Ġser ve
Ġsym b
Ġem phas
op rol
Ġst ay
ach ing
Ġcarb oxyl
oster ic
Ġs ession
unt ary
Ġdes ire
Ġarter ial
Ġfib rosis
Ġand rost
ĠS LS
ĠD ist
lect ing
Ġantigonad otropic
o ot
Ġrele asing
i ant
ĠT ak
ri ef
Ġbl urred
fic ations
Ġenh ancing
g a
ly sis
Ġas ked
Ġsc ore
Ġext racted
Ġket one
Joh nson
Ġpredic t
ti tis
ĠT A
Ġindic ating
Ġprec ip
Ġexhib its
ĠÎ ³
ĠC ity
Ġimmun ity
dex amfetamine
Ġcram ps
is k
af il
ĠSp ain
Ġmicro organ
Ġsubstanti ally
omon as
erg ies
Ġte eth
Ġth ink
Ġoxid ized
Ġchrom os
g ar
ĠD HT
Ġconscious ness
ophosph amide
Ġw ent
Ġc irrh
unc tiv
Ġinter fer
ĠCh ronic
A MP
ĠV er
Ġwors en
ĠT CA
Ġg out
Ġdo ub
Ġver tigo
or i
ĠS im
Ġbl ind
Ġn ifedipine
ĠA z
Ġdep artment
Ġall ergy
ĠA AS
Ġon going
Ġstandard s
ach ment
Ġ199 2
wh at
at onin
ĠP seud
qu ate
ĠChar les
reas t
Ġ _{
Ġr ules
Ġdep le
rox ine
Ġdiethyl stilbestrol
Ġun us
Ġall opurinol
Ġpol yp
l ip
ĠSm all
m id
ĠL a
Ġpolym orph
Ġenanti omer
Ġis omers
Ġat axia
ven tive
Ġy e
mon th
ulin um
ĠSSRI s
atur ated
Ġhaz ard
ĠPlas ma
Ġ ~
Ġselec tivity
Ġth in
ĠD ig
Ġreac hes
Ġmalign ant
ran ial
ne tic
Ġ197 8
ation ally
Ġat ten
Ġevalu ation
Ġcirrh osis
Ġst aff
ox yphen
ures is
ok ers
Ġ197 1
Ġsupport ing
gre es
Ġtrig ger
ĠL td
Ġ rac
ine mia
Ġfem ales
inn arizine
ĠUS ANTooltip
Ġf ight
Ġvalpro ate
w are
ad s
Ġsuppress ing
Ġcess ation
or ks
ol pidem
ult aneous
Ġat ypical
ĠG iv
Ġepid ermal
Ġrecombin ant
u it
Ġ197 5
Ġsuppress ed
Ġdiagn osed
Ġal d
art an
ĠIndi an
Ġmitochond rial
und red
Ġdis play
Ġmain tained
ĠApp ro
Ġtransplant ation
T S
act in
Ġrel apse
enes in
Ġb il
n or
Ġde grees
Ġme al
ĠL ist
Ġro ot
ĠI reland
Ġ198 9
Ġfall s
ist ent
Ġo z
ĠR oman
am izole
est rogen
ĠU V
Ġentire ly
ĠS odium
Ġdeli ver
Ġad minister
Ġglucuron idation
A M
R E
ost rid
Ġpropor tion
Ġin ner
Ġchild hood
co al
Ġ3 2
Ġpromot es
Ġend othel
Ġj ournal
Ġslow er
Ġcerv ical
Ġf ram
Ġall osteric
Ġpredominant ly
N O
Ġcontraind ications
Ġglut athione
Ġanc ient
C S
Ġ iod
Ġinhal ation
Ġsympathom imetic
t hen
ĠM id
Ġinf ectious
Ġantihist amine
h uman
Ġanxi olytic
Ġar gu
edi ol
res h
ĠH ol
ĠEx t
Ġcult ures
Ġnot ably
a if
ra ft
ow s
Ġcar isoprodol
ath ion
Ġha em
Ġ19 30
Ġfe eding
Ġbenz yl
l a
Ġcyc lo
ode ine
G T
R P
ĠE ry
Ġsupp orts
g ated
Ġam pl
ra x
Ġpharmac ies
j ohn
Ġwarning s
aif enesin
Ġk il
ign ific
ur ns
ĠC ontrolled
pir atory
Ġfam otidine
Ġpa rox
Ġ194 9
Ġcamp aign
Ġp ortion
Ġtran quil
Ġc ypionate
ud es
Ġstrateg y
ĠF orm
Ġdi vision
gl ut
Ġel se
Ġau tism
ĠHear t
Ġto ile
oc ular
ad en
ĠE li
uz umab
ĠC arb
Ġreview ed
Ġnarco lepsy
p es
at adine
ĠS upp
ĠB ro
Ġinterac ts
c odone
en ia
Ġs keletal
Ġm ob
ĠÎ Ķ
Ġsci ence
Ġcont amination
reg ulation
Ġt ons
oph osphate
m od
ĠP D
te g
eth idine
atic ally
roph ic
Ġmed ically
ID S
Ġthromb osis
op ioid
ox amine
Ġam ide
Ġfunction ing
Ġre ward
Ġref lux
Ġaddi tive
Ã ¶
d ansetron
in itis
Ġparen ts
ĠUp john
ignific ant
Ġs co
Ġ195 2
Ġmening itis
li ance
y dro
Ġab st
Ġag ranulocytosis
Ġoptim al
Ġdatab ase
Ġf arm
et te
th ird
erv ation
Ġsubstit ution
ĠServ ice
Ġn erves
ri an
Ġcoll agen
Ġmanif est
Ġa ward
Ġkill ed
ĠRus sia
Ġint r
cept ors
am a
Ġro b
ĠPro t
Ġe con
Ġcomp etition
Ġcompar ing
ĠF e
Ġanti oxid
Ġrec all
Ġp ool
Ġsurge on
Ġclass ical
Ġ195 7
Ġsubstanti al
ac id
ĠC alc
ardi ve
Ġgeneral ized
3 6
Ġd yn
Ġe ver
Ġwork ed
ĠSec ond
an o
ros ine
ĠAn dro
ĠL ater
Ġanti t
ĠProp ranolol
a ven
Ġeffici ent
Ġn ine
Ġco uns
Ġdistingu ish
Ġsub lingual
ĠV i
Ġp es
Ġincreasing ly
ĠDH PA
ĠO cc
Z eneca
Ġb all
Ġconver ts
st age
ĠP ost
amic in
ĠCont ra
ent er
ree k
Ġconsequ ences
Ġk er
Ġdem and
o on
il es
Ġfe et
Ġclass es
Ġinc omp
Ġ199 1
7 6
re y
Ġin str
Ġalong side
a al
Ġre fer
ĠI b
ral ine
Ġth ous
Ġsleep iness
ris k
Ġguid ance
anth ine
Ġconvul sions
ethyn yl
Ġwound s
aund ice
Ġis ot
ad renaline
om eth
Ġint ensity
Ġmove ments
k es
ive red
itor ies
th rom
Ġv ancomycin
Ġiniti ated
ĠLe vel
ag inal
ens ing
Ġ18 8
z ation
Ġli ability
ĠHe ad
tit ude
ĠComp ared
rill ation
Ġst ating
ĠAb b
b an
ĠE sc
ne y
ira ble
m ar
Ġcomp rom
Ġincorpor ated
Ġelectroly te
ĠA G
Ġdrin k
al utamide
Ġto ols
ĠT im
el ve
m b
ot al
ĠPhenyl butazone
Ġte a
Ġto w
Ġch iral
orpor ation
Ġhemorrh age
s er
Ġchar coal
Ġconjug ation
Ġcoord ination
Ġvari ations
Ġplas tic
abil ities
Ġp an
Ġline ar
Ġselec ted
Ġt et
Ġh ar
Ġdi ver
het amines
Ġsuic idal
ĠRoy al
ra b
ra ch
Ġam iodarone
Ġf lex
Ġre inf
ĠThe rapy
ap er
Ġegg s
ĠP R
ous ly
Ġaccept ed
b urn
Ġat rial
Ġ198 7
Ġconj unctiv
amet ers
Ġr ig
ph osph
Ġregim ens
Ġchrom at
Ġnal trexone
ĠT B
ĠP at
Ġpar adox
Ġspe ed
op hy
Ġrec ur
Ġnec ro
Ġfer til
Ġparas ite
Ġse ed
Ġpopular ity
Ġcollec ted
one y
ĠP red
ĠF ound
Ġcl ozapine
co up
Ġgener ate
ethyl ation
Ġrib oflavin
p it
Ġv ital
ĠM el
p ot
Ġ( >
ĠC ef
Ġlaw su
Ġagricult ural
aren ess
pi ration
rel in
Ġneuros teroid
Ġr ashes
Ġreg ulations
Ġan abolic
der ived
Ġprog ress
ĠLim ited
Ġqu ite
Ġ8 5
Ġbu ilt
o ice
os yl
ot eric
ĠL ife
Ġcaps ule
Ġindep endently
4 4
me tic
Ġtemper atures
Ġrepres ents
Ġsome what
Ġro t
al in
ra ys
Ġow ing
ĠPre gn
r ase
al le
Ġdes ogestrel
ĠCo uncil
anc ies
on at
Ġre act
Ġcomp osition
Ġang iotensin
Ġglyc ol
Ġform ing
Ġbacter i
Ġuncom mon
Ġg els
em etic
Ġob esity
Ġminim ize
Ġanticoagul ants
Ġt ext
it ate
Ġex tension
ĠPro f
ĠMet oclopramide
Ġdivid ed
nol ence
ly mp
Ġvari ation
Ġdist ress
Ġfamil ies
ud y
ĠH en
Ġdrin ks
Ġbup renorphine
am ics
Ġascorb ate
Ġin ade
Ġrel ation
Ġavoid ing
u ate
v ation
Ġcon form
ĠCl ostrid
Ġphot os
Ġn one
M an
u tive
Ġdevelop s
Ġ198 2
Ġmor ning
Ġth reat
ĠS and
Ġrod ents
Ġdel ivered
ĠAc cept
ĠA MP
Ġr ule
ĠR E
Ġb ark
ĠA CE
val ent
Ġye ast
Ġflu ores
Ġadd ing
on omic
Ġf ine
Ġj ud
Ġman ia
Ġoff ered
am ent
Ġinst ances
os umab
ĠC I
Ġhyper t
Ġsubstr ates
Ġenhance ment
h yp
p en
Ġclon idine
dim ethyl
Ġman ip
Ġaut om
Ġremov ing
Ġmicroorgan isms
Ġint ense
Ġ197 2
Ġrelationship s
Ġne ither
Ġresid ue
op ril
gen e
ĠG ene
ĠV ari
pir ide
Ġadvant ages
M R
r ary
Ġlaw s
Ġsens ory
Ġfract ure
Ġsuppos itories
ĠO lymp
Ġ196 4
Ġcross es
Ġintoxic ation
op amine
ell ed
iper azine
anal yses
Ġcrit eria
4 00
Ġa plastic
ĠP ur
ĠP eter
Ġur ic
Ġs atis
ĠCro hn
ort riptyline
Ġmater nal
ĠFran Ã§
ĠCent ral
Ġammon ia
Ġc rop
Ġsh ape
ach lor
Ġbarbitur ate
Ġobstruc tive
W HO
ne al
Ġenc od
ĠE D
Ġana emia
Ġobserv ational
Ġp antoprazole
ac ing
ess or
Ġrelax ant
K line
p atient
Ġexhib it
ep tide
Ġat orvastatin
ib ility
ĠSp anish
Ġop ium
Ġsuscepti bility
Ġorth ostatic
s ub
os ite
i ration
Ġan tiv
Ġar ms
Ġgener ics
Ġ196 2
c is
Ġsy rup
ub b
Ġtoler ability
omet acin
u v
unc tive
ol uble
Ġcommun ication
Ġf ruit
ĠT r
Ġz opiclone
Ġhypothal amus
Ġfix ed
Ġj aundice
Ġlim its
ĠServ ices
C G
Ġfl ushing
Ġpublic ation
ce phal
ĠL or
Ġset tle
Ġang io
Ġbro ken
ĠTh ree
Ġorgan ization
Ġure a
b rom
ti f
uc tion
ig aret
ren ol
Ġsim ultaneous
c ryst
Ġg ender
gen ce
Ġnew born
Ġweak ly
Ġexpand ed
a it
ĠCl ass
pl atin
Ġintest ines
y g
Ġtrig lycer
Ġdelir ium
Ġantip y
o unced
Ġm im
Ġsub t
Ġsol vent
io tic
Ġnew er
ĠDi rect
Ġpsych iat
ether lands
L P
Ġhal operidol
Ġa ug
Ġg amma
oc rine
Ġfluoroqu inolones
x y
Ġper for
ater al
Ġexper ts
Ġstrateg ies
z olid
Ġemo tions
Ġdocum ent
i qu
ur ity
um a
Ġidenti fication
Ġby pass
s ensitive
Ġt ramadol
Ġf air
Ġsulf ur
os ol
av es
ĠDe velop
un te
Ġfac ility
Ġcryst al
Ã ¤
Ġrab b
Ġill icit
ox ib
Ġhem oglobin
Ġhydroxy zine
Ġm ast
ec al
Ġdec ided
Ġar ch
Ġev ol
ĠTop ical
ĠThe ophylline
Ġcarbon ate
Ġconsist ing
Ġg on
ber g
z es
ĠN etherlands
ĠJ es
Ġnec rosis
k y
Ġdis app
Ġvir t
Ġh undred
Ġit ch
Ġconjug ates
Ġamnes ia
rop enia
Ġd og
ec e
Ġcharacter istic
tic aria
ole cular
Ġacid osis
Ġphosphor ylation
M C
ĠThe ir
Ġ1 20
ĠN av
Ġdis rup
Ġpar ameters
M I
p oint
Ġdirect or
Ġleg is
Ġopen ed
ĠD ata
Ġag reed
reg ulated
ĠSub sequently
resp on
Ġst ones
and rost
ĠAd v
Ġhydro cortisone
Ġregard less
Ġadver tis
ĠN ar
ĠR ef
rol imus
Ġinter s
Ġlangu age
ace a
Ġ197 7
Ġirrit ability
on it
ce ived
Ġat oms
Ġat ropine
Ġco h
Ġj oin
Ġpre feren
Ġconn ected
Ġhypothal amic
Ġexamin ed
Ġs aw
Ġg rap
Ġes ophag
ĠAccept ed
5 2
u ro
Ġchar ged
s ur
Ġs izes
us ing
ab out
Ġvas oconstric
Ġfer mentation
Ġsin us
ĠAstra Zeneca
Ġreinf or
aminophen ol
D O
Ġinc ision
ĠD o
Ġchlor diazepoxide
Ġhydrox ylation
ac char
Ġaddic tive
ocy te
gluc uron
Ġan terior
os age
se y
ĠWith draw
glyc oprotein
Ġagree ment
Ġc iprofloxacin
ĠD oc
ĠTh ose
6 8
ong ue
Ġlis dexamfetamine
Ġg ran
Ġall ergies
Ġperson ality
rosp inal
V D
Ġpro ceed
Ġcl osed
Ġoff ers
hy roid
Ġdestro y
P G
Ġcannab is
Ġenzym atic
hydrox ylase
Ġdis in
ĠMet ronidazole
ura ble
Ġacco unted
ĠOver dose
Ġt rop
re hen
Ġo ur
part um
" ).
ell s
ĠR h
Ġlabor atories
Ġcarcin oma
Ġde hydration
ĠPseud omonas
as hing
Ġco factor
Ġextra cellular
om ination
os ides
ther n
ap amil
Ġbi op
Ġclassi fication
Ġl ay
ĠL DL
ons cious
ĠCon c
ent h
Ġangio edema
^ {
ĠIn s
Ġser t
Ġdisc om
hyth mic
Ġa rous
ĠÎ¼ mol
h ist
Ġm RNA
ĠC as
ĠF ederal
Ġ196 5
Ġempl o
Ġalkal ine
Ġp emoline
Ġto ol
ent amicin
ĠM i
Ġbel ong
op ar
ĠP art
ĠU l
9 8
à ¤
Ġ5 5
Ġcontrol ling
" ),
ra f
ĠAfric an
Ġaer obic
Ġdiscom fort
und er
is ia
es ides
qu ality
cy steine
Ġ3 8
Ġvis its
AR S
Ġgir ls
Ġ3 7
le vel
Ġmus ic
Ġimplement ed
Ġpreval ence
an i
tic ide
Ġcereb rospinal
ren e
Ġantihyper tensive
ĠC yp
MA O
cycl ines
h abil
Ġunderst and
Ġrun ning
P E
Ġ3 9
ĠK ore
Ġresour ces
as k
ĠL D
Ġvari ability
aly tic
ĠRep ublic
ĠGiv en
v in
Ġnew ly
Ġpur ified
Ġcontamin ated
ĠRich ard
f olate
ĠC orporation
Ġvitamin s
Ġca ro
ococc al
Ġunus ual
ĠEstr one
ig her
Ġdi alysis
ĠV ol
Ġpath ogens
Ġpri vate
Ġprincip le
Ġl up
Ġpron ounced
p res
v ol
ine a
pl ate
Ġlact ation
Ġap nea
Ġfin asteride
Ġcathe ter
es pecially
Ġactiv ating
j u
ocarb amol
Ġp all
Ġ198 1
Ġher pes
Ġprom ising
ĠFranÃ§ aise
a el
ĠH em
Ġsc urvy
Ġang i
Ġf resh
op olamine
ie ties
Ġbur ning
Ġvol unte
ĠI g
Ġ198 6
4 6
Ġn androlone
Ġtranspor ters
Ġc ity
est ing
og ram
Ġconsider able
Ġstopp ing
U SA
l if
il ing
ĠJ er
ang l
Ġfemin ization
Ġeas y
c hers
it ol
Ġadj unct
il le
ĠO v
Ġo cular
en n
us ive
ĠH um
Ġhy brid
Ġ198 8
ifer ol
Ġischem ic
ĠL indane
Ġur ticaria
alc iferol
id in
Ġ197 6
Ġmil itary
un ity
ce eding
os en
ĠA uthor
Ġv ide
L T
Ġrec alled
Ġamp hetamines
ich ia
Ġlack ing
rid ge
Ġbreak down
A C
b all
Ġass igned
Ġcat tle
ĠComm une
Ġlup us
ĠAs s
Ġâ Ī
Ġb asal
ĠD Ã©n
ĠDÃ©n omination
Ġcont raction
Ġfib rillation
n ic
o o
Ġeff ort
ĠF in
Ġprol actin
ti tial
bl ind
roscop ic
ĠFound ation
A TP
Ġc innarizine
Ġw ind
di one
Ġcontra ct
Ġauthor ities
ul sive
Ġdet ectable
Ġsw allow
prom azine
am ides
Ġr hythm
ĠAn imal
Ġtes ticular
Ġpower ful
Ġper ception
Ġ198 3
Ġprolong ation
ig u
Ġunder g
Ġselec tion
Ġattempt ed
Ġclon azepam
Ġkne e
oprol ol
r ise
Ġh ab
Ġanal ogs
Ġmamm als
ĠPort ug
ĠIn stead
ĠCon vention
Ġt ongue
Ġs ought
ĠH ence
acet amide
Ġcarbon ic
Ġderm at
Ġs ound
Ġantiandrogen s
ĠDC F
ĠF re
Ġpre ced
ge red
Ġins oluble
Ġdiet s
Ġpromot ed
Ġn m
ĠP os
ĠÂ £
Ġmis car
Ġy oga
ĠWar farin
P T
Ġpossess es
ĠCH MP
i res
ren ts
Ġtw elve
Ġamin oglyc
j ected
ot es
ph th
ion ic
Ġexc it
ĠImp aired
ĠEry th
Ġconsum ing
Ġg all
ococc i
Ġgain ed
Ġspecial ized
Ġformer ly
op renaline
ĠW al
Ġval ve
Ġimpair ments
ĠCer tain
Ġanti arr
Ġj us
Ġprevent ed
Ġtas k
iop athic
ĠDCF Tooltip
ag ue
ĠAl cohol
Ġthough ts
Ġendomet rium
an es
om ifene
Ġdis pl
gest one
Ġ197 3
Ġbur ns
Ġbrom ide
Ġeuphor ia
Ġpolic y
m l
ĠD u
ĠJ os
nit ol
oteric in
Ġa gency
Ġag ing
id ence
Ġpro phylactic
Ġqu ar
Ġfluid s
Ġreg ulate
ĠU T
om ics
her ichia
Ġab rupt
Ġprodrug s
v oxamine
Ġb or
Ġres c
y a
he p
ol i
ĠM S
ĠG od
ĠW estern
Ġalter ations
Ġmedull a
9 6
m ate
Ġf if
ad emic
Ġmel an
Ġmaxim al
Ġc av
Ġg um
ĠE PA
Ġcl ots
we ek
Ġ196 3
chlor o
Ġsitu ation
Ġulcer ation
Ġpsychos timul
om ethyl
Ġtherap ist
osp asm
Ġde al
ĠG ood
Ġaw are
vac izumab
igh ted
Ġab ortion
Ġalle le
ut ch
ĠCo unt
Ġchallen ge
ff ic
Ġbir ds
Ġbo ard
Ġpharmac ologically
yl ure
utri tion
N I
Ġs on
Ġis o
Ġr u
ĠN icot
Ġpar alle
Ġ6 00
Ġgrad ual
h a
Ġinhal ed
Ġterat ogenic
a por
on ide
Ġint rac
Ġregular ly
Ġsuppor tive
oxyphen e
c ul
om pl
Ġth or
Ġdis m
Ġtraum atic
Ġhypog lycemia
Ġinactiv ated
Ġinstr um
ul ose
ant ine
Ġacco unts
v an
Ġa qu
od en
ĠL SD
Ġun less
Ġmel atonin
Ġaw areness
en h
- ,
4 7
Ġw at
rom orphone
if orm
ran asal
yp ically
Ġfe at
Ġneed le
Ġ197 9
oxic am
Ġwe bs
Ġcar bo
Ġid iopathic
Ġrest lessness
ĠAl tern
Ġmagn itude
Ġcerv ix
g then
Ġfl at
Ġspe ech
ĠA D
Ġind ometacin
Ġpump s
Ġald osterone
6 6
Ġt re
Ġb ott
iv il
Ġphenyl propanolamine
Ġon line
Ġint en
Ġar g
Ġdiffic ile
p ox
Ġdep ri
ĠUs ing
Ġarom atic
ĠWithdraw al
v als
Ġl b
Ġnot es
et al
i acin
ant o
Ġdi propionate
Ġbrand s
Ġpol i
Ġtarget ing
Ġendothel ial
ĠP y
ĠP rednisolone
Ġ196 1
m at
Ġass emb
yc es
Ġoper ating
ĠUp on
ĠV en
Ġlo oking
ĠSw it
st able
Ġretin oic
h ic
Ġa gencies
ac ill
am ber
Ġintra ocular
ipp oc
u raz
Ġz olpidem
ĠOr th
ĠEs s
si zed
Ġfe ature
Ġvag ina
3 7
n el
ĠG reek
ĠSt and
Ġneu rom
ro v
Ġw ood
ĠM ass
ph an
Ġcl ient
ript an
K i
Ġm erc
Ġmeet ing
ent ative
Ġreported ly
of ol
Ġpancre atic
ĠB AN
Ġstar ts
II I
c re
ĠJ ANTooltip
ĠB ar
Ġlow ers
Ġacc ompl
Ġpol ar
ri zine
Ġguidel ine
in izing
ĠN ob
Ġanti emetic
Ġneut ropenia
Ġinade quate
Ġc red
Ġsub mitted
Ġlo ok
Ġregard ed
Ġpsyched elic
ĠO meprazole
ĠL u
ĠProg ram
ĠK et
Ġprost he
Ġplate lets
Ġvictim s
ofib rate
Ġf ri
ĠM il
ĠR A
Ġsuspension s
Ġinser ted
ad ministered
ain t
Ġmod erately
Ġaccum ulate
Ġg ing
Ġana erobic
Ġregist ered
Ġw et
ore ctal
Ġresp ect
Ġlev ofloxacin
Ġcop per
ĠTA AR
p ret
ich lor
M G
Ġc ited
Ġde generation
Ġpost partum
Ġpsycho active
ail s
op ic
ĠB udd
ch arge
Ġen cephal
Ġmed ian
iti g
ĠCh urch
Ġabsor b
P O
l en
Ġpre fer
ang i
Ġtrim ethoprim
Ġsh ared
Ġpercent age
Ġepis ode
ver m
Ġfer tility
ope ia
Ġdefin itive
Ġfacilit ate
Ġdecomp ression
on ym
om ed
ĠT NF
Ġlic ense
Ġalle ged
Ġpr ur
gest rol
Ġexp ress
Ġyield s
Ġdescrib es
3 00
Ġon to
Ġsco res
oc t
sor ption
Ġprincip al
ĠBel g
Ġcoh ort
ĠF inally
ĠM er
Ġdep ressed
Ġsubj ective
Ġmitochond ria
in ating
Ġac qu
Ġplac es
ĠMich ael
c ontrol
Ġof loxacin
Ġsec ret
Ġdissol ved
c a
ment ed
ugh t
Ġy our
f av
Ġar t
B N
Ġar th
ĠF il
Ġ196 6
ras ound
Ġword s
ra tive
Ġfor tification
Ġsupp lied
Ġdisc l
Ġvari ants
Ġantipy retic
as ant
Ġse w
Ġdo ing
Ġchol est
Ġargu ed
Ġend oscop
Ġprost atic
Ġmid azolam
ĠB rit
ĠL o
âĢ ł
Ġsc an
Ġstimul ating
ĠJ ack
Ġneurot oxicity
ĠEsc herichia
Ġhyper p
Ġhyper activity
ĠAmeric ans
ĠRe view
3 2
Ġv oice
Ġpre f
Ġchem istry
Ġadv is
ĠM or
Ġmyel oma
Ġpyridox ine
Ġaward ed
S m
ro se
and on
Ġconsequ ence
I S
h i
u ated
ra v
Ġdim ethyl
last ing
D i
an sion
Ġm i
Ġcharacter s
Ġschool s
Ġundec ylate
Ġd uct
Ġint olerance
ĠIs ra
Ġlin ing
A n
Ġd ro
ĠM ac
Ġhy gi
Ġchem ists
ĠD oses
iss ed
ĠPot assium
Ġnecro lysis
ep ilep
t etra
ĠT er
lit axel
Ġchan ging
Ġpractition ers
d ing
Ġn ode
Ġ( <
Ġon dansetron
Ġtrans ferred
cri pt
Ġmas k
t reatment
ĠB reast
SA ID
ĠMeth adone
Ġperme ability
ĠJes us
y d
Ġo lig
Ġim ages
Ġ196 8
Ġresol ve
zer land
am eter
ĠP ublic
Ġconver t
Ġrevers ed
Ġsan itation
Ġp yl
ir th
Ġhydro codone
on y
um es
Ġmed itation
ist ed
Ġpol ice
ĠChris tian
Ġt ap
Ġt onic
es ophageal
Ġem ission
n am
Ġenh ances
Ġparas ites
l ink
w an
or a
G E
ĠR if
Ġsyn aptic
Ġcomplic ated
ĠBet ween
it er
um arin
Ġle ak
Ġsyn erg
ĠMAO Is
Ġdox orubicin
Ġcond ensation
s ec
v itamin
Ġp or
Ġe osin
am er
ĠAn al
Ġtechn ologies
Ġinters titial
di ab
th i
ax ine
ĠAd renaline
Ġph yl
Ġvari ant
mit t
Ġtend s
in osa
ot omy
ox azole
ind amycin
Ġpen icill
ĠO lanzapine
ĠK en
Ġundec anoate
Ġl ob
Ġli tig
unit razepam
Ġty rosine
0 6
Ġm ur
oth iaz
Ġarous al
c ur
Ġl ov
Ġacet aldehyde
Ġver teb
ĠResear chers
ĠW il
Ġve hic
a ut
ol ip
em ed
ĠO b
Ġpat ents
hyd rop
och rom
Ġliv es
Ġdirec ted
ĠTCA s
Ġm ep
Ġconflic ting
re mia
im umab
Ġsp ite
Ġhydrochlor othiazide
Ġdepress ants
1 50
Ġp seud
Ġinc ons
ĠK Cl
Ġcontrib utes
Ġsusp ended
ĠA B
Ġex em
ĠG est
Ġpart ners
Ġconsist ently
op ress
Ġcryst all
Ġagg ressive
ĠCalc ium
c odeine
di ol
Ġal umin
Ġac ademic
Ġv ac
Ġpsych otherapy
Ġlim iting
Ġmo ist
Ġw arm
ens us
Ġmod e
Ġfe b
Ġcre ation
hex idine
ĠSwit zerland
k ins
en orrhea
Ġf ed
Ġfor ced
tic les
lud ed
Ġcare fully
Ġconduc tion
Ġadj unctive
Ġtetra hydro
ois omer
Ġreli able
s al
Ġtrig gers
Ġfavor able
Ġdirec tion
Ġpig s
icyl ic
ic idal
Ġcomp uter
ĠCl on
Ġref lec
olar ization
Ġcomp liance
Ġab ilities
Ġun ex
atin ib
Ġn ative
ver ages
ĠTh rough
ydro gesterone
Ġn yst
ĠD O
Ġpre lim
ron tal
pos ure
Ġcollec tion
f at
Ġt ight
Ġre absor
Ġg e
Ġ195 4
Ġpep tic
Ġult ra
Ġm ess
Ġm irtazapine
id ated
ĠM DMA
ers ed
Ġab andon
ĠO TC
Ġexpl ained
Ġinfer tility
Ġex change
up s
Ġenviron ments
ĠWhe reas
ver sion
cl usive
ĠAppro ximately
Ġp et
or ized
Ġf usion
Ġfor ces
Ġsp ring
Ġman aging
ob lastic
Ġser ves
Ġexpl an
b ody
g roup
Ġre bound
ĠG yn
ef ore
a emia
ĠI C
st ep
op id
Ġneurotransmit ters
Ġinactiv ation
Ġres emb
Ġfound ed
Ġstud ent
Ġclear ly
Ġprescrib e
Ġgo ing
Ġclean ing
it ch
et he
olog ous
Ġext rac
hyth mia
ĠHyp ersensitivity
ĠOver all
syn the
ĠEstrogen s
Ġprelim inary
Ġpenet ration
Ġs elling
ĠC y
se x
ĠG reen
Ġcorrel ation
ĠRes piratory
Ġhypot ensive
Ġlas er
habil itation
en afil
Ġs ong
Ġcomplic ation
Ġrev ised
cryst alline
Ġdiff ers
Ġglucocorticoid s
ĠP seudoephedrine
og rel
Ġreach ing
USA N
Ġan at
Ġof ficial
acet ate
MA T
Ġco vered
Ġcor rec
Ġcat ar
Ġbox ed
N e
Ġm ell
Ġhe ight
ger ies
Ġchlor ine
Ġhelp ful
Ġfat her
Ġfung i
Ġspir itual
Ġincomp lete
ti des
Ġtrain ed
Ġcreat es
Ġmov ing
al pha
it t
Ġophthal mic
Ġw alk
Ġfeb rile
y al
Ġr ub
ĠG lob
ĠJ ac
Ġchallen ges
Ġwaste water
ot ypes
Ġcor related
Ġsequ encing
ĠGeor ge
Ġt ardive
he ad
Ġl um
ip razole
Ġclin icians
ri e
ak en
Ġdec arboxyl
Ġacc ident
Ġprovid ers
ĠGl uc
ĠPharmac opeia
oprop yl
o tion
} \
Ġresearc hed
opid ogrel
ĠEst riol
Ġe vid
abol ism
we ight
Ġaff ord
Ġstimul i
Ġturn ed
Ġmas sive
Ġparadox ical
Ġin struc
Ġg old
Ġpl at
ind ications
erg er
Ġ196 7
last y
ĠProl ong
Ġsuperv ision
8 5
ag o
Ġint act
ĠK e
othe rapeutic
Ġm orph
ĠC el
ĠG H
ĠDevelop ment
Ġs arc
is hes
as sive
k now
w ed
om od
li x
Ġo t
Ġcombin ing
Ġtri ed
Ġmell itus
l af
Ġf iring
ĠV ic
ĠC A
oc o
Ġrel aps
Ġar ri
j ug
os orb
ĠAl ong
ont al
ĠRus sian
ĠSci ence
Ġnurs ing
7 7
Ġl ock
ual ity
Ġaccept able
Ġlet ter
ĠSt udy
ĠK at
Ġheav ily
Ġmach ine
Ġcommit tee
opt osis
Ġgrow n
Ġdest ruc
ĠContra indications
Ġess entially
Ġfram e
N SAID
os al
ĠT em
Ġch l
Ġsc reen
Ġro und
Ġaltern atives
ĠT etra
Ġv ent
Ġpart ly
Ġsurve y
Ġf irm
ec l
ĠT able
Ġal f
ĠAddition al
Ġalert ness
Ġs ac
Ġb ig
Ġe at
Ġrec over
Ġmarket s
9 4
in j
ĠI r
Ġpharm aceuticals
ick ing
n y
Ġmet all
iv ing
Ġsol v
ar tis
ĠP ediatric
Ġcomp l
Ġco ol
Ġc m
ĠUS P
Ġ196 9
Ġrecogn ition
Ġcontrover sy
Ġmodi fications
Ġopi ate
Ġfair ly
K a
e ed
h arm
acet in
Ġdiff usion
Ġunc onscious
verm ectin
ĠTh omas
Ġsevere ly
Ġflu voxamine
Ġplain tiff
Ġaccid ental
w orks
Ġpro xim
erv ative
Ġ7 2
Ġcataly zed
Ġse g
ĠL os
Ġexpl ored
Ġplay ers
ĠSci ences
it in
Ġcol orectal
ĠUS A
Ġsulf ation
Ġsleep ing
Ġconjug ate
ac l
Ġr it
Ġpl ans
ace tic
Ġrep etitive
ĠIm mun
Ġline zolid
Ġros acea
Ġmiscar riage
R S
Ġw ave
ĠA C
ig il
Ġv on
ĠD ext
Ġrec onstr
Ġadv ice
Sm ith
0 2
Ġcor tical
M E
Ġs aturated
Ġdis charge
odi pine
Ġrestric tion
Ġmenstr uation
Ġh os
ol f
Ġl am
ĠL aw
Ġlast ing
ĠEE G
Ġcur ve
Ġtrac k
Ġarom atase
Ġantioxid ant
ĠD utch
Ġcons ent
Ġadequ ately
coup led
S t
on avir
Ġmet amizole
Ġbi ology
pir one
ĠAm oxicillin
ĠCar ter
m ath
Ġrele v
ĠCa ution
ophil ia
Ġfo am
Ġlimit ations
al anine
Ġse eds
Ġsim pl
ĠHead ache
Ġpro ved
op ause
the less
ens es
ĠER Î²
Ġutil ized
am id
ap tive
Ġmeas uring
w ing
et ric
ib rium
laf axine
il os
od s
ĠProg ynon
b ec
Ġb iliary
Ġle ave
ib er
Ġk n
ĠPe ak
ocl onal
Ġk ine
th at
ĠP al
og rams
ven ess
ĠIb uprofen
Ġs pp
Ġb itter
Ġmetabol ize
ĠWith in
opro st
ĠAn t
Ġcomplex es
ĠCons um
Ġpr ison
Ġh ind
ac cept
ĠG reat
rac onazole
Ġphen ol
ĠSpec ifically
ĠB efore
Ġdi enogest
Ġcle avage
Ġer ad
Ġun w
Ġreac ts
Ġt rypt
ĠA UC
Ġg raph
ĠN I
ĠO ut
Ġser ving
Ġdomain s
h aps
er o
ĠS u
Ġgl ass
Ġcyc les
Q I
Ġf ill
Ġpar alysis
Ġterm ed
Ġalkal oids
oe a
Ġdifferenti ation
Ġprotoc ol
ĠC ong
Ġst ra
Ġcreat inine
Ġconn ection
Ġsil ver
Ġwr iting
Ġdiges tive
Ġr uled
orph y
Ġintrac ranial
Ġp un
Ġra w
Ġhydro phil
Ġcand id
Ġsom nolence
Ġinfer ior
Ġrelig ious
Ġapp ly
ĠAll opurinol
ĠEm er
Ġult rasound
Ġor phan
ag ic
ati ble
Ġgen us
Ġc ruc
Ġab und
Ġpeak s
Ġdecl ined
Ġepithel ial
7 4
p ing
ish man
nit us
Ġkill ing
Ġf inally
for cement
CT H
ogen es
Ġclot ting
Ġcust om
ed ic
ro c
ur ane
Ġvect or
in o
Ġch amber
Ġse a
Ġform ulated
Ġover come
Ġcol lective
Ġdist al
Ġelect ric
Ġh ives
Ġhe re
Ġconcent rated
Ġchlor oform
GF R
Ġventi l
Ġre cyc
Ġst rand
ĠT rial
ĠDep o
Ġps il
Ġspas ms
ĠPregn ancy
Ġp il
ra ce
Ġas c
Ġprim ates
Ġtend on
Ġpy raz
f ace
p ituitary
Ġs ell
th ar
Ġrepres ented
Ġsert raline
F N
op s
Ġst atin
str uct
oph arm
Ġoper ations
ĠChlor oquine
ĠMethyl phenidate
Ġtooth p
Ġobstruc tion
v ia
op y
ĠW ashing
Ġexp ansion
0 5
Ġb urn
ail and
Ġap optosis
Ġbreak through
Ġirre versibly
Ġru pt
Ġa di
ro cy
Ġg radi
Ġmet hem
acet aminophen
Ġmuc osa
Ġtheore tical
il utamide
Ġdam aged
ophen one
ĠPres ident
ĠPT SD
Ġparox etine
Ġrelev ance
Ġthere after
ici an
Ġshort ness
Ġsperm at
ethe less
Ġgra ft
ĠMod ern
ie ves
ov a
idne y
ĠInd ust
Ġaccur ate
u ent
al d
Ġocc lusion
Ġincid ent
ynthe tic
Ġaz ithromycin
ti b
lud ge
iv ac
Ġper oxide
ins ic
Ġ198 4
Ġanesthe tics
uter ine
f rac
Ġe lic
ob ia
Ġselective ly
Ġimplant ation
di hydro
ĠM at
yl en
Ġwor se
Ġvide o
C PA
ĠC at
Ġco unts
Ġoccur rence
ethyl ene
g row
um atic
ĠIn hibition
ĠD AT
Ġins p
Ġhydrox ide
Ġhelp ed
Ġelim inate
Ġstat ins
enzym e
a ult
Ġres olution
ari um
Ġfil t
ul monary
ĠI NR
est ock
Ġex amination
Ġcol our
ish ing
Ġstro kes
ĠNov artis
id ers
ĠH ong
Ġli pos
Ġinter pret
Ġod or
Smith Kline
9 2
d ri
o ke
Ġw a
Ġg al
ĠH DL
Ġmin ocycline
Ġchlor promazine
C C
on yl
Ġco ating
Ġman aged
Ġtra ce
Ġmac rol
Ġpel vic
ĠBrit ain
ĠProlong ed
x p
ines terase
Ġcor neal
Ġoccup ancy
Ã ¡
ro ate
ĠH LA
Ġdi e
Ġsoft ware
Ġfit ness
P QI
ip s
Ġplay er
ĠIS BN
Ġvolunte ers
Ġdop ing
Ġopp ort
ĠER Î±
Ġemb olism
ĠNit rofurantoin
S T
i rop
Ġp aid
Ġmen opause
Ġhospital ization
Ġtele vision
Ġparalle l
l ives
m es
t arget
Ġt ren
ar p
Ġn ortriptyline
ĠA ld
ĠH igher
Ġass ay
Ġrabb its
ĠEryth romycin
ac ent
ĠE B
ĠW ater
Ġsm okers
Ġeas ier
Ġalgorith m
Ġsp ot
Ġpsych omotor
Ġcyt otoxic
S K
Ġw alking
ul ties
il ed
ĠM ons
Ġcl inic
Ġad ul
ĠEx per
Ġplat form
Ġw on
ra ving
ter ing
Ġbe verages
ĠTh ailand
ath isia
ĠOcc up
S PR
ap ed
rac il
Ġfl our
ĠFran k
ĠJos eph
id den
Ġinf l
ym p
Ġrem ission
Ġ195 1
Ġsep sis
D NA
at ural
Ġpregn ane
Ġcomple ment
Ġcap roate
Ġaim ed
Ġanc est
Ġcrim inal
Ġmill ig
Ġcontrib uting
Ġfore ign
Ġb ones
Ġto ld
Ġpro c
ĠS kin
ĠU GT
Ġpharm acy
Ġchlor phen
ĠWashing ton
c ause
Ġo int
Ġeff lux
Ġneurop athic
p in
Ġs oci
othy roxine
Ġdepri vation
Ġgen ital
Ġred ness
Ġques tions
Ġp rone
Ġhyp ers
ful ness
Ġimmun omod
ĠMy cobacter
it a
op regn
ati de
Ġtempor arily
4 8
F os
ĠK ong
c ontinu
w ood
Ġis oform
Ġ8 1
Ġmat uration
Ġlabel ed
Ġsulfon ylure
Ġclar ithromycin
Ġtin nitus
si veness
Ġdis ability
oster on
ĠCD C
Ġsubs idi
Ġcollab oration
Ġprur itus
N P
o ating
Ġpur ine
Ġgonad al
ĠMul tiple
osorb ide
it one
ro d
ot a
por ts
er pine
te en
Ġliv estock
uc cal
Ġmus cular
Ġperform ing
Ġtranspor ted
Ġallevi ate
Ġamph otericin
z alutamide
orb id
Ġsens ation
Ġsem i
Ġsole ly
w orm
Ġm om
Ġd rain
ĠÎ ´
Ġestim ates
Ġdimin ished
i us
m usc
Â °
Ġb is
ĠT or
ĠV acc
Ġnutri ents
unct ure
ĠRan itidine
ĠPred nisone
e tics
ug e
Ġrecur rence
Ġ #
Ġphen acetin
oph thal
ĠPhen ylephrine
Ġhouse hold
H F
Ġn iacin
ĠE lect
Ġvasodil ation
- [
c ler
Ġl ists
ĠT ai
ĠS o
Ġde emed
Ġme ant
Ġcaus al
I T
ro tic
ĠRes istance
Ġcogn ition
Ġarter ies
ili pp
Ġsubt ypes
ac ids
ĠS am
Ġheart burn
Ġactive ly
Ġconcer ning
Ġtend ency
Ġsepar ation
Ġs ludge
Ġ( +
ĠF er
Ġeth yn
Ġcryst als
Ġc ow
Ġc ry
ver ine
ĠD em
ĠH o
ill a
Ġper i
Ġtherap ists
unt ain
Ġcit rate
7 2
Ġb ru
ĠM es
ich i
ast hen
our se
Ġprior ity
Ġoccup ational
Ġnan opar
ĠM OR
az em
atic s
eff ects
ur is
Ġswe et
aryn g
Ġat m
Ġproper ly
ĠNA PQI
Ġbiosynthe tic
Ġconcomitant ly
Ġlegis lation
Ġhyd romorphone
Ġtrem ors
Ġempt ying
b et
ĠH ouse
Ġcomp ens
Ġper f
Ġstand ing
ĠOx y
corb ic
ĠQu aal
rehen sive
c ol
Ġb rief
Ġcl opidogrel
Ġearli est
ĠPri ze
ti se
Ġbe vacizumab
Ġsupp lies
ĠEx cre
tiv ated
Ġris peridone
Ġcar rier
form ations
ti um
Ġso ap
Ġsurf aces
one lla
Ġins ec
ef ruit
Ġatt achment
Ġmo ved
Ġadj u
Ġcommun ities
ient ation
Ġagg ression
Ġhor se
ĠGlaxo SmithKline
Ġin app
ab in
ĠM a
Ġconduc t
ĠNA D
Ġwors ening
Ġadju vant
Ġg entamicin
Ġint ranasal
Ġsp ort
Ġcons ensus
Ġreg ul
de velop
Ġshe ep
Ġdetermin ing
ospor ins
us ually
ab ies
Ġ3 4
ild enafil
Ġanalges ics
Ġmarked ly
stim ulating
Ġsubsidi ary
5 6
Ġl igh
Ġun treated
Ġisol ation
Ġchain s
avir in
ot ed
th ing
ĠL ym
Ġprot ected
Ġmeasure ment
z a
ti azem
Ġst ock
ĠD CI
up ropion
Ġun accept
ip ar
Ġ4 6
ex ts
Ġ9 8
pro gesterone
ĠLe e
Ġconsider ation
Ġengine ered
ab led
ag u
ĠN HS
Ġslow ing
Ġquin idine
M PA
ĠC T
ĠN ord
Ġsc hed
Ġsc opolamine
Ġglyc ine
Ġelse where
activ ated
Ġulcer ative
Ġfemin izing
Ġalk yl
an ediol
od erm
Ġsur geries
ĠCent ers
rus h
Ġcur rents
Ġfast ing
ĠPP Is
he al
ĠW all
Ġgu ide
Ġmag netic
Ġhygi ene
Ġlitig ation
i ples
Ġc utaneous
Ġele ment
anil amide
Ġspermat ogenesis
Ġrequire ment
DH PA
ophen e
be ing
Ġenco un
Ġadren o
f ield
r at
Ġre form
Ġsc hem
Ġadminister ing
ĠMycobacter ium
f low
i ver
om orphine
Ġl ose
ĠH ot
Ġmon oclonal
ĠPh ilipp
Ġfib ers
Ġantiv iral
f rom
Ġc raving
Ġanhyd ride
Ġthink ing
ing e
ĠG overn
tig m
ĠIndi vid
Ġhydroly zed
Ġd ut
Ġn ick
oin ted
Ġdys p
Ġalign ment
ro om
Ġr ice
ĠSt an
Ġresp iration
lu tide
rot ective
oplas m
Ġcyclo oxygenase
eti rizine
Ġexist ence
Ġchromat ography
ĠS out
Ġwar ned
Ġhelp ing
ĠAb sorption
pl icated
ioid es
ura cy
oti des
ocy bin
g round
Ġ %
ic ide
Ġanal yses
Ġver apamil
ĠS qu
ĠP antoprazole
Ġbi ot
requ ent
Ġinterfe res
Ġanhyd rase
oph an
ĠSc ot
Ġbronch ospasm
f ies
Ġ ration
Ġth ym
Ġcon ference
ĠN O
ĠG al
rin k
Ġhypot hyroid
Ġevalu ate
pi renone
Ġfig ure
ĠAbb ott
ul ing
Ġac know
ĠSer ious
produc t
ĠRare ly
Ġantifung al
ow er
Ġmy cobacter
Ġtub ular
Ġinform ed
p at
Ġc igaret
Ġh ol
ĠT est
ĠH ER
iv ir
ĠEar th
ly n
un k
Ġal dehyde
ĠM orphine
ion ine
Ġgu an
Ġent ers
ĠLi ver
Fos B
Ġch osen
Ġ9 6
Ġprec a
ĠDa ily
Ġdu oden
M ed
Ġche ck
Ġre ct
ult ure
Ġtrans lation
oz o
Ġcomb at
Ġdox epin
onat remia
b ul
Ġin put
ĠF ried
Ġcat al
Ġdiffic ulties
flu ramine
ĠOccup ational
ĠB ur
Ġhem i
Ġupd ate
Ġther mal
Ġsay ing
Ġâī ¥
ĠH ung
Ġfl oor
og ether
âĢ ²
Ġox ym
Ġpsych ology
Ġrequ est
ĠBelg ium
y ric
ĠS T
RI s
men tioned
Ġaer ug
Ġm itig
Ġf ront
rot oxicity
Ġconsum e
ĠCon sequently
Ġinvestig ating
Ġplay ed
Ġdiscus sed
it ting
ĠC os
ell ig
ĠK ar
Ġepilep tic
ket o
5 3
Ġglyc ogen
Ġanticonvuls ants
ĠHa em
S M
ĠM R
Ġexp ect
Ġhypothyroid ism
Ġs ociety
Ġd ance
im idazole
az ione
odi alysis
Ġloc ally
Ġmo tility
Ġsw im
Ġ194 7
it abine
Ġm ist
ĠS R
Ġpartic le
Ġinflu enced
Ġreturn ed
Ġhex achlor
Ġbacteri ostatic
Ġunaccept able
ĠE qu
Ġhyp o
ĠPro te
Ġpart ner
icl osporin
ple asant
Ġster ilization
bor ns
ĠItalian a
Ġemplo ye
i i
ĠM ental
cl onic
Ġmal athion
Ġidenti ty
vi olet
Ġexer ts
it ating
Ġra ise
Ġdefic its
j ects
it o
um ar
ĠM ad
ĠDen omin
op oe
Ġsp in
ĠCom une
Ġdefin ition
Ġsuff ering
ĠDenomin azione
T Tooltip
Ġs ays
all ing
Ġcar ries
Ġdet er
Ġmethyl ation
Ġoper ate
Ġnet works
carb on
Ġnumb ness
4 2
d rew
ĠMin istry
Ġaccompl ished
ĠEmer gency
Ġc AMP
ĠA L
ear ing
Ġplas mid
ivers al
mark et
P I
Ġre jection
od ene
pp ing
Ġlater al
Ġget ting
Ġribos ome
3 1
z in
Ġex ert
ch a
Ġent ry
t op
Ġpep tid
Ġfing er
Ġblind ness
Ġpsych otic
Ġent ered
rip iprazole
ĠCount y
Ġaerug inosa
es ts
ar ial
ĠC yt
Ġun stable
Ġvis it
Ġap art
bre vi
Ġstatis tical
ĠPri or
ĠFam otidine
ippoc amp
' .
A c
en edi
Ġwith drew
Ġpre menopausal
Ġdisc ol
Ġshort ly
Ġgu aifenesin
Ġfluor ide
i pl
on clusive
Ġhe ating
Ġiniti ation
Ġpul se
Ġmixt ures
enh ancing
ĠDi ffe
Ġexerc ises
Ġyield ing
Ġneut roph
Ġarr hythmia
ĠVal pro
ĠAuthor ity
i ramine
Ġas t
ĠG r
ĠPro tein
l on
Ġ q
ro le
ar g
ac quired
el lect
ĠH orm
Ġprov ision
Ġadj acent
ĠNob el
Ġacqu is
om eprazole
ĠDep ot
Ġsolv ents
j ac
ĠThe n
Ġche c
Ġdil ation
Ġtransi tion
w in
Ġin ability
ke let
Ġpres ynaptic
Ġconsider ing
Ġpenicill ins
Å į
Ġa k
Ġelev ation
Ġabs ent
Ġclos ure
ĠMons anto
Ġm mol
ĠQ ue
Ġang le
Ġindirect ly
Ġcephal osporins
ĠTim es
Ġwebs ite
Ġfilt ration
g ab
ĠS en
ĠE MA
ĠF red
Ġdep os
ĠT ype
ur ning
ĠA ten
ke ys
Ġphen ethylamine
orb idity
Ġoil s
B T
e fficient
un ch
Ġreduc tions
Ġwhe at
6 00
ut ation
ĠR en
Ġlack s
yr idine
sm all
ĠDCI TTooltip
ĠS k
ag ra
Ġmeth ocarbamol
Ġtyp h
Ġtro uble
Ġaggreg ation
Ġal i
ĠD oxycycline
Ġsub stitute
Ġph ases
Ġend s
Ġacc uracy
Ġintramuscular ly
ĠTechn ology
c ing
Ġm yc
Ġem p
but amol
Ġrol es
d ed
est ran
Ġsh amp
Ġen rol
Ġmeth aqualone
Ġmark er
Ġunc ontrolled
app ing
ĠBo ard
ĠSup reme
Ġcruc ial
opoe ia
8 8
Ġsynthe ses
Ġsed ating
Ġ195 3
Ġcateg ories
Ġcoll apse
Ġbot ulinum
ĠJer sey
Ġantiarr hythmic
c ence
Ġf elt
ĠS um
Ġdec om
Ġcor n
cl ass
Ġfield s
Ġdissol ve
ers on
Ġam enorrhea
ock et
Ġlike wise
F T
Ġdi verse
Ġher b
ĠM usc
yl ene
Ġstudy ing
Ġnit ro
azol amide
ĠÎĶ FosB
P H
Ġ4 2
40 4
G R
Ġreg ulates
i ological
Ġsome one
ĠAm itriptyline
RI SPR
ĠOx ycodone
pen icillin
Ġb ad
ĠD il
Ġcl indamycin
ffe red
Ġcompound ed
Ġsulf uric
ĠSp ring
Ġcrop s
Ġ ended
Ġf illed
le tic
Ġth ings
Ġper ceived
Ġmicro crystalline
Ġcycl ophosphamide
Ã ¨
uc onazole
Ġph ilos
ĠRec ent
ĠPrim ary
Ġconstruc tion
Ġdecarboxyl ase
0 3
c aus
Ġt on
ĠI d
tra umatic
Ġneurom uscular
ĠAten olol
c ine
id emia
ĠM RI
ove red
ĠNSA As
Ġmodul ators
Ġlute inizing
F A
Ġm er
ac ious
Ġcult ural
a o
ĠC lim
Ġdi vers
ok es
Ġcle ared
sib ility
Ġdesign ation
Ġvac u
N D
ant adine
Ġnit rate
Ġgo es
onal d
Ġmel ting
Ġst ret
oc or
Ġopp osite
Ġevolution ary
ĠClostrid ioides
Ġtre es
m is
ĠO s
Ġpar k
ĠTh alidomide
Ġsu it
Ġox al
Ġtetra cyclines
Ġeffici ently
Ġpenet rate
Ġcand idate
Ġatm osp
s tic
Ġp ra
ing ly
ĠS us
ĠU L
ĠV ir
lis hing
Ġmus h
oler a
Ġacceler ated
in ence
ur an
ep tic
ĠB C
Ġover l
Ġpos terior
Ġacet ylation
Ġh ippocamp
ri tic
Ġtra dem
Ġstate ment
Ġgradi ent
Ġtradem ark
un its
Ġv ast
ect rum
ros pirenone
met abol
Ġcatech olamine
ĠR o
rac tic
Ġ195 8
Ġbrand ed
Ġmal formations
Ġdig ital
Ġprotect ing
Ġperfor ation
y er
in di
al imumab
Ġrec overed
Ġfour th
Ġsafe ly
Ġre jected
um or
Ġmetabol ised
Ġbi of
Ġ6 2
pro tein
Ġobserv ation
yl an
Ġme als
Ġdisco ver
Ġsecre ted
Ġpel let
6 7
he res
ĠL ou
p an
ak ers
Ġre habilitation
Ġrepe at
ĠNar co
ĠF ed
the rapy
Ġcritic ized
Ġdestruc tion
asthen ia
M e
N CT
Ġcl im
Ġsynerg istic
Ġb ases
ut in
enti s
Ġins urance
Ġfib er
ĠEnter ococcus
Ġpac litaxel
ĠO ff
age ment
Ġsim vastatin
Ġrest ore
urs ors
romet ry
Ġabandon ed
Ġs ph
em s
ĠCon cer
Ġrecord s
Ġgonad otropin
Ġerythe ma
er in
Ġb ag
ĠA lex
Ġal leg
ĠL H
Ġpar iet
Ġda ugh
Ġtrig gered
Ġincons istent
ce l
est rin
ox ane
Ġun p
Ġund es
Ġspec im
7 3
D avis
P ro
h av
Ġcon dom
Ġdep th
ogen etic
Ġequ ally
Ġven om
Ġrevers al
on ium
et ts
ĠA V
de hydro
bo tic
Ġtub es
Ġcounter act
Ġencephal opathy
T h
al a
ong est
Ġtradi tionally
ĠSci enti
Ġshif t
e rence
ir ty
Ġar ise
Ġdefici encies
Ġfollic le
Ġpariet al
M B
S V
igh tened
Ġper haps
ĠJ ust
Ġintra v
Ġref lect
Ġtas ks
4 9
Ġc ation
Ġg ranul
Ġdi uresis
Ġop tical
Ġestim ate
ophil us
Ġemo tion
Ġhyp ox
ru its
ameth oxazole
Ġemer gence
Ġwall s
Ġembry o
k er
Ġb and
ogen icity
at us
ĠT rim
ĠM ary
Ġtub ule
Ġ193 3
Ġimmunosupp ressive
exp ensive
ĠA x
Ġst ores
ĠN et
Ġim bal
Ġbacter ium
Ġintra uterine
arc in
Ġvul ner
c he
he rent
ĠC max
Ġdes methyl
Ġinv ented
ĠWh ite
Ġvalpro ic
ĠS ul
Ġeff ic
Ġapp eal
ound s
Ġsex ually
Ġprob ability
Ġadvertis ing
Ġsub units
Ġchem otherapeutic
Ġprof iles
Ġlev o
Ġidentify ing
Ġpup ils
5 5
w ar
Ġch ron
Ġhyp onatremia
ari o
osteron ism
X R
or ted
it ated
Ġre feren
im ab
ĠR DA
Ġsp lit
ĠAn gel
Ġadv ance
Ġ }
Ġ5 3
Ġnew borns
Ġillness es
m aking
ĠS ing
ad or
ĠG old
tis tic
Ġinapp ropriate
st olic
ĠB u
Ġdis pro
Ġaddition ally
Ġvess el
Ġcis platin
ia tic
Ġcons ult
Ġexacerb ate
fluor o
4 3
id el
Ġaut onomic
Ġide al
' ,
on itis
ed y
Ġinter vals
Ġtrans mitted
ĠV aginal
Ġto m
Ġscienti st
Ġbath s
Ġmillig rams
Ġper fusion
Ġfin anc
n ame
Ġsupp osed
Ġexc ite
Ġset s
Ġtum our
Ġsepar ated
ĠEff ects
NSAID s
Ġit raconazole
Ġass ays
ĠPar ke
block ers
Ġtoile t
ĠMod afinil
pit ations
b icalutamide
i ation
Ġd ed
ros pective
unt ing
Ġfl unitrazepam
Ġcri tically
Co V
Ġsimultaneous ly
h an
Ġc ivil
ĠP K
ĠN ever
co vered
lic ation
Ġpal pitations
Ġexplain s
Ġabst inence
L D
Ġmod ulate
ĠFor ce
cin olone
Ġinfusion s
Ġkind s
am cinolone
ab ling
ri ers
her n
and er
Ġinter view
Ġplace ment
Ġpred is
Ġfund ing
C YP
o ir
Ġon c
az en
Ġmand atory
Ġw ort
ĠT en
ĠS ARS
Ġlab els
Ġexpl o
Ġplan ning
in ery
im ide
ib b
Ġ5 2
ĠV ery
Ġor dered
icl ovir
olam ines
Ġinvolve ment
Ġren der
Ġisoform s
Ġs at
el ess
Ġmin ute
Ġdesign ated
Ġgovern ments
Ġprostagland ins
Ġroutine ly
Ġintr insic
I G
ĠC imetidine
Ġinter mitt
Ġtoler ate
las ts
Ġneurotrans mission
Ġhistor ical
ivac aine
Ġpro ve
Ġcon formation
di agn
ĠR un
Ġen tit
Ġgreat est
Ġvasoconstric tion
Ġeffic acious
Ġb rown
ĠL arge
Ġgl omer
Ġprac tical
Ġvis c
Ġpoli tical
Ġd omes
Ġn mol
ĠS ed
Ġac yl
Ġsp ine
ans oprazole
ĠK ent
Ġname ly
Ġcontraind ication
Ġmel oxicam
Ġx anthine
Ġdram atically
ĠUT Is
Ġpyl ori
ro oms
ul ative
th yroid
ĠCh rist
aps one
Ġmuc us
Ġp assive
at ology
Ġis osorbide
ul p
ĠP rom
Ġint ellect
Ġcontrib uted
Ġplan ned
or ide
ĠN ic
rin t
Ġtop ic
Ġcoup led
ĠSpec ial
ĠCurrent ly
Ġin verse
Ġin expensive
pos al
Ġ197 4
Ġsmo ke
Ġpolymer ase
Ġultra violet
Ġre ag
ak ef
Ġte ams
ĠNA DH
hep atic
ĠG C
Ġphen termine
Ġsal ine
bo ok
Ġrupt ure
a ved
ĠPh il
oxif ene
Ġcatech olamines
g rad
dom et
Ġtop ically
Ġdown stream
gab alin
os omal
ĠS il
Ġch ick
Ġov ary
Ġquantit y
ĠIs land
Ġneon ates
ĠRif amp
ĠJac ob
Ġt ail
os omes
Ġcon gestion
Ġgastro esophageal
Ġent ering
Ġcataly tic
Ġquin ine
Ġdis inf
Ġacet one
Ġquanti fied
ĠKore a
Ġm orbidity
ĠD et
Ġwe igh
Ġnit ros
ru vate
Ġhydrox yprogesterone
Ġlat ent
ig an
if ies
Ġ19 12
ĠV MAT
Ġprop ionate
Ġprec ursors
Ġribos omal
Ġpreferen tially
T c
Ġm l
Ġfor ward
vere xp
ĠStre ptom
Ġadi pose
he pt
Ġp ose
Ġd ual
ĠS C
Ġcar til
Ġshe l
Ġobj ects
c ancer
Ġw ant
et am
ĠT od
oc a
Ġdis place
Ġpass age
ĠDen mark
Ġdeple tion
ã ĥ
ti fy
ĠN utrition
Ġform aldehyde
Ġpanc reas
ĠTur key
N E
ĠC RISPR
ist an
Ġconsum er
Ġgra vis
on ogestrel
um n
ĠG re
Ġdec ade
Ġcomple tion
Ġvacc in
Ġinduc er
Ġclon ing
ĠUSP Tooltip
b urg
c ont
m ade
Â ·
Î º
or th
ub in
Ġset t
Ġmicrob ial
oph ore
Ġposs ession
Ġhazard ous
D T
Ġcont em
Ġman nitol
Ġnon selective
ac yl
ab dom
Ġcom mitted
ĠP lan
Ġr ich
Ġcomp ression
ati le
Ġpe er
cep ts
Ġinser tion
ĠLevel s
P K
o os
it ness
ran ce
Ġanti epilep
Ġ193 7
Ġbioc hemical
H A
le u
ac ted
ter y
ĠA IDS
Ġle thar
ub ation
Ġprinc iples
Ġgrap efruit
re f
Ġpre ference
Ġs ore
ĠT amoxifen
ĠN ausea
Ġpre clinical
ĠL is
Ġdiff ering
ĠEn viron
omet ric
Ġcritic ism
Ġcys tic
Ġmom ent
Ġp ren
am i
Ġg ames
od rel
ĠN al
Ġun pleasant
Ġed itor
Ġnor adrenaline
oglob inemia
orex ia
Ġd ydrogesterone
Ġmeth anol
Ġsee king
Ġproblem atic
Ġpsil ocybin
abdom y
p ect
Ġt entative
or ous
Ġex ceeding
Ġinter c
omm od
Ġdist inc
Ġvacc inated
Ġcos metic
Ġacceler ate
Ġpurch ased
Ġhydrophil ic
ĠH ome
Ġmon keys
ons et
usion s
ĠPharmac opoeia
ĠTherapeutic s
Ġhemi hydrate
m onella
un a
Ġcomp rehensive
Ġandrost anolone
ĠA T
Ġg ly
ĠC ell
ĠIn stit
ch ain
Ġneurop sych
D s
ĠC E
eth ing
uck y
ĠNever theless
ĠStreptom yces
P V
Ġins ert
hydrox ylation
Ġsecre tions
ĠAr gent
Ġrepeated ly
Ġtransform ed
Ġthous ands
u x
Ġn ilutamide
ĠP E
por tion
Ġen zalutamide
me an
Ġconsum ers
Ġspecific ity
Ġpep tides
Ġlys ine
ĠAcet yl
ĠN F
Ġman ic
Ġlead ers
Ġcontinu ing
lep tic
Ġpreval ent
uc cess
ĠL A
Ġconcer ned
sp ring
ĠReg ulatory
Ġcontrac tions
t oxic
im ent
ĠB erger
ust ine
axim al
5 8
e an
os us
ĠA ir
ut s
Ġdepress ant
Ġdisrupt ing
L H
h ouse
Ġc r
Ġv ill
ĠD er
Ġpotenti ate
opro te
Ġresid ual
Ġsom ething
Ġfollic ular
Ġangi ogenesis
O C
al uron
Ġre ality
Ġr ating
co ated
Ġnecess arily
rig ine
odyn amics
Ġinstit ution
z ens
est rone
Ġcl oth
ges timate
Ġdescrib ing
ĠLev onorgestrel
4 1
Ġb order
so ur
Ġper mitted
Ġreac ted
comp etitive
Ġconjunctiv itis
Ġresc ue
G A
er als
Ġan k
are st
ĠM ain
ĠH off
ĠF act
Ġnon proprietary
ĠHy d
ĠMan ufact
Ġradical s
Ġemerg ed
r ity
in ch
Ġl ice
Ġinc onclusive
Ġvol untary
Ġunderg one
Ġkine tics
Ġbru ising
ain ts
Ġanti estrogen
Ġsur fact
Ġshe ll
Ġecon omic
e tit
ĠD ay
Ġdec ongest
rot ub
Ġsee k
Ġrob ust
ĠLor azepam
Ġexplan ation
Ġacquis ition
Ġexcite ment
ĠB ul
ĠG o
Ġsecond s
Ġlet ters
re al
ĠT razodone
Ġanti s
Ġmac roph
ĠâĢ ¢
Ġmamm alian
di a
ĠS ER
Ġad mitted
ĠE V
ĠE duc
ost on
Ġem pir
Ġleg ally
Ġgo als
ĠShort ly
Ġo ily
ur ide
qui re
Ġminim ally
produc ing
Ġevol ved
Ġpsychostimul ant
L E
Ġhigh l
ĠCh ic
N ET
Ġthe ories
Ġb ites
Ġhyper tensive
rele asing
Ġlov astatin
Ġt or
Ġt one
os ity
ĠD iv
Ġse lect
ĠG er
ov ine
Ġtechn ical
ĠDe ath
Ġspect roscopy
ipp ing
Ġpack age
Ġvesic les
estran ol
G ABA
i j
Ġth iazide
il st
ĠF ul
Ġexpl os
Ġre tain
ri osis
ox ime
eth azine
erm an
form er
Ġpress ures
Ġprac tically
be it
Ġagricult ure
7 9
S HBG
Ġf uel
ĠM ill
Ġsession s
om el
Ġsy stolic
Ġob st
Ġrest ing
Ġcour ses
Ġobj ective
abdomy olysis
el ics
Ġj uris
rof uraz
Ġcompet e
rofuraz one
Ġcon ven
ph arm
Ġhyp ere
Ġmeth ionine
Ġtox ins
umab ly
Ġdiscontinu ing
Ġbu ff
Ġconflic t
at riptan
Ġh ous
ĠD ef
lo ad
Ġmass age
Ġrespond ed
ĠPsych otropic
5 9
ti ary
ri z
oc hemical
ĠB esides
ĠW ork
Ġvari ed
Ġdet erg
Ġcirc ulatory
Ġprom ethazine
Ġassess ing
ĠMar vel
Ġpan el
Ġstand ardi
Ġmo tivation
Ġcataly st
T B
Ġp orphy
ĠM C
ath iop
Ġweek ly
sp ectrum
Ġcataly zes
athiop rine
t yn
di azepam
ĠP O
em ble
Ġhe al
Ġno tic
Ġdocum ents
Ġview ed
t oler
id ase
Ġcl ub
Ġimp ul
Ġcompound ing
Ġinfluenz ae
ĠSwed ish
Ġiod ine
g rade
Ġret rospective
wh ite
b i
c ons
m us
ic ine
ĠS em
ang le
Ġet onogestrel
ĠAr th
ĠHaem ophilus
I A
Ġe jac
ĠC EE
ĠP apa
Ġcalc ulated
Ġcall ing
ĠCombin ation
Ġcouns eling
] .
Ġperson nel
M s
ĠM us
ĠF our
Ġval u
Ġvis ible
Ġhydroxyl ase
Ġconsequ ently
Ġcannab in
Ġdetail ed
ĠQuaal ude
Ġa rach
ur se
ĠN aproxen
ĠL as
ox ins
Ġtrans fusion
Ġret ail
Ġpoly estradiol
Ġpurch ase
ĠTai wan
Ġdomes tic
m odi
n ec
Ġo uter
Ġs and
ĠH Cl
Ġbl oating
Ġpres ents
Ġlip oprotein
Ġnervous ness
Ġbreak s
Ġlact ating
Ġsil ic
Ġrod ent
Ġcaro ten
al t
Ġh o
id ing
ur ities
ĠCh l
Ġend urance
hydrox ys
fl urane
da ily
Ġtranquil izers
Ġm ys
ĠR ap
Ġmark ers
Ġpotenti als
Ġden osumab
Ġsust ain
om yc
Ġu ve
Ġfil ms
ontin ence
ĠFin land
igil ance
) )
ĠB us
Ġdisp uted
ĠD ar
ĠB ern
ren z
Ġsh am
ard ed
}} }
Ġrequ ested
ĠS un
si ology
ĠP ep
Ġsy ring
ym n
ĠAs ide
Ġbacter icidal
Ġtriglycer ides
Ġform al
yl amine
ast uzumab
rac etam
ax one
Ġout l
fici ency
ĠPer u
Ġimplement ation
Ġoffer ing
Ġconclusion s
Ġvect ors
Ġhar v
Ġlethar gy
C ontin
S S
Ġp ethidine
ra ines
Ġsc abies
Ġtr astuzumab
Ġcall s
ĠS leep
ud ine
Ġob ject
Ġep ig
pre gn
Ġjuris dic
ĠCEE s
f ac
in ter
Ġo s
ĠA k
Ġcl ients
Ġco ined
ace ae
Ġqu ad
Ġcyan ide
Ġdispro portion
3 9
f ish
r idine
Ġp ip
ec ia
ut ational
Ġdi v
pl ants
ĠV eter
Ġra ising
Ġmeasure ments
Ġagon ism
com mon
Ġprotoc ols
ĠSand oz
h ospital
ĠF en
ĠR em
Ġcarbon yl
Ġantigen s
Ġswit ch
olec ules
g ic
od a
ĠP rin
mon y
ĠK i
Ġ6 6
ĠLe g
ĠLike wise
Ġhallucin ogenic
lycer in
azen il
ak a
Ġ193 8
Ġbroad er
Ġdyst onia
ulp ride
se vere
ĠE c
Ġun con
air y
Ġmic roscopy
)- (
Ġinteg rated
ĠT ob
Ġch irop
Ġne igh
Ġsal iv
Ġequ il
Ġvi able
Ġide as
Ġcontinuous ly
Ġanaesthe sia
B D
m o
is ulpride
Ġm estranol
ot rigine
ĠS l
ati al
av ul
ov entricular
Ġeth ical
Ġprof ound
Ġuncertain ty
ĠMis use
Ġwin ner
ĠEss ential
Ġin h
ur in
ĠS ex
ĠD im
Ġad op
Ġsimilar ity
Ġadvis ory
Ġdet ox
ĠNe b
Ġpoly cy
iram ate
Ġhapp ens
ĠStand ard
cur ve
Ġdiscol oration
ant ate
Ġrele ases
ension al
enec id
h oea
in olone
Ġnot e
Ġmic rotub
Ġent eric
Ġdri ed
Ġfinanc ial
Ġo verexp
an as
str ual
Ġantagon ize
Ġmedi ators
Ġreproduc tion
Ġpsyched elics
Ġw ife
Ġethyl ene
Ġfrag ments
ĠTable ts
ĠIndivid uals
A d
ĠA sian
est renol
ĠE gy
Ġen antate
Ġmach inery
Ġdifferenti ate
Ġs tiff
Ġinc ontinence
ĠIn formation
rop er
Ġoff spring
Ġsusp ic
inson ism
tri axone
Ġtry ing
Ġ ice
Ġa ripiprazole
Ġgen omic
Ġartic les
ĠConc omitant
Ġre ly
Ġapp ropri
ill ance
Ġman ual
cep tions
Ġloc ations
Ġveter in
bor ne
Ġalf a
o ass
um azenil
ĠH aw
ĠJ ud
Ġlife time
BA N
Ġpy ruvate
med ical
Ġpric es
Ġveget ables
ĠFam ily
tigm ine
an us
Ġas piration
ĠS ign
duc tion
ĠU DP
ell ar
Ġbo ys
5 4
ĠM art
Ġer os
ĠNor thern
ĠSal monella
ur nal
od ic
ĠN um
ph y
Ġdry ness
Ġstren gthen
Ġdihydro testosterone
ĠPol and
ĠAltern atively
Ġsew age
Ã Ń
in et
oc ation
Ġur ination
Ġelect roph
Ġstra ight
ce mic
ĠM em
Ġk ills
ĠJ ul
Ġmig raines
Ġdatab ases
l ong
Ġ ]
tic ides
Ġcontrac tility
Ġproceed s
Ġethyn yl
Ġc italopram
Ġn ation
Ġex cell
ĠF ort
Ġmon ophosphate
Ġpositive ly
Ġsch olar
Ġrifamp in
Ġemerg ing
ĠOlymp ic
Ġimmunosupp ress
U T
ul um
Ġcom orbid
ĠG abapentin
Ġlev othyroxine
ad vant
Ġam n
Ġelect ronic
ris ing
Ġp Ka
Ġmin erals
Ġphys ically
ĠPar tic
Ġspect rometry
Ġextrac ts
v ity
ĠS U
ĠK n
Ġphen othiaz
xi ety
Ġstri atum
Ġsuppos itory
Ġp p
ĠM ajor
Ġdisc rim
hydrox yphen
ĠH elic
Ġwe ap
form ed
Ġcyt okine
iet nam
ellig ence
Ġf ruits
ur t
Ġor ders
oci ous
hyd rates
ymptom atic
ĠNeu rolog
ĠArgent ina
ĠChic ago
p on
ĠR adi
Ġfree ly
ĠFran cis
ĠER s
Ġalkal oid
. ).
E st
ĠT ex
ĠC ross
ros cler
Ġro oms
Ġbook s
oscop y
Ġalumin ium
Ġ ip
Ġan orexia
os terol
ĠH ow
Ġres on
ĠW ell
Ġlim bs
Ġhyd rol
is ons
Ġinter medi
ĠEgy pt
v asive
Ġdi ameter
Ġres erv
Ġcomp etit
Ġab brevi
ovir us
ĠVari ous
Ġa fore
ĠP ers
Ġclin ics
acl ofen
ĠPhilipp ines
Ġl ove
if ying
ore l
hip s
Ġcarcinogen icity
Ġging ival
b it
Ġa ud
Ġd rospirenone
ot ri
Ġrepl acing
lit azone
olec alciferol
Ġencod ed
ĠIsra el
Ġmethem oglobinemia
ĠLou is
Ġafore mentioned
ic ating
ve y
Ġas pect
Ġpre ventive
Ġgen tian
lu tion
Ġes ophageal
Ġlab elled
ogn itive
uk ary
Ġcho ose
Ġdetail s
in ten
Ġp ush
Ġm ent
ĠK nown
Ġ4 4
Ġpharmac ist
Ġtherapeutic ally
Ġoz one
Ġproxim al
s ome
ent y
ĠM ag
ass isted
Ġ9 2
Ġte ac
CH MP
gal act
U n
ri oventricular
ĠF lor
Ġdep olarization
Ġup set
plate let
ĠGovern ment
Ġc as
ul ence
ĠP il
ĠB ot
ĠG i
Ġalcohol ism
Ġ5 9
Ġacc ommod
Ġmal aise
Ġepid em
Ġnutri tion
m emb
Ġm iss
ĠV ietnam
rec ted
Ġven lafaxine
ĠMal ay
Ġesc ape
Ġwind ow
G el
er ally
ing ling
ĠP ac
ĠL ip
ap ter
Ġsyn onym
Ġcare ful
Ġprec ocious
Ġhand ling
Ġnicot inamide
eff ect
oplas mic
throm bin
Ġdism issed
r ally
Ġdes irable
Ġsulfon amides
Ġtyph oid
) }
is p
ĠT i
Ġsh ot
Ġass umed
ĠAn g
Ġpol ys
ĠMid dle
as tern
ur yl
ia e
Ġab lation
Ġ8 8
Ġ9 1
ĠDise ases
Ġprecip itate
ĠIns ulin
+ /
er gen
Ġm os
ĠP ET
Ġat rioventricular
Ġde le
Ġdis sociation
Ġco umarin
Ġill ust
ynthe sis
Ġconsequ ent
hex ane
Ġutil izes
otrans ferase
n g
Ġst ore
amp ions
Ġstimul us
Ġprop ofol
Ġpap ers
Ġnutri tional
Ġrh abdomyolysis
thyroid ism
c ras
p rim
as tic
oc lob
por ter
Ġunder t
Ġcontra dic
Ġpop py
Ġphosph odies
Ġmut agen
Ġadhe sion
Ġlawsu it
âĢł ,
Ġen able
Ġser ved
Ġ4 3
yt ocin
Ġret inyl
activ ation
ĠOx ford
Ġrh initis
Ġpall iative
Ġencoun tered
Ġwe ar
Ġinteg ration
Ne il
Ġa ids
Ġm ature
Ġd ic
Ġconf idence
opur ine
Ġath letic
Ġemul sions
Ġt a
es sive
op o
Ġmet als
ĠG M
Ġra ises
Ġter tiary
ĠLow er
Ġthi amine
Ġchromos ome
Ġlum en
Ġerad ication
ig en
ast ric
Ġpres umably
Ġfl uconazole
Ġ195 9
Ġ194 8
Ġisot retinoin
Ġepileptic us
leu kin
h ard
Ġl amin
ine tic
Ġch ief
af e
Ġfind s
Ġlor atadine
Ġpair s
Ġdefic it
F R
Ġo sm
ver t
Ġres erpine
Ġ5 8
Ġbran ch
Ġseb orrhea
f i
Ġle af
Ġcor por
Ġed ition
wh ile
Ġcour ts
Ġbur den
Ġfund ed
l odipine
Ġm ap
op ecia
ĠP ain
Ġem ph
Ġgu inea
Ġdefici ent
Ġsurv iv
Ġdon ors
ĠEd ward
Ġaccur ately
Ġin herent
Ġd ia
ĠN ations
ap es
Ġpen is
oxid ation
Ġprep are
Ġanticoag ulation
ĠProt ection
ĠNicot ine
f ol
Ġt ingling
Ġdis soci
Ġab ol
Ġvas opress
Ġaim s
syn aptic
lactam ase
erc ise
hyth ms
Ġpneum onitis
Ġsens ations
Ġimplant ed
Ġfing ers
Ġcollab or
Ġmelan oma
Ġassemb ly
Ġdetox ification
Ġser ine
rect omy
Ġmic ros
Ġdys cras
ĠRe ich
orex ant
Ġinterfer on
Ġuve itis
8 4
Ġre versibly
Ġ19 20
ĠR ib
ĠG mb
Ġco verage
Ġhyper thyroidism
ĠGmb H
F C
Ġn odes
ter min
Ġsal iva
Ġte aching
Ġexpl ore
Ġmalign ancies
ĠÏ ĥ
Ġerythe mat
diab etic
d ot
ar abine
ĠH op
ĠL ut
Ġpow ers
Ġhydrochlor ic
Ġmetall ic
d omen
t ub
Ġb inge
te xt
Ġimp urities
Ġsmall pox
Ġdam aging
Ġendomet riosis
apt opurine
Ġdeter ior
on icot
er ol
Ġat he
Ġmedi ate
ĠCong ress
Ġpyraz inamide
Ġimmunomod ulatory
5 1
ed a
Ġal beit
Ġle ishman
ĠR os
ens is
Ġext end
Ġaltern ate
Ġback ground
Ġhypothe sized
ĠProl ia
Ġcarboxyl ic
acchar ide
6 2
b one
Ġc etirizine
az oline
Ġant acids
Ġdys phor
esthe tic
Ġmas ks
Ġd ominant
ĠM ont
Ġreve al
Ġinterfer ing
Ġtrypt ophan
Ġw ine
ĠC z
ĠP oly
Ġun iversity
Ġpur ification
Ġprovid er
Ġnucle otide
Ġepithel ium
ĠHelic obacter
st anding
ĠL et
Ġ19 00
ap ride
Ġar ray
ĠAl bert
Ġlip ids
tyn odrel
in hib
Ġd in
Ġth al
od g
ĠD ry
ag lutide
Ġim ag
Ġopi ates
ĠGlob al
indi vid
ĠTex as
m Tc
os tigmine
Ġcomp atible
Ġran ged
hes es
Ġdemonstr ating
Ġprogram me
ĠComm unity
Ġel uc
Ġalter ing
Ġneph rotic
Ġstre pt
yl van
Ġpres ident
ult y
Ġpass ing
Ġsurv ive
Ġi vermectin
Ġammon ium
Ġadapt ation
D oping
E F
p rof
Ġre ar
est riol
ĠP ress
ĠIn j
Ġinter pre
Ġdiff use
alid one
Ġabs cess
Ġlas ts
onit rate
á ¹
re ly
Ġac ces
Ġdep ic
Ġmon onitrate
Ġsol di
e e
Ġc asc
Ġday time
ĠSec ret
Ġtit le
ĠRef erence
ĠEduc ation
hydroxys teroid
Ġ ign
in i
ĠD om
ĠB al
ĠAn n
dep endently
Ġremov es
back s
ĠDist rict
Îº B
s im
it ors
ar us
il ized
Ġab domen
Ġz ero
ĠMet formin
aff old
Ġepid ural
Ġan ion
Ġof fici
ĠT P
hydrox yprogesterone
Ġspontaneous ly
Ġcarbo hydrates
Ġak athisia
l actone
he ast
Ġp ione
om ipramine
os ec
ĠC AR
Ġch olera
Ġj oints
val ently
Ġve ins
Ġkeep ing
ensiti zation
oclob emide
ylvan ia
b ens
ĠT HC
Ġanti platelet
Ġer ror
aff in
ĠHist ory
Ġpref rontal
F S
c od
ĠH an
Ġen ables
Ġcor nea
par acetamol
ĠSw iss
Ġalgorith ms
Ġlawsu its
itone al
M L
Ġp he
Ġe ukary
Ġ( %
Ġr hythms
ĠM D
ĠG P
Ġfoc al
an ide
Ġv entric
ĠP ap
end ers
ĠAn tic
iss eria
ĠCl ar
Ġconst ric
6 3
b ach
d o
r d
v ar
ĠA queous
ren s
and a
Ġcaus ative
ĠDi etary
Ġcomprom ised
Ġmim ic
al ities
ors ades
Ġrel ieving
Ġconc lusive
ĠNe isseria
Ġfet uses
Ġshor ten
Ġinstit utions
ĠPur due
Ġhexachlor ophene
hav ior
h aus
Ġc um
Ġp ed
Ġth y
Ġal ve
Ġcont ents
Ġpot ash
Ġ6 4
echn ology
Ġslow s
Ġdil tiazem
Ġunex pected
b irth
al cohol
Ġf ecal
Ġre generation
ĠC R
ĠC and
Ġst ool
ĠD ox
Ġint akes
ater one
Ġsuff er
Ġdestroy ed
c an
Ġw id
Ġf le
Ġn od
ab an
Ġdel ib
Ġure th
Ġcover ing
Ġnotic ed
Ġs tic
ĠC ap
ĠL idocaine
Ġdep osition
Ġdiarr hoea
bl ood
Ġvas cul
Ġmeaning ful
Ġwr ong
jug ated
ĠSqu ibb
ĠTod ay
G I
Ġd oll
ic ardi
Ġg rew
rom es
Ġad aptive
az ide
Ġ8 7
ĠMet a
ĠPen ns
opregn anolone
I L
ĠH ex
Ġdis abilities
ĠO rin
Ġfail s
Ġcycl ase
ocy tic
Ġcatech ol
ĠDig oxin
n ore
Ġe ct
av al
Ġevalu ating
Ġrecogn ize
v as
im et
ob al
Ġ193 9
ou racil
ĠMe an
Ġbiom ark
ĠPenns ylvania
ar yl
di e
Ġal opecia
ĠP i
Ġdisc ontin
ĠMeth aqualone
individ ual
ost asis
Ġper t
ord ers
ĠBl ock
Ġviol ence
Ġcav ity
ĠOff ice
ra tic
ĠG R
Ġco valently
ĠSt ep
Ġoffici als
S SRI
p iperazine
Ġf ell
Ġappro ve
ĠK ir
atin um
rog lycerin
Ġdro pped
N a
l ot
s ite
am pl
il oride
hen e
Ġne omycin
Ġinter ference
Ġlo ad
Ġadjust ment
Ġthor ough
p rot
Ġ umb
Ġas part
ĠJ ans
Ġ4 7
ĠRep ort
Ġcateg orized
Ġanaly zed
Ġpractition er
Ġdisin teg
Ġreserv oir
ĠCz ech
ig ma
Ġmet oprolol
ys ed
Ġmod ulation
Ġj ump
lo zin
Ġques tioned
akef ul
Ġarach id
B O
Ġs ildenafil
ir ubin
ĠC ushing
ĠC VD
Ġal t
Ġcons olid
Ġno ise
itu ximab
Ġgra de
Ġtempor al
ĠTetra cycline
Ġpark insonism
Ġcartil age
r un
Ġ( â
op ath
Ġinj ured
Ġbenz ene
me ga
Ġher bal
Ġinterc ourse
9 1
ot atory
ĠH or
Ġun iversal
erg lycemia
rac tive
Ġcirc uit
ret inal
Ġrelax ants
ĠDis ulfiram
Ġles ion
Ġacknow led
Ġa ortic
re te
Ġd up
ĠT om
ĠC irc
ĠU t
Ġam yl
ĠInc reas
ĠCar l
Ġempt y
Ġcandid ates
he rol
en g
am y
Ġv an
end ritic
Ġco oking
Ġtrans cript
Ġach ieving
Ġinn ate
ĠA ff
ĠA DP
ĠI M
Ġimp os
ach us
Ġgluc agon
Ġsup ersed
nit ro
Ġalg ae
Ġapparent ly
Ġpsor iatic
Ġresol ved
ĠKent ucky
Ġbe ans
ĠC amp
Ġinc lusion
pt in
Ġhe ightened
ĠJ r
Ġdes cription
yle th
Ġinst ability
ĠMic ro
Ġfluores cent
f em
Ġ6 8
Ġmic rof
Ġdam ages
Ġtradi tion
Ġoffic ially
A E
p rol
re o
Ġhyp och
Ġme gestrol
Ġdel ays
Ġimpl ications
Ġcef triaxone
Ġsn ake
enzym es
Ġb eds
ĠI ll
ut able
ĠAd d
Ġret urns
benz odiazep
Ġvehic le
c at
Ġc iting
os itol
ult ry
Ġpharmac odynamic
Ġcreat ine
Ġmach ines
Ġth io
ĠA I
Ġun related
ex amic
ocortic otropic
Ġrace mate
A v
al one
id azine
ĠN orm
Ġrel ies
Ġpal mit
Ġcorrespond s
ĠEnter obacter
H R
res ts
Ġhyp erc
Ġnit rofur
Ġpy rim
ER D
Ġkil ograms
Ġhydrol ase
5 7
Ġre tained
ĠT w
ĠI NH
el en
ad renal
ĠD at
ure tic
Ġall opregnanolone
ĠRes ults
ash ion
Ġstrength s
bu ild
Ġswallow ing
Ġgum s
Ġexcell ent
an alytic
le an
Ġl ot
di um
op py
Ġv ar
ĠP romet
Ġrel ating
ĠAd vis
lim iting
Ġsulf acetamide
Ġwar rant
methyl transferase
Ġframe work
ĠPartic ip
Ġreson ance
achus etts
0 7
T F
os amine
am o
Ġg iant
Ġcan renone
Ġappro xim
art ments
Ġweak er
Ġbat tle
Ġhundred s
ylen ol
a qu
re ported
en osis
Ġsub group
ĠNe omycin
Ġelectro des
Ġepid emic
Ġbiop sy
ĠMass achusetts
Ġn ipp
Ġl actic
ĠR isk
inc ter
ĠPre ventive
Ġprompt ed
Ġsettle ment
Ġamn iotic
odg kin
ĠOrin ase
os an
if ep
Ġreg ulating
ĠNSA A
Ġrati os
Ġcarry ing
Ġsurge ons
lif lozin
d opamine
Ġwh ilst
Ġle uc
Ġsur p
ene z
sc orb
Ġpack aging
reed om
Ġirregular ities
Ġoint ment
r ust
w orms
Ġch or
Ġlow ered
Ġur ban
Ġend ocrine
ĠMethyl prednisolone
ĠÃ Ĺ
Ġbil irubin
ĠCef alexin
Ġintermitt ent
Ġneuropsych iatric
et in
ut or
Ġsc affold
Ġatt end
oton in
ĠRe v
androgen ism
dim ensional
Ġtight ly
Ġimbal ance
Ġpolycy stic
an ges
ot yp
Ġdis advant
ram ycin
Ġtrans ferase
Ġob ese
ĠHyp ot
Ġregion al
Ġhypno tics
lip idemia
Ġmanip ulation
Ġd airy
Ġf os
ug g
ph i
yc l
Ġval id
Ġster ile
Ġpreca utions
Ã ³
on so
ing er
ĠA rab
ĠAn y
Ġmicrob i
Ġvul gar
Ġnanopar ticles
r ors
Ġto uch
Ġor d
Ġsp i
Ġbet amethasone
Ġlo ading
Ġfo als
range ment
ĠDirect or
Ġrit onavir
Ġinfl amed
Ġemploye es
Ġsupersed ed
6 4
E V
si ves
ĠF ar
Ġtri ple
Ġprocess ed
ĠÎ¼ m
induc ing
prop yl
Ġsul ph
ubb les
DO PA
ĠJans sen
8 3
h yper
Ġis land
Ġch air
ral f
Ġphen otype
Ġ12 5
cycl op
Ġoverd osage
I R
Ġp it
Ġm oney
por ary
Ġout patient
Ġcent uries
Ġmy asthenia
ĠPre vious
Ġnegative ly
ophil icity
Ġc ities
Ġpe g
Ġpo ultry
use relin
inc ome
Ġfil ter
Ġinterpret ation
ĠL ib
Ġsub type
rim azole
Ġ8 9
Ġsepar ately
Ġann ually
ĠÏ Ĩ
Ġspas tic
b ase
ak i
Ġtoler able
Ġla unch
ĠArth ur
Ġdiscontin ue
A V
Ġb ol
si ological
ĠL az
Ġ19 35
ĠG ames
Ġbi as
lim ited
Ġprom ise
Ġlear ned
ĠHist or
gener ative
Ġrecip ient
Ġpes ticide
Ġkn ock
Ġvulner able
Ġmacroph ages
ot ing
Ġst yle
oc ar
Ġspec ified
Ġblock ed
ĠMedic are
Ġintellect ual
oc arcin
Ġse al
Ġhal ted
Ġantagon istic
Ġrheum atic
Ġesophag itis
c ast
ab ric
Ġj our
ues e
Ġamp o
Ġdemonstr ates
pers on
Ġesophag us
Ġadul ter
Ġimpos sible
Ġre b
Ġsp ent
Ġro ots
Ġj ob
Ġdef ense
ĠRe ye
Ġemer gencies
oz ide
Ġmulti drug
Ġlear n
Ġuns uccess
Ġsett led
b endazole
p ress
u a
ĠM ylan
Ġris ing
ob i
ian ept
Ġperipher ally
Ġmodi fy
Ġturn over
Ġattempt ing
Ġfluoroqu inolone
Ġaug mentation
Ġcum ulative
Ġvulgar is
I F
f ast
l ie
at osis
Ġco efficient
Ġsub set
Ġmind fulness
Ġadreno ceptors
Ġa udi
ul sion
Ġag o
Ġsc at
Ġop tic
Ġchlor hexidine
Ġantifung als
Ġtow n
ĠPortug uese
Ġarg um
ĠLym e
akeful ness
Ġ(â ī
est yle
Ġcompar ative
Ġ194 6
Ġsteroid al
Ġsuper ficial
ĠMin oxidil
Ġimm ob
obal amin
ralf ate
ĠT ime
Ġsc r
Ġsc ene
ulf an
othe rap
Ġaccum bens
ĠInd ones
Ġrender ing
b and
e ven
Ġalcohol ic
Ġpup il
Ġoxym orphone
Ġundes irable
ĠC ath
ĠAl t
Ġlip ophilicity
Ġuncom plicated
ĠEnviron mental
Ġphosphodies terase
ĠHypot ension
ro zen
ĠI R
ĠL an
Ġpers pective
Ġshor tened
Ġconcurrent ly
sal icylic
b oth
k ill
ĠB as
Ġinter leukin
Ġbirth s
Ġfall ing
ocyc lo
Ġfeat ured
synthe tic
ianept ine
z il
le ading
Ġre acting
rom ine
Ġex ogenous
ag mus
ĠE lev
Ġun f
ard en
oper amide
ĠNov o
ĠSur ge
ĠEff icacy
Ġdimin ish
Ġophthal m
Ġdyn amic
Ġathe roscler
r ite
al ong
ore r
ĠR ay
ĠDec reased
ĠOx azepam
Ġion ized
Ġaer osol
ruct ure
diagn osed
as ts
us tice
ĠT oxic
Ġal titude
ĠN ifedipine
ox yc
ion amide
Ġpres erved
Ġ7 7
ulin ization
ĠCl a
Ġdiscus sion
aded ness
Ġgest odene
Ġaminoglyc osides
Ġcatar act
s ter
t oc
as y
il is
el zine
Ġper mit
oid entical
Ġmem ories
ĠPro ject
Ġrepl icate
Ġx yl
Ġgra f
med ication
ticular ly
Ġcut ting
Ġadjust ments
ci ence
ĠOrth o
A DA
Ġin vention
is er
ĠS uc
ĠB ay
amin ase
form atics
Ġ9 78
ĠZ ol
chlor ide
rex in
Ġthous and
Ġp ounds
id opa
ĠT ask
ĠS elf
ĠP ure
Ġsp atial
Ġpos es
par ing
Ġpharmac ology
Ġcap ital
ĠIm age
gin ine
k inetic
y es
re view
on ents
Ġm ission
ul oxetine
Ġmen tion
Ġvir ilization
Ġmethyl ated
Ġneuro leptic
Ġaccid ents
Ġsul piride
Ġsph incter
ĠInstit utes
Ġun iform
Ġcol lect
Ġsynd romes
ĠMin ister
Ġencoura ged
Ġrub ber
Ġc ot
ce an
Ġpre gabalin
ĠL ov
ence phal
Ġhyp other
Ġsc aven
Ġdim ension
Ġkill er
Ġau tistic
Ġencod ing
glucuron ide
ĠHum ira
onso red
k o
Ġb ought
ĠA ward
ir aterone
Ġmic rom
Ġequ ation
ĠAust ria
oplas tic
Ġsurve illance
Ġatten uated
ĠHop kins
Ġleishman iasis
ĠAdvis ory
f oot
id ae
ĠP ak
ĠD izziness
Ġen abling
Ġend oc
Ġed iting
ĠNew s
L I
Ġg angl
Ġcom fort
ĠV is
ophen ol
oz olol
equ ival
Ġinteg rity
Ġdecongest ant
r m
am el
Ġgen omes
odi ly
Ġcardi op
ĠEx cessive
ĠDep ending
Ġarter ios
ĠPC R
Ġtit led
Ġm erg
ĠL act
Ġtri phosphate
Ġnew s
ĠLe ague
h io
Ġo ct
ĠD an
ĠE vent
Ġamong st
aps ules
ĠNor way
Ġparas itic
Ġmamm ary
Ġsulfon amide
Ġhor iz
ĠKat G
ophthal m
ĠParticip ants
Ġan iline
ĠY o
ĠDi ane
Ġrib avirin
oic ed
Ġmig ration
Ġdiges tion
Ġnyst agmus
Ġunw anted
Ġim idazole
Ġfl umazenil
Ġfib rin
Ġaccum ulates
ĠInt ramuscular
bal amin
Ġneph rotoxicity
acill us
Ġantiepilep tic
Ġhighl ighted
G P
t r
Ġ ile
Ġw anted
um ption
Ġno v
ex cessive
Ġpoint es
Ġlymph ocytes
Ġstre et
Ġtoile ts
S c
in th
des methyl
ĠQu in
or tions
Ġbi ologically
Ġcer ti
Ġbo y
Ġpri v
esthe sia
Ġreconstr uction
H CH
is o
Ġn oct
Ġv apor
Ġli qu
Ġassoci ations
Ġmul tic
ores is
rist one
Ġobserv ations
Ġmoist ure
Ġth iop
ĠD iclofenac
Ġ202 6
Ġcap illary
Ġstimul ated
Ġleuk openia
Ġsimp lex
ĠExt ended
Ġvirt ually
ĠValpro ate
ĠAngel es
n ar
p iper
en one
is en
ĠOr ig
ĠAr my
Ġmat ch
last oma
Ġcy steine
Ġdecl ared
angl ades
ĠFlor ida
E GF
Ġc up
Ġf ashion
si es
og rade
Ġne ovascular
Ġimp osed
Ġresult ant
Ġblock age
Ġpy ogenes
ĠSup er
Ġreabsor ption
d y
ĠT ylenol
Ġor ange
ĠS ter
ĠR is
Ġgen otype
Ġcle ans
ilt ration
Ġsom atic
Ġitch iness
Ġporphy ria
Ġejac ulation
S R
ari ans
Ġpresent ing
Ġinflu ences
ĠCol umb
Ġcod ing
Ġchick en
Ġpalmit ate
on st
ĠS ir
ĠP lus
ub ric
Ġsign ed
Ġmeth oxy
Ġbo iling
Ġgo ats
Ġmedi ates
Ġcompetitive ly
ĠMich igan
Ġquantit ative
B B
y o
Ġb odily
Ġwas hing
Ġass er
Ġall ergen
Ġpol lution
Ġadv ises
Ġexpl icit
ĠVic tor
Ġs out
Ġc odes
Ġd ying
om eric
ĠD EA
ĠB oston
ĠU rin
ĠEn forcement
ĠY oga
Ġhepat otoxic
Ġrab ies
ĠRed uc
Ġalleged ly
or p
Ġh ang
ol inesterase
et t
Ġrel uct
Ġdec ay
Ġany one
Ġcle ft
Ġobs essive
Ġsupplement al
Ġswit ched
ĠPhys icians
Ġvalu able
enez uel
Ġ ram
Ġf el
ĠP av
Ġprote ase
Ġext rem
aw a
Ġpolymer ization
Ġseason al
Ġded icated
ĠMart in
Ġf asc
Ġpro jects
Ġsuc ceed
ril osec
Ġz one
Ġpropor tional
Ġanth rax
A SA
ec an
oc ieties
ĠD ose
Ġcan al
Ġne g
Ġconduc ting
Ġprolif er
Ġembry os
Ġexacerb ations
ochrom ocyt
ĠB ell
ĠB anglades
ĠL um
ĠPre m
be at
Ġneph ritis
Ġbus pirone
Ġpi ece
D HT
V T
i renz
Ġas leep
ĠI D
ĠO ld
Ġtest es
Ġins ignificant
ĠEx posure
Ġnor adrenergic
Ġuseful ness
ĠSe iz
Ġaccept ance
Ġjoin ed
Ġaminoglyc oside
Ġregul ators
ĠProte us
ĠDiffe rent
ĠF arm
Ġanti musc
Ġam antadine
Ġpres ervative
Ġfl uct
Ġpath ological
Ġantic ip
prop an
ĠOf loxacin
Ġdon ation
ĠOxy Contin
ag liflozin
ch icine
rop athy
Ġpharmac ists
Ġphosph olip
Ġinvestig ate
oxy ch
Ġassist ed
ĠWe ight
oxym ethyl
Ġgran ules
Ġexcit atory
ifep ristone
f illed
it ect
ĠG ra
ĠSome times
Ġdys men
Ġpromot er
Ġfoc uses
ĠLabor atory
ĠPortug al
ec utive
am ous
ĠT ypically
ter ograde
ab s
ig uration
Ġst ream
oid al
Ġbi oidentical
Ġdisco ura
12 5
Ġtranscription al
ĠFed eration
ge ment
ole gal
Ġmedic olegal
Ġins ects
Ġpost ural
Ġprob able
ĠBo ok
Ġoffic e
Ġfri end
Ġmacrol ide
c m
Ġp in
ĠH and
Ġwe ights
de f
hem istry
xim ide
ĠOther s
Ġbronch ial
Ġdegrad ed
Ġexacerb ation
A m
f action
Ġ vel
Ġg ap
Ġrec ording
Ġno tion
Ġ9 7
Ġinhal er
spec ifically
Ġnutri ent
Ġstabil ization
Ġhold ing
ĠPD E
Ġabrupt ly
or ig
Ġd ors
Ġre ne
ĠA min
ĠH ans
Ġval ves
Ġpath ogen
Ġamb ient
fav irenz
ochromocyt oma
in ities
Ġc oco
Ġb ridge
Ġh op
lud e
gen ic
Ġcol lecting
Ġexcre te
su pp
Ġdissol ution
Ġstere oc
Ġread ing
1 000
D C
d erm
Ġpl atinum
enti lation
ĠK idney
hydro us
Ġmic rosp
Ġorgan ized
Ġmac rom
Ġattrib utable
Ġhistor ically
h and
re ceptor
Ġf alc
ĠP r
ĠM yc
Ġaff inities
Ġvol atile
nit ine
mal arial
dem ethylation
Ġevid ent
8 9
i ence
t ory
Ġp iper
Ġcon fer
ĠF A
Ġ19 29
ie tic
Ġimmun oass
alk ylated
Ġphyl ogenetic
L a
e lect
he sia
ĠE b
ĠCh ile
Ġintroduc e
Ġinvestig ations
Ġpublic ations
Ġresid ents
Ġhemorrh agic
ĠNet work
Ġs en
Ġm old
Ġf ly
ĠA CTH
ut on
el ly
ĠP rac
ĠR O
ap ril
Ġper icardi
Ġro se
Ġadd ressed
Ġche l
Ġpac em
âĢ² -
Ġweigh ing
e zing
ĠS ocial
ap ore
Ġpresent ation
Ġinflu x
Ġker atin
ĠPos sible
Ġwat ched
G H
os u
Ġso res
Ġ194 3
Ġket o
absor bed
udes onide
ec ium
Ġl ubric
Ġg r
Ġfound ation
lec ted
Ġexc luded
con ver
vuls ant
Ġhypert rophy
Ġp ick
ĠM ering
ĠF el
Ġde form
ĠL ind
Ġexper t
Ġcardi omy
Ġdeg rade
SC s
ĠIniti al
ĠProf essor
Ġaccident ally
+ )
Ġt el
Ġl ots
ĠT ran
ĠA round
Ġy outh
Ġrem ark
hydrox yp
Ġauthor ity
Ġdihydro folate
Ġcyan osis
Ġadren ocorticotropic
Ġthick ness
androst anediol
d opa
g as
Ġdi hydrop
Ġcomp utational
avir us
Ġembry onic
ĠIniti ally
Ġqual ities
Ġrig idity
M RI
Ġb ovine
Ġw aves
Ġm PR
Ġn a
ĠT aking
Ġcom ment
ĠR og
Ġret ina
Ġmy th
Ġide ation
ou x
Ġfa ecium
A IDS
Ġs it
om ical
Ġis oprenaline
uc l
ĠG em
Ġinv est
ĠMet abolism
Ġpass es
Ġlink ing
Ġlam otrigine
aryng itis
Ġw ish
ĠO t
Ġob vious
Ġmeas les
Ġbrom azepam
Ġfocus ing
Ġpolic ies
6 9
8 7
f ib
he ld
ĠS om
Ġdis abled
Ġimmun ode
Ġpow ered
Ġhydrogen ation
ĠBet a
Ġcomprom ise
ĠIg G
ĠScot land
Ġenrol led
Ġmush rooms
Ġsurfact ant
as ure
ĠT olerance
oc obalamin
ain amide
Ġdi ast
Ġsug ars
Ġhyper androgenism
Ġprop oxyphene
lab or
Ġglob ally
Ġamb ul
T MS
V O
h as
ol in
ĠT RP
ĠS ar
Ġcom ing
ulf ide
Ġcyt osol
ĠAt t
Ġer rors
function al
Ġmar gin
respon sive
Ġintermedi ates
Ġmiss ing
ĠUrin ary
is ole
om ies
Ġl ens
Ġg ot
ĠD erm
ĠB rom
unt arily
Ġinj ecting
Ġavoid ance
Ġlo oked
Ġconstruc ted
Ġrac ing
ĠPediatric s
ĠSing apore
d el
u an
Ġs ave
Ġan ger
Ġto l
ol ix
ĠI FN
ven ile
ort alidone
Ġeven ing
Ġsed atives
Ġla uryl
ĠBenzodiazep ine
Ġbelief s
Ġflex ibility
Ġtren d
st and
one l
Ġr uling
Ġad duc
ĠH it
ĠF entanyl
li ximab
ĠDi ab
Ġlocal ized
Ġischem ia
p ump
Ġw akefulness
Ġg od
ĠL it
rib ution
Ġbeg un
F P
O P
l ar
y ers
} (
Ġnot ing
ĠEx p
Ġhem olytic
Ġdecision s
Ġspir it
Ġemul si
ĠAz ithromycin
8 1
M Tooltip
n iv
Ġl actone
ĠS ert
ĠD SM
ĠM E
Ġhe me
Ġcl omifene
ech st
ned y
ĠBi os
sh aped
Ġassist ance
Ġcorrect ly
third s
Ġglomer ular
Ġt ip
Ġd apsone
ic tion
Ġh oney
Ġr itual
ĠSe legiline
ĠCa rol
Ġprob enecid
Ġswe at
h o
ĠUn til
lor a
lec oxib
omet ry
ĠCa pt
CD C
ĠPrim idone
Ġther m
Ġtriglycer ide
Ġdisapp ear
s el
ĠT al
ĠI ron
Ġcon struct
Ġhe ated
low ering
Ġadverse ly
Ġear s
Ġsulf anilamide
Ġpur ported
Ġhem odialysis
Ġer a
ĠDes ogestrel
Ġpreced ing
ipar um
Â Ń
Ġin her
Ġst one
ĠH C
Ġacet azolamide
Ġneed les
Ġap omorphine
toler ated
opo ietic
Ġfalc iparum
or ad
Ġe ase
op posed
ĠM ur
ĠG SK
Ġpres erve
ĠK line
fact ory
ĠPar is
Ġlact ate
Ġgest ational
ĠKen nedy
Ġtom ography
Ġc yst
Ġm M
Ġf rozen
ĠU D
ĠSt one
Ġsol ids
PA P
air s
Ġu tility
Ġmethyl testosterone
ophen yl
Ġchol inergic
Ġexec utive
p ac
t wo
z ema
ac tions
ur as
Ġcon v
ĠW ay
ĠJ ustice
Ġwor th
Ġcontrib ution
ĠAll ergic
AS T
Ġadver tise
ĠHo echst
ĠVir gin
B I
Ġc ran
is ations
ĠP ent
Ġne onate
the adedness
Ġdes c
Ġ194 1
Ġcomm ission
Ġfacilit ates
Ġsoldi ers
d ec
Ġm ol
ĠA ch
Ġg erm
Ġdep ot
Ġsm ell
ĠOn t
con f
lyn n
Ġerythemat osus
] -
s pir
er iatric
Ġit ems
gen ous
Ġcent re
Ġconver ting
Ġnucle ic
Ġpolym ers
ĠHen ry
Ġaud itory
Ġconsolid ation
J S
i ac
r ists
Ġf t
Ġcl omipramine
Ġox ytocin
me tics
Ġtop iramate
Ġmo untain
Ġresearc her
Ġlute al
Ġemission s
Ġpren atal
f ound
Ġde fe
ch i
Ġsh ip
Ġtri p
eric k
Ġpharmac odynamics
Ġnor gestimate
Ġisol ate
Ġthromb oxane
Ġmuc ous
ĠPhys ical
C PP
Ġc iclosporin
ter in
ad el
Ġwas h
so dium
ĠL og
ast es
enti st
Ġmetabol izes
Ġdeb ate
ĠRE M
Ġinsp ired
ĠWall ace
ĠIndones ia
i rolimus
m aximal
o at
o ful
on dro
an ks
Ġw orm
ĠE pinephrine
Ġfound er
Ġsign alling
rac k
Ġprepar ing
Ġfertil ization
Ġlay ers
) =
ge al
rain ing
Ġrespon sive
cell s
anth ines
Ġlig ands
Ġce ased
ĠCardi ac
idel ines
Ġta ught
T OR
V A
s paring
ĠP emoline
ĠE val
ĠL ar
Ġinter individual
rel l
irc ulation
rise oful
Ġsu its
Ġtub ulin
Ġexerc ised
Ġsalicyl ates
Ġmuc osal
Ġwors ened
Ġfollic les
l uc
ã Ĥ
op lasty
ĠS O
Ġint elligence
Ġsh arp
eti apine
Ġ16 0
ĠSeiz ures
b earing
d ensity
Ġep oxide
of ovir
Ġprom otion
reduc ed
Ġcomb ines
Ġdoub led
ĠSpring s
Ġlevo amphetamine
s elling
on ent
or rect
ar ine
ec tiveness
Ġk it
Ġcompar atively
Ġplac ing
Ġoptim ize
Ġcompl aints
Ġpun ish
Ġchec ked
Ġe ch
Ġas ymptomatic
ak ed
ĠG il
Ġvari ables
Ġwork place
Ġel ong
Ġexhib ited
Ġdiscus s
Ġcrim e
Ġdispl ays
Ġnoct urnal
" ;
P rover
] ,
re ams
ed rine
it inib
est ab
Ġex amine
Ġmet ric
ov al
Ġ6 3
Ġfif th
Ġventil ator
ĠDer by
Prover a
en ic
ĠB D
Ġpos ts
Ġno tice
Ġqu etiapine
rob enz
ĠSc ott
Ġpredic tion
ĠBi ot
Ġden ied
Ġves tib
ĠOlymp ics
Ġseg ment
ocar pine
v it
em at
Ġnot hing
Ġsuc cessive
Ġmust ard
Ġclaim ing
Ġparticip ate
Ġelectro de
Ġtap ering
ald osteronism
ad ren
ĠB rain
Ġpur ity
phen ethylamine
Ġwar n
ĠLe w
lo y
Ġow ned
Ġdri ven
Ġsem aglutide
Ġport al
sur gical
Ġhab it
ĠSul piride
ĠPapa verine
f irst
h ost
v ille
or ti
ĠL ute
gen eric
Ġpain s
con vulsant
ĠGen eric
ĠStre et
Ġchallen ging
aryn geal
Ġabund ant
ĠHung ary
Ġampo ules
id ic
ab endazole
Ġst enosis
si ella
ĠW ood
Ġhy aluron
Ġtri amcinolone
Ġcapt ure
es terone
Ġl apa
ub ble
Ġheart beat
Ġappear ing
ĠGu idelines
Ġot otoxicity
Ġdaugh ter
ĠRifamp icin
Ġin ert
al b
Ġf ra
th io
ch ild
ĠL ith
ĠR iver
Ġest rane
ĠAn c
ĠAc tive
ĠAr ch
ĠCol omb
avul anic
U L
Ġm oclobemide
Ġad minist
Ġ3 25
Ġir radi
ĠIm ipramine
Ġmov ie
Ġhapp en
oxym esterone
leb siella
Ġhos ts
ĠManufact ure
re li
os cy
ul s
Ġg em
um ing
if t
ĠV as
Ġes omeprazole
Ġhyper b
Ġdifferent ly
ilt own
Ġport ray
Ġmerc ury
Ġoxal ate
Ġcaroten oids
as corbic
Ġn urse
am ental
Ġst ent
ĠH MG
Ġres usc
ĠO m
Ġk its
Ġ8 4
Ġincid ents
Ġphosphor us
Ġhold s
Ġquestion able
ĠVen om
Ġappropri ately
Ġhypother mia
Ġdiast olic
0 4
l ore
v acc
Ġc iti
ul i
ĠP o
ĠP rec
ĠF lynn
ore ceptor
Ġwe b
Ġanti malarial
Ġso f
Ġimmun ological
Ġneurop rotective
Ġexperiment ally
Ġdisrup tion
Ġstandardi zed
A l
Ġp ray
Ġcon cepts
ub e
ass es
20 10
Ġ193 4
Ġaw ak
stim ulation
Ġo rexin
Ġf abric
ĠD ancer
Ġrec l
but yl
Ġmar g
Ġpractic ed
Ġread s
ocarcin oma
i ate
ĠA ut
st rand
ĠS N
Ġgl i
Ġplas m
isc her
Ġtheore tically
ĠTur k
O TC
Ġst ation
Ġad mission
Ġapp lying
rap id
ind ole
ix ed
ĠHe in
ale in
Ġmis leading
ĠRep orts
Ġphot o
ĠInf ectious
Ġresemb les
h at
Ġt ar
Ġ( âĪĴ
Ġal lyl
Ġclass ic
ĠAb el
Ġche ap
Ġcit ric
Ġdraw backs
Ġmanifest ations
f ed
g ul
t w
Ġg ar
ren ces
Ġpur p
Ġhist one
ĠBe ech
oisomer ase
Ġdysmen orrhea
Ġt alk
an ium
ox ylation
Ġpar amed
out s
Ġro ck
Ġnit rofurazone
Ġcyc ling
Ġcre w
AR s
Ġche w
Ġgal act
ĠColumb ia
Ġantimusc arinic
Ġa il
Ġn ail
ter ious
tic le
ĠF r
Ġcl o
Ġform ally
ĠW ol
ge va
the rapeutic
ov iet
Ġnit rous
Ġoff enders
methyl phenidate
ĠX geva
Ġplay ing
Ġeng age
Ġthromboemb olic
Ġey el
Ġarch itect
ĠKar l
Ġarterios us
I M
I N
S ER
Ġtw enty
ĠHyper tension
ĠClon idine
ĠMusc le
en olone
Ġco ated
Ġdisc ipl
Ġalcohol ics
Ġcyt oplasm
Ġpen ile
Ġfri ends
G en
Ġg ymn
Ġen em
Ġpl ot
Ġtrans plants
ons in
Ġes cal
ĠPro v
Ġvol untarily
Ġsep tic
oxid ase
Ġvisual ization
Ġneph ropathy
Ġcoup le
Ġexceed ed
Ġstrict ly
Ġsun light
Ġiso zym
Ġarachid onic
Ġa f
Ġan sw
ĠSe e
Ġglyc oprotein
Ġcal ib
isc onsin
Ġfrag ment
Ġfamil ial
Ġâī ¤
Ġlimb ic
Ġchlorphen iramine
U K
in vasive
Ġd row
ĠIn de
qu ar
Ġint ubation
Ġ4 1
Ġar yl
Ġte ach
ĠEx cell
Ġana phylactic
Ġcast rate
Ġarti st
ymp athetic
Ġdivers ity
u ous
Ġs ampl
Ġb uccal
ĠD on
ĠM as
Ġany thing
ĠAt ropine
pro sy
Ġfree zing
axim um
Ġreason able
benz ene
ĠHydro xy
anil ide
ĠChem istry
acill in
tetra hydro
re a
Ġan hydrous
Ġth irty
Ġg ait
ĠM ax
Ġres emble
Ġcomp are
Ġpregn ancies
char ged
Ġswit ching
Ġpolyp eptide
Ġp aste
os er
yl in
ĠH ind
ĠE g
Ġshould er
Ġ8 00
Ġact or
Ġlip s
Ġperman ently
phas ic
Ġlock down
Ġ(âī ¥
Ġen ol
ond yl
Ġfe as
lec tion
osph or
Ġnucle otides
Ġsum mer
Ġadapt ed
Ġbul k
Ġtet anus
Ġantiestrogen ic
c ap
ĠD os
Ġar gue
Ġcigaret te
Ġmitig ate
ĠCos metic
n d
s s
in ates
Ġt urns
Ġs kelet
un ic
pp i
ĠJ ew
Ġexp ressing
Ġphen elzine
Ġbo ost
ĠMalay sia
Ġle prosy
ĠR ous
ct omy
ma res
ĠPro st
Ġadd s
Ġpath ology
Ġdef end
Ġsecre te
}} \
Ġaccount ing
ĠCombin ed
ĠExcre ted
ĠD ance
qu inol
ub iqu
Ġsh ares
Ġapp lies
ost at
Ġconf iguration
Ġdef ect
ĠSp i
app ro
oplas ia
ĠPan adol
Ġflat ulence
ĠGr Ã¼
Ġmos qu
Ġdeterior ation
review ed
n ormally
w ell
Ġp im
Ġl ax
ĠT V
ib ut
oz yg
bl adder
Ġsens or
ats on
Ġpancre atitis
Ġsched uled
G MP
st anti
Ġch olecalciferol
ĠPro c
ĠChlor diazepoxide
Ġchrom affin
ĠPsych iatric
Ġinn ov
s ue
ĠT reat
op ol
op ia
si ppi
rop hen
alth ough
ĠAl f
ĠAd ams
sis sippi
Ġhyd rate
Ġequival ents
Ġacetylch olinesterase
block ing
ĠA S
ĠC he
ĠB arb
ĠF ree
rop rop
ĠK ol
ĠK lebsiella
Ġchar ges
Ġver tical
Ġradio active
Ġdysphor ia
l ers
Ġn ic
ant a
Ġhydro ph
Ġconf ound
Ġpath ogenic
Ġfung us
Ġju venile
Ġground s
Ġcul min
is omer
al ks
Ġd endritic
ĠN az
Ġar c
Ġdes ipramine
Ġbro ther
Ġfo rens
Ġaz athioprine
Ġfen fluramine
ĠJack son
Ġperi operative
Ġhoriz ontal
z ole
ur ine
ĠA u
Ġpro gn
og ue
ĠH all
pt ed
Ġun res
Ġcons iders
Ġte en
Ġpublic ly
Ġhyd razine
Ġclon ed
rist ol
Ġmaintain s
ĠOp en
ĠDC S
oglyc an
obut yric
ĠConsum er
Av entis
riseoful vin
Ġcon ce
Ġinc orrect
ĠM and
ĠB a
Ġdis till
Ġanti ret
Ġret ard
Ġimportant ly
Ġimpl ies
Ġrelaps ed
b upropion
ĠC ryst
op sin
ĠS in
ub es
ĠO R
Ġro yal
Ġsteroid ogenesis
Ġevery one
ĠGu aifenesin
Ġutil ize
ĠHal operidol
Ġrecip ients
ĠBudd hist
Ġre min
ir cular
rug g
Ġrespon sibility
roid s
Ġtac rolimus
Ġsem en
ket amine
Ġcoup ling
ĠMc C
Ġnarco tic
Ġkne w
ĠHep arin
Ġscar ring
Ġnitros amine
S F
ed e
Ġp ict
Ġd ust
Ġis onicot
Ġst ories
ĠF SH
Ġcons erved
ron s
Ġar sen
arb y
Ġtra ff
Ġnor thern
Ġexist ed
Ġproton ated
Ġstabil ize
Ġdivid ing
Ġvesic ular
Ġbelong s
ĠGood s
Ġm aker
et rol
ion al
Ġpotenti ates
Ġconf used
Ġeuphor ic
mod erate
ĠReview s
Ġligh theadedness
A K
u ations
ĠCent re
ĠReg istry
ĠNon etheless
Ġpure ly
ĠFl utamide
Ġwrit er
Ġcoup les
Ġencoura ge
ĠCardi ovascular
Ġvisc osity
at ine
Ġb arium
ĠT our
ĠM ind
Ġfol d
Ġtra its
hyd rin
methyl ated
Ġorig inated
Ġimpair s
Ġ194 5
Ġmono amines
CT s
ĠMis sissippi
ĠHit ler
D MT
i ol
l um
Ġan ec
Ġst yl
ast ine
rol act
Ġtim ing
Ġcol umn
Ġeth nic
oh imb
Ã¶ r
Ġmep hen
Ġcorrec tion
Ġcool ing
caus ing
ĠHistor ically
e u
Ġp ocket
os um
ĠC ri
ĠF ore
ĠF ischer
Ġdis qual
ĠO ste
az am
Ġfrequ encies
ĠEth anol
Ġperf ect
ĠExcell ence
b our
an tic
Ġm aster
Ġr RNA
ĠE lderly
oid osis
Ġimmun ization
Ġprof essor
athy roid
ĠJoh ns
Ġchromos omes
onit rile
ĠP rilosec
Ġins ect
Ġcor p
Ġadv ent
Ġdiab etics
ĠDM T
Ġreinfor cement
Ġexcit ability
6 1
u ents
ĠE MS
we g
Ġmeth icillin
Ġsec urity
Ġprot ozo
sequ ent
Ġcer tification
Ġcer tified
Ġmo tif
comp ulsive
Ġretin opathy
Ġclot rimazole
Ġlif estyle
Ġneutral izing
Ġinstrum ent
Ġoverl ap
Ġdors al
j i
r rol
t ypically
ed ia
ot amine
Ġcon vic
ĠC oca
Ġsy phil
ib en
Ġcent rally
agn es
Ġantic ancer
Ġminim izing
Ġdisturb ance
Ġnan om
Ġtoothp aste
Ġvaccin ations
Ġsyphil is
_ {\
t rim
Ġs oda
Ġan terograde
Ġhyp n
Ġsec tions
Ġindic ator
Ġec zema
grow th
Ġdrain age
c ase
i ance
n ight
on omy
Ġo u
is ters
or ie
os ulf
op l
ĠS oviet
Ġac quire
est ra
oc alciferol
Ġund et
Ġperiod ic
Ġhyd ration
Ġrepresent ing
ĠNeu ro
pers onal
ATP ase
Ġschem e
E l
e gestone
Ã Ĺ
Ġth iaz
ox o
Ġtrans f
ĠpH iso
ĠWal ter
Ġquar antine
Ġcow ork
Ġcraving s
e als
ar an
ĠS el
ĠP s
ĠB rad
Ġpotenti ation
Ġinvol untary
Ġslow ed
ĠEst ro
Ġglut amic
Ġeduc ational
Ġplaintiff s
Ġempir ical
Ġequil ibrium
F U
O D
b ing
Ġsc ript
Ġ15 00
Ġstop s
ĠHar v
Ġdisplay ed
en gth
or ientation
Ġm ant
ar n
ĠB ody
als y
Ġaddi tives
Ġdisrup ts
Ġ(+ )-
ohimb ine
Ġcowork ers
7 1
igh ten
yp h
ati l
Ġsp aring
Ġam isulpride
Ġchlor o
cep tive
ĠSub sequent
ĠReg ulations
ime tics
Ġdistingu ished
Ġconform ational
ecl izine
market ing
toc op
Ġmacrom olecules
b amate
Ġb read
Ġw orms
ĠM emb
av y
ffe inated
Ġar ising
ĠApp lication
Ġspecial ty
ĠCarb amazepine
ĠBAN MTooltip
ĠBanglades h
Ġhyperb aric
% ;
S p
y rate
Ġp am
Ġear th
Ġnore tynodrel
ĠInt ake
Ġs ure
et axel
ul itis
od ec
Ġex port
ĠB ill
ĠW isconsin
ov igilance
Ġsc ans
li ptin
Ġimmun otherapy
Ġconn ections
Ġview s
Ġdraw n
acchar ides
oprost ol
th ood
ĠP A
ĠW atson
Ġind eed
Ġneu rob
Ġgast rop
Ġmis oprostol
ĠMal athion
Ġdiscl osed
Ġshamp oos
l ock
w en
Ġs ut
es tiv
an di
el an
Ġinc re
ĠL ocal
ox ap
Ġsp ider
Ġun su
form ing
Ġox y
Ġeth isterone
Ġadv ise
Ġcertain ty
Ġmillion s
Ġdistrib ute
ĠFlu or
Ġdeple ted
phth alein
Ġprefer able
ca ffeine
Ġswim ming
ĠFred erick
nec ess
C P
red itary
ant in
ĠR heum
form e
requ ently
itor ing
Ġnor gestrel
ĠGen erally
Ġsum m
Ġprosthe sis
ĠFil m
Ġsulfonylure as
Ġduoden al
Ġvel oc
Ġa ver
Ġp ale
ur gery
Ġst rugg
ĠP ub
ĠM ant
ĠL em
Ġk m
omet asone
Ġthal amus
Ġgangl ia
Ġn ont
Ġg rain
ose lective
ĠG s
Ġadv ances
Ġlat ency
Ġbran ches
Ġcred ited
Ġopport un
osu ximide
Ġg rains
di ene
ĠB ristol
Ġres erved
ĠR od
Ġsp ots
Ġ5 6
Ġacc used
ĠSub lingual
Ġconclud e
Ġsem is
ĠTrans dermal
Ġce leb
Ġsqu are
Ġbig gest
Ġoutl ined
L L
Ġt ianeptine
it ative
om agnes
Ġres ection
Ġwe aring
Ġmut ant
CO S
Ġbroad ly
oplas ma
Ġpenet rates
Ġfig ures
Ġcloth ing
Ġemph asis
in ite
he im
Ġo titis
Ġbe am
Ġde acetyl
Ġmon oxide
Ġur ate
irm ed
irr or
ĠTak amine
Ġendoscop ic
Ġdoll ars
c hen
c hemical
f am
Ġt art
he alth
Ġun bound
Ġgener ations
Ġprop ag
Ġdefin ite
Ġrecre ationally
Ġmov es
Ġinten tion
rov iral
Ġsurviv ors
ĠInde ed
C as
Ġt retinoin
Ġp alsy
Ġf used
ag ers
ĠG am
Ġnon etheless
Ġanth rop
ĠAss ess
rav entricular
Ġacces sible
c it
ĠS AM
ant ac
ĠN ET
Ġme gal
oin formatics
Ġeth ics
Ġwill ow
Ġref used
Ġfib rom
Ġsick le
Ġresour ce
Ġprosthe tic
ĠScienti fic
Ġundert aken
Ġacknowled ged
G S
o hepatic
Ġpro spec
Ġcom ic
ĠB up
ĠJ eff
Ġph ag
assi fied
Ġassess ments
Ġmicro g
Ġens uring
Ġenc aps
Ġamb igu
Ġre ally
il ic
ĠS ynthetic
ther mia
ĠR am
Ġsimilar ities
Ġpur ple
Ġhem olysis
eb a
dis continu
ĠPak istan
Ġunsu itable
A DHD
Ġs ocieties
Ġg ets
oc ic
men strual
Ġarth ral
Ġduct us
Ġsat uration
ĠAdd ison
F SH
d rome
Ġt ired
as sion
ĠA ven
lud es
Ġimp acts
Ġmo tiv
Ġrandom ly
oll en
ĠSystem ic
ĠRel ated
ju ana
ĠFre ud
Ġinstrum ents
ĠBeech am
d est
n ab
in jection
ol lo
Ġle mon
Ġne arby
Ġtrans p
til es
Ġcol lege
ior idazine
ĠOr der
ession al
Ġglyc olysis
Ġmulti forme
ĠSur gery
Ġalk ylation
Ġsymb ol
w hen
Ġd uloxetine
Ġsp rays
Ġover t
ĠIntern et
Ġdim er
ocy steine
Ġcop ies
Ġdihydro codeine
ĠÃ ħ
Ġstain ing
Ġfertil izer
Ġdut y
Ġcerti fic
Ġ :
Ġf reedom
Ġh ay
ĠC amb
ĠR est
ĠQ uality
AR C
ĠWith out
ĠOver d
Ġprecise ly
Ġdocument ary
ĠFried rich
ophthalm itis
C ola
Ġb er
Ġb esides
Ġe uth
ren gth
Ġres in
Ġso y
Ġpen al
Ġx en
Ġcos metics
ospor ine
ois omers
Ġbath ing
Ġcomb ine
Ġsatis faction
Ġnyst atin
Ġimmunosuppress ants
tocop herol
i que
ol ved
ĠT oxicity
ĠA ge
ĠS z
Ġst an
ĠM ars
red ited
Ġsynthe tase
Ġro w
Ġend ing
ĠNe ither
Ġaden ine
Ġren amed
Ġreflex es
Ġreflec ts
Me O
Ġcasc ade
C NS
Ġm a
ĠT radi
Ġpro thrombin
ag ia
ure a
ĠV an
chlor obenz
Ġprop ensity
Ġrace m
imb ic
ĠClostrid ium
Ġcollective ly
Ġtoothp astes
b ar
c ardi
f ier
Ġ rop
Ġ ubiqu
Ġb rains
Ġn as
est ine
ĠD own
Ġdi ving
ĠL uc
Ġun born
Ġactiv ator
Ġsup raventricular
Ġtend encies
Ġglut am
ĠAg ricult
ĠIU D
Ġcarbo hydrate
Ġosm otic
Ġb ill
Ġd reams
st on
op rofen
od or
Ġch ondro
Ġsub c
Ġ5 1
Ġtra ffic
Ġche aper
Ġpig ment
Ġthin ning
it z
Ġsupp li
Ġav ium
ĠZ opiclone
Ġiniti ative
ocardi tis
Ġfund amental
ĠSer um
Ġviol ent
Ġcondom s
Ġvestib ular
P harm
Ġt orsades
en a
en ger
ac ic
ig ure
ĠP M
ĠP et
ĠU k
ect ant
Ġup regulation
Ġinv ent
Ġexpos ures
Ġref ined
Ġcontrib utions
Ġhydroxyl ated
Ġfin ished
lycer ol
phal an
Ġce lecoxib
Ġmedull ary
Ġdram atic
Ġanaesthe tic
Ġmob ility
Ġinstitution al
Ġc ab
Ġch urch
ren di
Ġab used
ĠAn tip
Ġ7 00
avail ability
ient ed
rog ol
sur gery
Ġopport unity
Î ¼
Ġc amer
Ġe igh
ine x
Ġ( ~
op ian
ĠF ast
end ment
Ġper itoneal
Ġlead er
ĠEn t
ras tim
Ġmetast ases
Ġsulfonylure a
Ġpp m
Ġmethoxy flurane
B L
T R
w orld
Ġf ist
di al
Ġch ills
min ute
ptom ycin
oton ia
Ġcholest atic
Ġvent ral
ĠHoff mann
Ġmultic enter
l oc
m ill
in opril
on o
us hed
Ġex haus
Ġ19 28
az e
Ġun regulated
ord s
Ġ8 6
rot oxic
ER s
Ġveget able
Ġrecyc ling
ĠConcer ns
Ġentit y
ĠSign s
0 9
f il
ub er
ĠR ock
te z
Ġhyper aldosteronism
Ġcondition ing
Ġexamin ing
Ġbehaviour al
uma rol
ocyclo hexane
roprop oxyphene
p sych
Ġp iv
le en
Ġn ations
ten sives
Ġend ophthalmitis
Ġrap e
ĠY et
omy el
Ġsk ill
Ġterat ogenicity
ĠPat ent
Ġspring s
Ġspecim ens
Ġdesmethyl diazepam
nore pinephrine
Ġect opic
D ep
c yp
es in
Ġm TOR
ĠT ok
her ic
Ġdis ulfide
ism uth
Ġhal ogen
ĠAc tivation
Ġanno un
SC N
Ġarrest ed
Ġoutbreak s
Ġrot ation
Ġpsychiat ry
Ġanat omy
Ġdiscrim ination
l og
Ġt ic
ĠS a
ĠB acter
ĠL and
Ġsc en
Ġcop y
Ġemul sion
ĠVeter inary
Ġabbrevi ated
Ġdia ph
1 10
H I
H CO
al cemia
Ġm CPP
ĠN ext
oid es
Ġindi gestion
ĠIs oprenaline
Ġfacilit ating
gonad al
Ġcontamin ant
Ġiod ide
Ġfluores cence
Ġsucceed ed
H D
b en
it an
ol imbic
ĠE astern
ĠZ antac
Ġintroduc ing
Ġcult ured
py rid
Ġbal anced
ĠAnc ient
B H
D el
Ġt rib
it ud
Ġw ider
ĠT hy
ĠC MA
ĠB ED
li ve
ning s
Ġdem ethylation
Ġpara phil
Ġarg ues
Ġmi rac
ocor tical
Ġt un
on n
Ġd ub
ĠG el
ip ot
Ġob lig
Ġ8 2
Ġath lete
ĠAnd rew
ĠLu ke
ĠCel gene
Ġatmosp here
w et
Ġb aclofen
it ron
Ġre ven
ĠS ingle
Ġv ig
Ġ6 1
lis on
Ġphysi ology
Ġestablish ment
ĠNord isk
ĠC ode
ĠC ypro
Ġform at
Ġun necess
Ġsc oring
Ġprop ylene
Ġestab lishing
ĠPer lut
Ġalkal i
Ġanaly ze
Ġmob ile
brom ide
hept adine
G C
ing ing
Ġpar ties
rain ed
Ġcare er
Ġhand le
Ġcross ing
Ġpoly ethylene
aff inity
Ġreal ized
Ġnight mares
PS TF
Ġneutroph ils
l ived
} {
al oxifene
om idine
ĠB one
min th
Ġinter acting
Ġro ad
Ġcol chicine
Ġsal butamol
Ġran ked
Ġpharmac ologist
Ġiniti ate
Ġrepl en
ĠX L
Ġvi als
aff ected
hythm ics
Ġgall bladder
Ġvacu um
L DL
am isole
ĠC ost
ig er
Ġac ted
ĠD avis
ĠF und
Ġcomp ulsive
ĠG ynecomastia
ari juana
Ġdep loy
fe ed
ĠBo ots
Ġ190 2
Ġcannabin oid
estab lished
ot rac
ĠC AS
ear ly
Ġaut op
ĠCl in
Ġmethyl x
Ġlate x
Ġanalog ous
ĠGeor gia
Ġflex ible
MAO Is
ĠDext roamphetamine
Ġmycobacter ial
SSRI s
Ġnipp le
8 2
j oy
Ġre ady
ĠT E
Ġg ynec
em inal
Ġun opposed
Ġend emic
depress ant
CO X
ruc e
aryn x
glut amine
ĠBern ard
Ġmosqu ito
p hedrine
om ized
ĠC iprofloxacin
ĠB or
ĠN E
Ġ7 3
Ġprot ons
Ġpo res
ĠProduc tion
Ġren in
Ġsn akes
Ġflav or
Ġneigh bor
Ġdyscras ias
Ġeluc idated
Ġmicrosp heres
Ġhydroph obic
Ġc ircular
Ġw estern
Ġf sw
ĠP ack
ĠL at
ap lex
ke tide
the re
Ġ6 7
Ġj aw
rin one
cop e
ĠBi ological
ĠMin ocycline
ĠNA DP
ĠReg ard
Ġmes h
ruct ose
Ġcys titis
rocy tes
umar ate
inch ona
ĠVirgin ia
h u
Ġm ifepristone
end ence
Ġint ensi
co um
ĠCh ampions
Ġpol io
Ġgu ar
Ġcyt os
Ġpossess ed
80 1
Ġhom ocysteine
Ġaz ole
ĠTak eda
Ġhippocamp al
Ġmegal oblastic
b ox
c omm
Ġapp rec
Ġreac tivity
Ġaff ili
Ġ7 9
Ġed ge
Ġapproxim ate
Ġp ointed
Ġd ichlor
ul ary
oc rit
oc olate
ĠD ol
ore ceptors
ĠJ on
Ġdec anoate
Ġimp roper
Ġtra pped
Ġvol umes
Ġfam ous
ĠDi agn
ĠAp ollo
Ġdiagn ose
Ġdetect ing
Ġcompetit ors
Ġh idden
ĠC apsules
ĠN atural
ĠU r
ĠL am
Ġsu ffered
abol ites
Ġwill ing
par ticularly
Ġsulf onate
Ġhospital izations
Ġsurv ived
ĠPot ential
link ed
ĠHarv ard
Ġh us
ĠIn h
ĠB at
ĠB est
ĠN Y
ram ide
Ġdisp ensing
Ġingest ing
ĠSyn drome
Ġcathe ters
Ġasc ending
ep sia
ant ly
ĠB ob
ys ts
Ġtrans aminase
Ġsc ope
Ġmod ulates
Ġ18 97
Ġexact ly
Ġcatar acts
Ġabund ance
Ġreag ents
press ure
v ascular
Ġt ag
Ġp ets
Ġb ite
ec yc
Ġn orm
im p
oc omp
ch olesterol
Ġun metabol
ace ous
ĠÎ »
Ġme rely
pec ific
ang ers
Ġmethyl ene
Ġnucle oside
ĠPl iva
fort un
ĠModern a
ĠExper im
ĠOnt ario
ozyg ous
Ġb ubbles
Ġl oses
Ġad alimumab
ĠH ard
Ġcont exts
all s
rop o
Ġlong itud
Ġur gent
pro gest
Ġinvestig ators
Ġglyc os
ĠDep ression
ĠMc Neil
ogene tics
ometh acin
sub stit
Ġaug ment
Ġnick el
Ġcardiomy opathy
ĠTRP V
w art
Ġb ac
ĠC ontinu
pl ained
hydro cortisone
Ġatt ract
Ġsequ el
retin oic
Ġadvoc ate
Ġdermat ological
Ġpredis position
t able
Ġto t
Ġg eriatric
si p
ĠM it
ĠE MP
Ġhe ar
Ġne bul
az in
Ġam iloride
Ġspec ulated
Ġisol ates
Ġleuk otri
Ġdat as
Med rol
Ġjurisdic tions
Ġscholar s
ĠCath olic
ĠYo ung
oscy amine
Ġstan ozolol
N C
Ġf rog
Ġto c
ac ute
il ical
Ġhe lic
ym met
Ġtri azolam
Ġexc ip
Ġmetast asis
Ġrevers ing
Ġgir l
Ġhaem orrh
ĠNav y
iber cept
grow ing
Ġpacem aker
ĠBD NF
b a
b ro
e z
Ġ ib
Ġhe reditary
Ġnew sp
Ġlymph ocytic
ĠEng ine
Ġalb endazole
Ġcal ves
organ ic
Ġadvoc ated
Ġshel f
I t
Ġm oral
ĠD ys
og lut
ĠL ight
Ġen for
erg an
ov es
Ġbir d
Ġ194 4
Ġglyc osides
Ġspe ak
ĠOf ten
ĠNa Cl
Ġthreat ened
modi fied
Ġcoco a
Ġin oc
Ġe ti
ĠP ath
ĠD opamine
Ġr ural
ĠB CE
Ġpre operative
Ġar ises
of ten
Ġlen alidomide
Ġsk ull
Ġlib rary
Ġmening es
rypt amine
Ġsum atriptan
ĠSout heast
ĠD R
Ġch oline
ĠF ive
ĠU C
vel ength
ors ed
ult ures
ĠAn th
Ġspecial ists
cycl o
Ġ190 4
Ġantit umor
Ġaqu atic
Ġfeat uring
Ġveloc ity
ve ti
Ġor ientation
ian a
ĠDi enogest
Ġcomplex ity
Ġrespond ing
ĠMAO I
ĠFrancis co
discontinu ed
u f
y ears
Ġc ured
Ġb right
ul ant
ĠS ac
ĠP ass
ĠP aste
ĠE t
ph ase
ose x
az odone
Ġproduc ers
Ġper ox
ram ol
Ġcell ulose
Ġend point
yn a
hydrox yl
Ġâ Ĥ
Ġnucle i
ĠSulf acetamide
Ġdisrupt ed
b ow
Ġd ates
ar th
om orph
ĠIn domet
ĠH PV
ĠB art
Ġdi al
Ġdos ed
Ġinter face
Ġev apor
Ġacute ly
Ġperiod ontal
Ġregard s
Ġsubstit utes
Ġel igible
obut yl
Ġchirop ractic
anas ia
ĠLum inal
ĠColomb ia
Ġprospec tive
ĠIndomet acin
A r
m ass
u ating
Ġe jection
op yridine
ep l
ad ow
Ġim id
ges ic
Ġmeas urable
Ġpow dered
Ġinvestig ational
Ġthrom bin
Ġsom at
ĠConc urrent
Ġbott om
ĠUD CA
ul us
am ers
ĠT re
ag ger
Ġcomp artment
Ġsh apes
ĠL ine
Ġhigh light
ĠV e
we et
Ġgener ates
Ġrem ote
Ġequ ine
ĠCom pl
AR T
Ġmat hem
Ġmodel ing
Ġx er
oxyl amine
Ġconn ect
Ġepis odic
oxych olic
Ġchew able
Ġt exts
ed ical
os y
Ġr ituximab
Ġ5 7
ys mal
Ġind omethacin
Ġhum or
ĠIs ot
ĠLi quid
Ġelev ations
Ġesc italopram
Ġpsychiat rists
Ġdut asteride
benzodiazep ine
Ġeuth anasia
aplex y
M H
Ġg ray
ĠD ai
ĠL un
per ial
Ġabsor bs
Ġpy roph
ump s
Ġbed time
Ġcompens ate
Ġnanom olar
Ġt RNA
Ġf ile
le e
ĠT d
ep i
ĠSt ar
Ġacid ity
iss ue
ling er
Ġtop oisomerase
reg on
Ġmar ine
Ġleak age
ĠAlex ander
Ġhyperc alcemia
Ġnitrofur ans
. ),
a icin
im od
Ġv inc
iz on
Ġdis orientation
ox on
Ġcl imb
iv ity
omen cl
Ġ9 3
Ġmy opathy
ĠWh at
lin ing
Ġbiom edical
Ġfen ofibrate
Ġcholest asis
ĠLaz arus
L SD
N MT
s a
es are
Ġp iperazine
Ġbe ar
Ġg rand
ĠD ani
og el
Ġab iraterone
and em
co balamin
ĠJ ean
ort ing
li ver
ex per
Ġdem onst
Ġpart y
ĠRec ently
ĠSte ady
Ġann ot
elle ts
Ġdeliver ing
Ġphotos ensitivity
Ġcaro tid
K OR
O r
f in
Ġd ress
Ġg ases
st atic
Ġcomp osite
Ġpl ague
ĠK a
of em
Ġadd ressing
Ġcat aplexy
Ġalcohol s
Ġderiv es
Ġpath ogenesis
ĠMet amizole
Ġacetyl cysteine
ophil a
Ġpyridox al
ĠDoc tor
le ft
ĠS ust
ain ting
lud ro
Ġper p
line ar
Ġlim e
rast ructure
ĠCyc lo
Ġfa ecal
ĠMark et
Ġcomplement ary
Ġcot ton
Ġpam oate
s low
ĠM os
ĠN H
ĠO regon
Ġsmall est
Ġcalc it
ĠChlor hexidine
ĠEr g
Ġmill il
Ġmycobacter ia
Ġcontem porary
ĠNum erous
ĠSU LT
havior al
E x
h r
i aceae
ĠP ra
ĠD rowsiness
ĠM olecular
ĠW ales
Ġbi ore
bo ard
ĠEx ercise
ris es
Ġdetermin ation
throm botic
Ġproc ainamide
ĠCand ida
Ġp ad
am ole
Ġal ters
ap ar
Ġexc itation
Ġrespon siveness
chlor othiazide
Ġdesign s
Ġair ways
eff ectiveness
ĠUs ed
an ate
le renone
oc ol
ĠE lim
ĠN ight
Ġep lerenone
of t
ĠCon ference
Ġserious ly
Ġmild ly
Ġspecial ist
Ġsinus itis
Ġexem pt
Ġinstruc tions
Ġdisinteg rating
ĠElev ated
or in
Ġf ructose
ĠA BC
se iz
ch ym
Ġrem edy
Ġfl ight
ĠLe on
Ġsw ollen
Ġri ver
Ġstere oisomers
brand ed
Ġfa ith
ĠCB T
Ġnurs es
bet a
Ġdisproportion ate
ĠSex ual
is tically
Ġp arest
os ure
ĠC lear
Ġst arch
ĠF o
Ġdis per
art ing
Ġhy g
Ġfib rob
Ġfever s
ryst all
ĠMan agement
Ġadoles cent
Ġrecombin ation
Ġcephal osporin
ĠSout hern
Ġdecom position
Ġbiof il
Ġbol us
p oor
u its
al f
Ġm arijuana
ĠC re
ĠM P
ĠM irtazapine
az a
ob azam
omp ression
Ġmodi fying
Ġrestric t
ĠNA C
ĠDoc tors
ondyl itis
C a
s ignificant
v ae
Ġo mega
Ġre dis
il a
ĠC ocaine
ĠB uccal
ĠAd en
cent ury
drug s
otrop ins
Ġbronch odil
amb da
Ġbenzyl penicillin
Ġdyn amics
Ġveterin arian
m erc
ly s
ab ain
ri f
ain s
ĠB r
ĠL und
Ġim ported
ĠR AN
ĠAs soci
Ġloc us
rist ine
Ġmag azine
ĠOb st
ĠSed ation
Ġposts ynaptic
Ġd uc
Ġl avage
ĠS H
ĠF u
Ġne o
ult ing
ater gic
de g
ĠAl prazolam
Ġbronch itis
Ġsil ent
OH PC
Ġexception ally
Ġty ramine
ĠBer lin
Ġisot ope
Ġadvertis ed
Ġsaliv ary
Ġlongitud inal
A CTH
Ġc row
ĠM r
ĠM ir
ĠB rown
ĠE S
ĠO hio
Ġen comp
ile t
amin obenz
Ġgener ating
Ġdist ances
Ġear ned
Ġfail ing
Ġshort age
ina emia
ĠAccording ly
ĠRec re
Ġthi ol
Ġclin ician
Ġpartners hip
ĠSter ling
veti racetam
0 8
B R
r ison
or able
Ġf umarate
ent yl
ĠI CI
Ġpro of
est rian
ĠB upropion
ĠG LP
Ġunder w
Ġfl ies
ĠOx ygen
Ġfatal ities
Ġsympathom imetics
Ġeosin ophilia
Ġantis eptic
Ġpim ozide
w as
} =
ro vir
ay a
Ġdi p
ĠR OS
Ġk in
Ġanti di
rim idine
ĠSub cutaneous
Ġaccum ulated
Ġlymph atic
Ġult r
Ġvirt ual
Ġail ments
p o
Ġs ap
ĠP ier
ĠG L
ĠAc tion
ĠWhe ther
Ġfarm ers
ĠExcre tion
Ġexplicit ly
ĠAlf red
H odgkin
P l
Ġac up
Ġst ays
ĠM g
ĠM agn
ch oline
Ġdis posal
Ġmod es
Ġcontain er
Ġfl ap
Ġcyt otoxicity
Ġerec tions
ĠNM R
math rm
Ġlipos omal
Ġalleg ing
ĠGre ece
Ġdeterg ents
Ġthy roxine
Ġimmunode ficiency
Ġdisqual ified
omencl ature
G L
g ment
he art
or ption
ar u
Ġto ur
Ġh omes
ur ys
ĠN ore
ran ch
Ġres ur
ath on
Ġdec ont
Ġfunction ality
Ġcle aved
Ġtoxic ities
Ġstom atitis
aps es
Ġintern ationally
Ġsum mar
gluc ose
Ġclim ate
Ġpurp ura
I U
Ġl osing
Ġbe ef
Ġde hyd
Ġab ortions
ĠV iv
kin umab
ĠPro vid
Ġnit roglycerin
Ġsuc ralfate
cl amide
Ġemer ge
ateg ory
Ġmut ated
Ġden gue
Ġneural gia
Ġparaphil ias
Ġunnecess ary
o es
ĠD am
ĠL anc
Ġbenz oyl
Ġpsych ologists
app a
atis m
Ġphysi ologic
Ġinterest ed
ĠAdv anced
ĠVol ume
Ġsarc oma
Ġmicrotub ule
Ġtraff icking
iben clamide
Ġo le
ol ym
Ġl umb
ĠS LC
od opsin
Ġmed al
Ġeth osuximide
Ġdisc arded
ĠCons ider
2 50
Î µ
Ġt all
ent hal
ul ins
ĠS K
ĠIn hib
ĠD onald
Ġr ated
Ġse rendi
Ġsh oot
ĠW eb
Ġret rie
Ġrest less
Ġref lecting
Ġdri vers
amb ers
Ġorg asm
Ġorigin ating
Ġanaly tical
Ġbil ateral
ĠED TA
Ġpeptid oglycan
Ġton nes
ĠAssess ment
ludro cortisone
G erm
u tious
Ġt ur
ĠT SH
ĠP op
ĠD ark
ati dine
Ġmix ing
Ġprov oke
Ġacetyl salicylic
Ġdoub t
Ġtranquil izer
Ġpsychostimul ants
Ġspot ting
Ġeukary otic
Ġfra ud
Ġforens ic
Ġdistill ation
ĠDai ichi
D a
Î ½
di b
Ġv oiced
ĠP u
Ġass istant
Ġtrans duction
Ġsec ure
Ġj unction
Ġgene tics
mit ting
chlor oquine
Ġsubj ected
Ġmicrob es
Ġcompet ing
Di ane
yal gia
ĠVacc ine
ð Ĳ
Ġh rs
op athic
Ġle an
ĠN ote
ap ing
Ġanti diabetic
co ital
ĠCO PD
âĪĴ )
Ġtradi tions
Ġcop ing
ĠHydro x
Ġbott les
Ġvehic les
ĠRen al
amy dia
Ġambul ance
orti oxetine
Ġglutam atergic
m atic
as ert
ĠS V
Ġha pl
Ġint ent
Ġint oler
Ġab normally
Ġsp onsored
Ġpres umed
eth amine
Ġ6 50
Ġpost coital
cl osed
uron ic
Ġâ ĩ
Ġeng aged
Ġopp osition
Ġneur itis
Ġadvoc acy
sec ond
Ġrelaps ing
riz ona
Ġphe ochromocytoma
ĠLit tle
fortun ately
' )
s ch
er ge
Ġd angers
os itis
ĠT ac
th is
ag olix
ne red
mon d
Ġpol lut
phen azine
pro te
ĠLe ban
sc ill
Ġaden ocarcinoma
Ġliv ed
Ġden at
Ġincorpor ate
Ġemphas ized
Ġvill age
ĠPac ific
ĠDiab etes
Ġciti zens
P L
h ang
ab y
Ġ1 10
ĠB irth
co tic
Ġcar p
odi ol
ĠÎ º
ĠFood s
Ġback bone
Ġgain ing
Ġbot tle
Ġhemat ocrit
ĠMi ami
mis sible
Ġin ositol
ĠT ric
ĠI l
ĠIn vestig
ĠR as
ĠO est
ast in
Ġam el
Ġbi otrans
ethyl ated
ik acin
Ġyield ed
Ġbus ulfan
Ġbat ch
erves cent
CS F
termin al
G y
Ġp ull
or ial
ag er
ag onist
Ġapp ar
ĠO bs
Ġimp rison
ule pin
ĠY ou
ĠAll ergy
cycl idine
Ġlif es
Ġadhe rence
Ġtransl ated
hyp no
Ġdysp epsia
ĠA rizona
ĠH ill
hen amine
Ġco vers
00 1
Ġrec ons
ĠK ap
ĠNew er
Ġbo oster
Ġbre aking
Ġhyd raz
Ġtin y
Ġchromat ographic
ĠRous sel
el a
Ġtreat s
ĠG HB
az an
Ġob taining
PA R
Ġ9 4
irm ing
Ġlar vae
ĠRel ative
Ġsong s
ĠAcetyl cysteine
Ġmethylx anthines
f ri
p ain
u ador
ov entilation
Ġsulf a
inc us
raph y
occ ur
Ġown ers
Ġirrit able
Ġhom ologous
Ġcough ing
ĠEr n
ĠNicot inic
Ġuncon jugated
Ġmarg inal
unic ip
n als
us ters
ent ech
ol t
om ib
op es
Ġst ear
ĠP Rs
ĠP incus
ĠH E
ran ous
ion yl
Ġinf est
ĠW u
Ġam id
ĠAs corbic
Ġrest oration
ES S
Ġdetermin es
Ġban k
ev ity
Ġelic it
Ġment ally
Ġinterpre ted
i ote
Ġre ticular
ul as
ĠM ild
ph atic
Ġli es
ax ant
Ġflu x
Ġpsych otropic
Ġdepend ency
Ġcho ices
Ġinactiv ate
Ġcouns el
Ġeditor ial
memb rane
ĠElim ination
ĠRAN K
O SH
Q u
i ology
in oic
Ġn emat
ĠC old
af en
Ġ8 3
Ġwhere by
Ġfac ed
Ġpal m
Ġsem inal
asc ulinization
Ġviol ation
Ġemphas izes
Ġintr athe
ĠEc uador
ĠOverd oses
P s
in osis
Ġp ads
Ġe favirenz
ĠH RT
ĠL C
ĠG as
Ġco valent
ĠTh rom
vers us
Ġdem ands
Ġexpl oring
Ġmyel oid
Ġfa eces
ĠNot ably
ĠIsra eli
Ġmess enger
Ġwa velength
Ġration ale
d in
f atal
ib osyl
ĠL ast
ĠG lyc
Ġen joy
ym et
ov ak
Ġconcent rate
Ġcardi otoxicity
Ġremain der
Ġapplic able
Ġneurot oxic
Ġseem ingly
prom oting
Ġpolymorph isms
Ġplasm ids
Ġarsen ic
Germ any
g els
y an
ar ticular
ĠT rig
ĠB L
ort on
Ġmod alities
ĠAd alimumab
requ ency
ĠIm mediate
Ġexamin ations
ĠGene tic
inhib iting
l ist
Â ±
à ¥
Ġo scill
Ġl ights
Ġl operamide
Ġpro gen
ĠO k
Ġcl io
te rest
Ġless en
Ġaccomp any
meth oxy
Ġpool ed
Ġord inary
Ġclio quinol
h orm
ĠF ox
Ġde aling
ok inase
hyd ryl
anti le
rot on
Ġfat s
Ġstate ments
Ġdry ing
Ġemo tionally
ik a
Ġhaz ards
Ġsyring e
Ġepig ene
Ġumb ilical
Ġspastic ity
o al
on ine
Ġs a
st ock
ow a
el in
ag est
Ġdi pl
Ġcl itor
Ġco enzyme
Ġinter con
lic e
ĠV EGF
Ġdef ine
ortic osteroid
Ġfil tered
Ġprob e
ĠLev odopa
Ġampl ification
spir onolactone
Î ¿
Ġc ath
Ġb ismuth
Ġf ellow
ĠIn teg
Ġim atinib
Ġgener a
ond er
Ġcol ic
inol ine
Ġsubstit uent
Ġcorrel ate
Ġhab its
ĠZol linger
El lison
Ġfibrom yalgia
f loxacin
t et
on us
us ers
Ġth irst
Ġwh ites
ĠB arr
vel le
Ġhyp otonia
olog ics
Ġrest ored
Ġenh ancer
Ġoxygen ation
ĠRap id
Ġphenothiaz ines
Ġâĩ Į
+ .
r aries
s ug
Ġs irolimus
ĠS ear
ep tive
ph ia
Ġam lodipine
Ġconc rete
Ġhy ste
Ġdil uted
Ġcust omers
ĠTra uma
ĠCycl ophosphamide
Ġlangu ages
Ġarth rop
Ġborder line
Ġalve olar
Ġamel ior
Ġp uncture
ĠB AS
Ġsp an
Ġen forcement
Ġext ends
Ġend orsed
Ġindi genous
Ġhyper thermia
omet er
Ġâ ĭ
Ġ193 6
Ġinser ts
Ġheter od
ĠBudd h
Ġneutroph il
prof it
fam ily
deg ree
Ġp em
ot ecan
Ġbe at
rom at
Ġsh ut
and estine
Ġcl osing
ind ep
Ġpos itron
ital in
Ġca utious
Ġmel phalan
ann abin
ĠBio availability
Ġhemat opoietic
Ġgon orrhea
link ing
Ġstiff ness
Ġepidem iological
Ġthorough ly
E s
T estosterone
o ured
Ġb aking
ĠS ignificant
ĠB acillus
Ġcl or
ĠK aw
Ġlong est
ĠPh ot
Ġ18 95
Ġhypot heses
ĠMin or
ĠPark er
ĠMeth amphetamine
Ġtired ness
D M
Î »
ol is
ad inone
ĠN urs
Ġph age
Ġher bs
Ġhem odynamic
be an
Ġkil ogram
Ġconform ations
Ġverteb rates
Ġcigaret tes
Ġsham an
Ġconstric tion
inth rop
adel phia
f omycin
m ers
t te
id yl
ater n
Ġfl oppy
Ġret urning
Ġdel usions
Ġcarb amate
Ġvag initis
ĠAcc ord
nit rophen
ĠPhenyl propanolamine
Ġprogn osis
ĠMant oux
seiz ure
2 000
Ġb ull
Ġf un
Ġl ansoprazole
ig a
ĠIn hal
ĠM odi
Ġen oyl
Ġinter rupt
Ġdevelop ments
Ġfol k
Ġhyd rated
Ġdelay ing
A Ch
Ġby product
ĠD ial
Ġun affected
eth iazide
Ġrel atives
ĠAm az
ĠPharm acy
Ġver bal
Ġsynthesi zing
Ġfem oral
Ġcommun icate
asion ally
ĠChem ie
Ġpsychiat rist
arg ine
Ġhippocamp us
ĠMean while
odec yl
. '
A min
a ur
at est
Ġg ang
ĠP EP
ĠD ub
ĠM ah
yl line
ĠN asal
Ġpre menstrual
Ġcl andestine
rop ip
ex posure
Ġinv alid
Ġmal n
flu oper
Ġintern et
Ġuter o
Ġdisp ensed
ĠRed uction
Ġpi eces
Ġker atitis
ti ficial
Ġs ister
ĠM uc
our ce
Ġdep artments
Ġsystem ically
ax y
hem e
Ġgast ritis
Ġvarious ly
Ġconstit uent
Ġreflec ted
Ġcorp us
. [
m olecular
s ell
w hel
Ġs ne
Ġs orb
ro ke
am ivir
ĠS ix
Ġex am
ud an
ud ate
ole mia
ob lastoma
Ġme g
ĠAl pha
Ġnucle ophilic
ĠEm p
ĠRec omm
Ġaw ake
Ġuni verse
Ġnan ot
Ġhemat ological
Ġcapt opril
Ġration al
Ġjour nals
Ġfluct uations
M ethyl
Ġt ank
Ġthe orized
Ġp aw
at ran
os om
ter on
ĠS ports
Ġal anine
ad in
Ġli able
Ġsu ed
ile y
erv ing
Ġatt ach
Ġorig ins
ĠEst rad
Ġpoly ketide
Ġparas ympathetic
Ġhome ostasis
Ġpay ing
Ġhus band
ĠLeban on
1 20
H e
Ġs ides
Ġin ver
it ching
Ġd yes
Ġre tic
ep tid
ĠP I
ĠH arr
ĠL y
Ġend ocarditis
ru ly
Ġcap ability
androgen ic
icyl ate
Ġenter ohepatic
ĠIniti ative
ĠPhil adelphia
ĠHind u
ĠDani el
M yers
t ail
it rate
ac a
ĠC ognitive
Ġex ceptions
ĠF us
Ġra ces
Ġprevent ative
Ġiniti ating
Ġdoc etaxel
ĠBec k
ĠDe an
ĠGl ut
Ġmas c
ĠLabor ato
gy i
ĠCombin ing
Ġolig onucle
top ical
Ġreferen ces
ĠFul ler
Ġresusc itation
Ġsumm ary
Ġambigu ous
ĠUk raine
Ġunmetabol ized
H g
j ust
m as
Ġb it
Ġm ax
ra min
ut ations
Ġv ib
ĠN ative
ark inson
ane y
Ġsubstit utions
Ġbuild ings
Ġphosphor yl
Ġport able
Ġaggreg ate
former ly
Ġserendi pit
c ost
Ġbe er
ĠSc ale
Ġthrombo tic
Ġrh odopsin
Ġweap ons
amo eba
indep endent
c ision
Ġcl ofibrate
ast y
ond s
Ġacet anilide
ĠAc tiv
Ġâ ģ
Ġleg iti
ĠIs l
Ġradi otherapy
ĠBl ue
Ġcris es
Ġelong ation
C max
h ome
Ġt i
Ġs ati
al gia
ĠT un
ĠT ax
um s
Ġv ine
ĠD rin
Ġdi benz
te enth
Ġelim inating
Ġtr ich
Ġsugges tion
Ġcri tics
Ġconsist ed
Ġnar rative
Ġlen gthen
Ġbup ivacaine
ĠÏ Ģ
Ġautom ated
Ġshamp oo
Ġc rypt
ul ent
ĠA th
ĠD anish
ĠO per
cy an
rogen ic
Ġdet oxif
Ġvag al
Ġhem isp
Ġantagon izes
Ġov aries
Ġoper ated
Ġreason ably
lus ivity
Ġple ural
Ġjus tified
oderm a
Ã¶r gyi
ĠSz ent
Gy Ã¶rgyi
B G
K D
Ġd ating
ĠS A
od on
ad on
ĠH air
Ġsp ons
and ro
Ġover whel
Ġcons ecutive
Ġwor n
str ong
Ġext r
aly zed
leg ia
Ġdext ror
Ġdissol ves
ĠSer otonin
Ġcamp us
Ġlin ks
Ġveget arian
Ġwat ers
Ġdelib erate
ĠCarol ina
B arr
W e
Ġf lora
id enti
id ym
Ġas h
ĠI X
ĠW ild
Ġunder way
hes ter
Ġdef ib
Ġtr uth
Ġtub ules
ĠDis continu
Ġspe aking
ĠAL DH
Ġphilos ophy
scorb utic
Ġunsuccess ful
e en
f our
m ay
u ximab
y x
in ois
Ġp ending
Ġb userelin
il ty
res istance
ant he
Ġch ocolate
Ġun pro
Ġreg ister
eric an
Ġfund s
Ġwr ite
Ġnation wide
Ġhypn osis
Ġappar atus
Ġc ups
it ates
Ġw itness
ĠP rel
ag liptin
ĠN S
ell er
Ġen velop
ult ural
Ġhyp erglycemia
Ġtrans genic
Ġdist rict
ĠMet abolites
cyc lic
Ġbre eding
ĠPen icill
Ġvasodil ator
ĠWil son
Ġgly cemic
Ġargum ent
ĠObst etric
ĠRecre ational
o tional
in avir
Ġb ubble
ol an
id on
Ġth row
ri valent
Ġdis aster
Ġris es
ĠRes pon
go ti
reg ulate
Ġrelax ed
Ġepid erm
ĠPharmac ology
Ġexperiment ation
Ġsqu amous
Ġhyperp rolact
Ġafford s
it ure
ly wood
et omidine
ĠR ac
Ġass ign
Ġso ul
Ġacet onide
Ġnit rates
Ġ14 0
Ġdil ated
ĠInf requent
ensiti zing
Ġasc ites
pat ent
Ġspecim en
Ġhypox ia
hydroxyphen ethylamine
Ġrear rangement
Ġvar ieties
Ġth igh
am te
op ter
Ġphys ostigmine
Ġcap abilities
int roduc
aw are
Ġconclud es
Ġcompan ion
with out
Ġconcept ual
Ġredis covered
l ater
os ome
ĠT ar
ĠT rade
un orubicin
Ġhe lix
Ġgroup ed
ili ar
Ġreve als
Ġcolon y
ĠDH A
ĠBen ef
Ġilleg ally
Ã¨ re
ĠMyc oplasma
m its
ic an
ul ous
ĠS aint
Ġse vent
Ġcl one
Ġco al
ob s
lement ation
Ġbuild up
Ġalter ation
ĠPa ren
Ġbat tery
ĠSpec ific
Ġcis apride
cha emic
ĠQue en
oprote ins
Ġexplos ive
hydroxyp regn
. ;
n ov
Ġh ope
ĠS I
ĠM aximum
qu ine
ĠF AD
ĠN ap
ĠR im
ox ine
Ġbl ister
Ġele ven
ensi tis
methyl phenethylamine
Ġprov ince
Ġamin es
Ġmar tial
Ġtrim ipramine
ĠâĢ ĺ
ĠPl ay
ĠPol ish
Ġmerc aptopurine
Ġodor less
Ġdepos its
ĠDiv ision
ĠIll inois
Ġatheroscler osis
b b
Ã º
Ġc rus
ĠS ep
ĠS tern
th ree
res is
Ġch ambers
gen erate
Ġen ema
Ġexc lusivity
oper ation
orrh oe
Ġimm ature
pot assium
ĠTrim ethoprim
c her
t em
z ers
is opropyl
Ġp ink
Ġl ac
ĠT y
il ateral
ri k
Ġst aphyl
ĠD ie
ag netic
ĠE ug
Ġcomple ting
pro coum
Ġfall opian
Ġelectron s
Ġsymb iote
ĠRoman ia
Ġmacrol ides
Ġdysp nea
Ġdistinc tion
Ġelectroph oresis
inten tional
ĠGrÃ¼ n
procoum on
d ichlor
l act
an on
Ġass ault
Ġ4 50
Ġconcent rating
Ġaddic tions
Ġemploy ment
Ġ190 1
Ġstabil izing
ĠAM PA
Ġmanif ests
ĠLanc et
7 00
M N
c id
n icot
ĠT issue
od ol
ĠM ARS
ĠB ra
âĢ į
io tics
Ġtem plate
Ġparticip ation
ĠFol ate
Ġcortis one
pres cription
Ġrecyc led
Ġhang over
ĠRO SO
Ġdecont amination
5 801
E U
or tium
Ġf aint
Ġh oc
Ġ( âĢĵ
ĠC PR
ĠL av
rop s
eth anol
ĠWh it
Ġcondition al
ĠEm il
Ġdeep er
Ġster il
ĠRel ief
Ġampl itude
fluoper azine
+ -
e a
j un
m il
s imilar
ic ular
Ġcon vention
rom in
iz atidine
ally l
oin ting
Ġdef ec
Ġaddic ted
rog rade
Ġinhal ers
ipp ed
ois ons
Ġstere oisomer
Ġeuphor iant
Ġjud ge
Ġot otoxic
Ġchl orm
ĠIr ish
ĠNarco tic
Ġmicrobi ome
Ġsampl ing
Ġfeas ible
opl atin
Ġsemis ynthetic
azan avir
ĠGrÃ¼n enthal
F e
b ell
h t
} ^{
uc as
Ġpro posal
st ance
ab a
Ġsp asm
act or
hyd rom
ĠGen entech
Ġuns ub
Ġmerg ed
Ġbiotrans formation
+ ,
m esis
u ity
Ġe lastic
Ġpro inflammatory
res ent
og litazone
ĠF unction
ub a
Ġaut oin
Ġpo uch
Ġher self
Ġly sis
hal f
Ġalternative ly
ĠWilli ams
ĠTak en
Ġfill ing
Ġduoden um
estiv al
8 00
c et
p atients
an yl
an iline
ĠC is
Ġr aloxifene
yl osing
ĠG in
ill ing
tain ment
til ine
Ġbody build
Ġorgan ophosphate
eti tions
anc ers
cl avulanic
ĠFlu oxetine
Ġspir its
Ġseg ments
Ġendoc annabin
Ġou abain
ol idone
Ġas par
ĠC ategory
ig hed
oc iative
ĠH el
pt y
Ġrec ruit
lu or
ĠK u
Ġexp iration
Ġcor ro
oph obia
Ġaff ective
avail able
Ġnor th
CO PD
Ġcul tivation
Ġshif ts
Ġhypoch lor
Ġawak ening
d ist
s ki
y lyl
in in
Ġt anks
on c
Ġs outh
Ġf ur
Ġf ainting
om emb
ĠT rich
ut o
ĠB ruce
Ġres orption
Ġun approved
cer al
ĠAn xiety
Ġpharmac ovigilance
ĠCl inic
Ġer up
Ġmyocardi um
produc ts
fen adine
Ġpolyp s
ĠNI H
Ġarthral gia
p rob
he ro
ac le
di rected
yl l
ĠH S
ĠO cean
ĠJ o
ĠK etamine
Ġsulf ide
rot ection
Ġeryth ropo
Ġoccup ation
Ġdeb ated
Ġencoura ging
Ġmess age
alcohol ic
on ol
er ated
as i
et a
Ġas ide
ĠA Z
oc omel
si ties
res ulting
ĠF ac
ĠUn common
Ġlong evity
Ġprot ects
inc tion
Ġnerv osa
gre en
Ġstem s
Ġtrac king
Ġster ic
ĠAg ain
Ġcut s
Ġexec uted
ĠAMP K
NI CE
uraz olidone
Ġreabsor bed
Ġleaders hip
r ut
ost ril
Ġover c
Ġinj ect
ĠFor ward
Ġseem ed
PC R
Ġneuro de
Ġcamp s
Ġparox ysmal
ĠEvent ually
ĠEval uation
stanti ated
Ġfaecal is
ocomel ia
d ys
Ġt ell
ro gesterone
ĠP rometh
Ġpre treatment
ĠK ef
Ġstr ing
Ġbreast fed
NA D
Ġshort est
Ġdys lipidemia
ĠCon f
Ġrib onucle
Ġadjust ing
sulf amethoxazole
Ġdistinc tive
ĠBul g
Ġadduc t
Ġdress ings
e em
p ent
Ġt ruly
ĠA ud
ĠP atric
ĠG MO
Ġsp aces
ost om
Ġun reli
ĠJ en
ĠSt at
Ġph ocomelia
ĠAn alysis
Ġpotenti ated
ĠHe re
Ġperform s
rit ory
Ġrun ny
Ġhydroly sed
tri ene
Ġoccasion al
Ġdead ly
Ġprompt ing
NE TE
ĠSecret ary
ĠTP SA
Ġgraf ts
Ġarchitect ure
b reast
d osage
g rastim
Ġt ib
Ġn omenclature
ĠI p
ĠC ot
ĠN T
cy ano
ĠUn it
Ġsyn cope
Ġtri oxide
Ġbeing s
yn ova
Ġnecess itating
Ġfluor ine
Ġhallucin ogen
Ġdeb il
Ġfoot ball
Ġiso enzymes
ĠKe y
Ġobst etric
f olic
Ġd ermal
us sis
ĠS till
Ġinc ap
ĠM echan
ĠB ow
Ġsp ondylitis
Ġrec irculation
ĠUn fortunately
arb amate
Ġla und
iter rane
Ġanat omical
Ġcoating s
ref lex
Ġank ylosing
Ġventric le
def ined
Ġansw er
ĠCamb ridge
esare an
o A
Ġto lu
ĠC orticosteroid
ĠD y
ch ron
Ġspec ulation
ĠAl k
Ġchild birth
Ġ7 6
Ġcharacter ised
Ġpy ridine
Ġindust ries
Ġplate au
Ġtermin ated
Ġenti ties
Ġutil izing
ĠUs ually
ĠHydro cortisone
ĠHal f
Ġpil ot
ĠNarco tics
amte rene
Ġunsub stantiated
G nRH
g ill
h id
re b
Ġs el
at an
us sive
Ġis opropyl
ĠT ogether
Ġ1 30
ĠB ic
ore lin
ost atin
ros terone
Ġpharmac ologic
ĠZ inc
ĠIm port
Ġtranspor ting
olytic a
Ġinternal ization
Ġrelig ion
Ġquar ter
Ġgenital ia
ĠGold en
Ġt urning
Ġg over
ep er
ĠP atient
ĠE u
ĠE very
ell agra
Ġapp ointed
Ġk ing
ĠW here
Ġsc ales
Ġnit rite
Ġret rograde
Ġmac rogol
Ġens ures
ĠPres cription
Ġcolor less
Ġrev olution
ĠMon itoring
Ġbring ing
Ġdiss em
Ġpes ticides
Ġconjunctiv a
yg d
enedi one
Ġreag ent
burg h
Ġdeform ities
h ar
m ain
ot ence
st one
ĠU pper
Ġsh allow
ĠO CD
ĠV omiting
azep ate
Ġfact ory
ĠRe action
arr hea
ura tive
Ġaden ylyl
ĠMan nitol
Ġreproduc e
sh ort
Ġrevers es
Ġstabil izer
lev odopa
Ġdisin hibition
Ġcred it
ĠLew is
I m
ti ble
Ġb a
Ġd oxylamine
us al
il im
Ġv aric
Ġinc ome
ĠM T
ute x
Ġox androlone
Ġdifferen tial
Ġbar riers
ercul ous
Ġlib raries
Ġhom olog
Ġdirec tions
Ġdraw ing
Ġali en
ĠJust in
Ġteac her
ĠNaz i
omemb ranous
" :
st ay
Ġv ice
Ġhe ard
ati bility
ĠSt ock
Ġcar riers
Ġprim ate
19 60
ages ic
Ġlev ometh
Ġpow ders
Ġmouth w
Ġelev ate
ĠSur vey
Ġerg osterol
ĠId enti
Ġdepic ted
on orm
Ġw rink
ĠC oma
red ict
ren a
Ġcomp rising
Ġsh aring
Ġpres ervation
ov is
DA T
elf are
20 14
adi um
Ġlymph oblastic
hel m
Ġphosphor ylated
ĠPsych ological
Ġoffic er
Ġlis uride
Ġtrigger ing
Ġball oon
orad o
weg ian
Ġunderw ent
Ġm apping
ul ine
ĠH au
ĠG ir
Ġcl over
de oxy
pos ing
Ġimmun ocomp
Ġmy dri
Ġpoison ed
Ġsee ing
ĠMeth ocarbamol
Ġchallen ged
bacter ium
Ġterat ogen
Ġbot an
Ġstrand s
develop mental
Ġalleg ations
Ġintrav ascular
ĠLaborato ires
c itabine
p oints
Ġc ros
Ġd ent
ul ism
Ġcardi ogenic
Ġbio active
ira b
Ġlength s
Ġspread ing
Ġpredict able
Ġgon orrhoe
phth ous
Ġdiaph rag
Ġgonorrhoe ae
m ut
r ys
am ents
Ġbe an
ĠV ag
ĠV enezuel
Ġj e
Ġcarb ons
Ġdef ines
Ġbar s
open ic
Ġinterest ing
ocyc lin
ocal cemia
Ġqual ified
ĠKore an
Ġchron otropic
ĠCE O
ĠSER T
ĠOrig inally
Ġpericardi tis
Ġconfound ing
ĠTok yo
W oman
Ġp ector
Ġd ream
Ġfor b
ĠC reat
Ġac hes
ĠP ABA
ĠH ous
hen g
ĠN ature
Ġsp a
ost omy
Ġun intentional
the l
ron iazid
Ġdet rim
Ġsulf one
ode oxycholic
Ġidenti fies
Ġanxi olysis
Ġnat ri
oles ter
ĠRep orted
Ġpropor tions
Ġemplo ys
equival ent
Ġantiret roviral
omagnes emia
ĠâĤ ¬
Ġserendipit ously
F O
G ERD
z i
Ġs hed
Ġf oss
ad rox
Ġres umed
Ġcar nitine
tis ol
Ġox ime
Ġext inct
Ġ10 4
Ġprot racted
hydrox ym
Ġfil ters
ĠNor wegian
Ġtran examic
ĠBi ology
oti fen
Ġconvic ted
Ġlumb ar
I g
in als
Ġin version
Ġb ud
yl ind
Ġcan ine
Ġcomp etes
Ġsp ac
Ġco un
Ġco operative
Ġdec e
rac tions
Ġgl argine
ĠCh ol
Ġlo ose
ĠAb use
ĠGABA ergic
Ġpremature ly
ĠQuin idine
B io
Ġp pt
as aki
Ġe ut
id ium
os i
ab dominal
Ġst orm
ĠG ab
ĠG ile
Ġchan ces
Ġprost atitis
hydrox yn
Ġsequ ential
ipher al
Ġplac ental
Ġenl ar
Ġcontamin ants
Ġsatis factory
Ġsecret ory
Ġeosin ophilic
Ġtumour s
Ġteac hers
ĠTurk ish
Ġepigene tic
w est
Å «
Ï Ĥ
ã ģ
Ġint e
ĠR om
ĠJ un
Ġreceiv es
Ġsubcutaneous ly
ĠEm pty
Ġminor ity
Ġclean ers
Ġsuff ix
Ġod ds
oxym orphone
ĠConsum ption
Th is
Ġsilic one
Ġrene wed
Ġirradi ation
ĠFore st
Ġacup uncture
9 00
d et
d ate
Ġm unicip
Ġd ressing
ur ate
ri fic
Ġbl end
ip ex
ĠTh ird
ĠPro ger
Ġir rig
ĠAb normal
Ġfluor ouracil
Ġquin olone
fav orable
some times
Ġpector is
S I
r ically
Ġo live
an ib
Ġf ulf
Ġh oles
ĠC orn
ĠM ig
ĠF ever
Ġdi acetate
ĠO z
Ġser ial
Ġdes ensitization
Ġindivid ually
Ġnit rile
most ly
Ġcereb ellar
Ġprin ted
ĠBe yond
Ġgonad otropins
Ġunp redict
ĠEg yp
appro ximately
Ġapprec i
Ġunreli able
R R
c irc
â ģ
en em
al ep
es ters
an esthetic
ĠC ade
ep ing
ĠE N
Ġun covered
ne x
Ġph thal
Ġinter change
ĠV el
ĠFor te
Ġprog ressed
Ġtechn ological
ĠRe le
ĠCom ics
aps ed
Ġste am
Ġchron ically
ĠPE G
Ġanticip ated
nitrophen ol
Ġautoin ject
" âĢĶ
P EP
Ġa rose
Ġc GMP
ĠI GF
ir rit
ĠC italopram
ĠC iclosporin
ĠThe rap
ĠS ales
rom ised
ĠH CT
ore al
ak u
Ġcl usters
ress es
Ġexp anding
Ġdet achment
Ġlim itation
Ġobs erve
Ġhist olytica
Ġcyt oplasmic
lab oration
eph rine
ĠAv ail
ci pl
Ġmur der
Ġhind rance
ĠSl ovak
hydrin ate
osy stem
8 6
u ters
en tion
al i
it arian
Ġw ax
as ma
Ġh it
Ġn ord
ĠC hest
Ġse es
ĠTh or
par ts
Ġgrow s
ĠEn domet
ode grad
ĠAct avis
Ġion ic
ĠTe am
Ġreinfor cing
ĠIncreas es
Am erican
ecyc line
Pl ough
alep lon
r ong
t ric
t rig
Ġa phthous
Ġe qui
im id
Ġex agger
Ġat azanavir
ĠL ud
ĠAm ph
Ġj elly
ĠCon n
Ġsw ine
gu ard
ĠLev ofloxacin
Ġground water
onat ate
ĠAnt agon
Ġregul ator
ĠEqu agesic
role um
Ġho ok
omyc etin
Ġsout hern
Ġlax ative
Ġcertific ate
Ġcamer a
H ex
N ov
y ramine
Ġs end
ol ation
Ġn izatidine
ĠT urn
Ġcon ceived
oc ate
ĠM eclizine
ĠN om
ran ged
ox ycodone
Ġele mental
inc ing
ĠAll en
Ġeas tern
Ġprin ting
Ġleuk ocytes
Ġsens ors
ĠSal v
iet in
ĠProl uton
Ġnarco tics
ĠAv oid
ĠCB D
Ġtransl ocation
ĠMul ti
Ġbelong ing
Ġeat en
opy ramide
ĠHung arian
ĠAx el
Ġvasopress in
ĠDos ages
D R
S ah
V TE
an er
ul ator
am yl
ĠM iltown
ag range
ĠE pi
Ġper cutaneous
Ġlab s
Ġpo isons
app ed
Ġdext ropropoxyphene
Ġsens es
Ġhepat ocytes
Ġcoron avirus
iper idone
Ġdu rations
Ġstic k
ĠManufacture rs
Ġmephen esin
ĠAgricult ure
Ġvinc ristine
Ä «
in ent
ro tiline
Ġg am
ig litazone
Ġac iclovir
ĠR aney
Ġinf liximab
Ġinf rastructure
our s
Ġdec ide
ans erin
Ġpain kill
Ġsm oked
Ġindic ators
Ġ9 00
ĠNe uros
ĠAcc ess
Ġmale ate
ĠPC P
Ġtermin ation
ĠCons tipation
chem otherapy
ĠDen osumab
ĠEp ilim
Ġtrop ical
Ġinsec ticide
Ġali phatic
ĠWell come
Ġdic arbamate
ĠBAS F
Ġendocannabin oid
p ow
Ð ¾
re otide
ĠT raining
ĠI BS
ĠH PG
ĠF ail
Ġinf requent
per gill
ĠAl b
Ġrem ed
Ġep imer
tit udes
Ġgluc one
Ġref uge
ĠCol orado
Ġrestric tive
Ġbond ed
Ġcaution ed
ĠSyn erg
iat ry
Ġlob e
Ġdeterg ent
Ġfos fomycin
Ġd ense
Ġd omin
ur idine
Ġcl ay
Ġen erge
Ġpl ane
Ġph obia
ath an
Ġaut ologous
ĠAust rian
Ġ194 2
Ġconclud ing
Ġtermin ology
ĠInf ant
Ġdon ated
Ġthick ening
ĠSmith Kline
Ġantioxid ants
Ġlegis l
Ġrect um
ĠUL s
Ġpunish ment
Ġcytos olic
ĠHau pt
b aine
s up
s hip
an im
as ms
am but
ĠM u
ĠB ath
ĠE CT
ill es
Ġ3 50
Ġph aryngitis
ort em
Ġmain stay
inf lammation
Ġguid ed
ĠComp lete
ER S
Ġold est
ĠMod el
Ġexplain ing
Ġlif t
ĠHar ry
Ġexec ution
AP T
Ġland mark
Ġclos er
otal ol
ĠDo ug
ĠPy raz
onel iness
Ġclo ud
g on
w ig
ve x
Ġas k
ĠC e
Ġac ryl
ĠD T
ib a
ĠL in
ĠG reg
Ġinter rup
Ġsc rew
Ġexp ense
Ġamin otransferase
adi azine
Ġmicro ar
Ġdefinitive ly
Ġcrystall ography
Ġunex plained
sex uality
ĠSum mer
Ġatmosp heric
ri ot
ĠP SA
ag iline
ĠB CG
Ġsp rains
Ġ" ...
ap rine
Ġbl ast
oth or
Ġed ges
Ġtr ust
Ġche wing
Ġlink age
mal onate
Ġjoint ly
ifer ative
Ġrefer ring
respon se
Ġchl ortalidone
ĠCorticosteroid s
? "
c le
id ential
ac o
ĠP oisons
ĠE PO
ib an
Ġdem asculinization
Ġdesign ations
vul sive
Ġ193 1
ĠVal ue
Ġscre ens
Ġcul tiv
Ġadul thood
Ġappeal ed
Ġextrem ities
Ġunres ectable
e enth
f ect
Ġin organic
al en
al is
ac rine
ĠT ol
op her
ĠS low
ig mentation
ag a
ĠK ab
gest romin
ens ory
Ġhel minth
.. ..
Ġmono aminergic
ĠSte wart
enzym atic
raf ts
Ġligh ter
Ġdecom poses
var phi
Ġdimension s
Sah aran
k idney
en ol
Ġs av
Ġb if
Ġm u
ly cemic
ĠS G
ĠS n
oc ated
ad ryl
Ġch im
ĠB re
ure au
Ġinf ra
Ġdec lining
sy stem
Ġem bed
ĠCan nab
DH NET
ĠClim ara
Ġmaln utrition
ambut ol
t ran
Ġd entist
ec arboxyl
st rength
ĠC ases
Ġv ortioxetine
ĠM uch
Ġcomp rises
eth imide
oth ane
Ġind oor
ont o
Ġgu ilty
Ġsuc c
ĠQ I
Ġdiagn osing
Ġsl urred
ump ing
ĠDe v
ĠAnti b
Ġrepresent ative
Ġpig mentation
Ġenc odes
Ġarm y
Ġcypro heptadine
Ġautom atic
fac ial
ĠKir k
chlorobenz ophenone
$ $
Ġthe or
Ġc ock
at ropine
ro gest
Ġm irror
Ġn om
am idine
ĠI ran
ĠC ause
ab eth
yl cyp
Ġam ygd
Ġsyn ov
Ġphen formin
Ġmonth ly
for ward
Ġharm less
Ġconfirm ing
ĠDis orders
rag on
Ġenc ode
ĠAst h
ĠProgest ogel
dri ven
Ġglycogen olysis
Ġbiomark er
Ġkin ases
ĠHaupt mann
ylcyp romine
Ġt ape
Ġc iliary
ut ter
Ġpro sec
op les
Ġne goti
ĠAl most
Ġtra ces
ĠAp o
Ġconfirm ation
dic tion
ĠProgest asert
ĠHep atic
Ġ188 7
Ġconven ient
prim ary
Ġundet ectable
ĠBuddh ism
A UC
o hydrate
s ity
re activity
at ers
ac ap
ĠT otal
ĠC V
ĠC ere
ĠS ack
ĠB inding
ĠL ed
ĠR andom
Ġsub mission
Ġcar t
ĠMedic aid
Ġvis ceral
emb ly
ophen olate
ĠCa ucas
Ġalb um
absor ption
Ġatom oxetine
Ġcapt ured
Ġdism iss
Ġweap on
Ġcas ual
ĠSurge ons
ĠJew ish
Ġsuppli ers
Ġimprison ment
Ġâĭ ħ
ĠKaw asaki
Ġm issed
Ġre generate
im in
ri on
ĠP it
ĠP ethidine
Ġphen olic
Ġpred omin
ĠLe uk
ĠÂ §
ras ka
na ud
ĠAg ents
Ġretin oid
Ġanticholinergic s
Ġneurosteroid s
ĠIndust ries
chi ectomy
ĠHein rich
ocic eptive
Ġunpro ven
n ames
en na
Ġw ake
Ġh at
om ustine
est in
ad rine
if en
Ġimp otence
Ġbi odegrad
ex cept
Ġnam ing
Ġmo tivated
Ġsuppress ant
Ġinst alled
Ġcampaign s
Ġdepos ited
Ġwarrant ed
l able
Ï ģ
Ġ ic
ith i
ot oxin
di hydroxy
Ġv ulture
ĠP es
up ro
ĠK im
Ġexp end
Ġev ac
Ġcat abolism
20 19
chlor per
ract ors
Ġarter i
CO V
Ġmac ul
Ġcataly ze
Ġconstit ute
Ġseb um
nor adrenaline
Ġfif ty
ĠWil helm
sex ual
inj ectable
Ġoint ments
musc le
ĠNeb raska
Ġdetrim ental
c dot
Ġt ables
Ġp ras
le m
ut ors
ĠC P
ri ally
yp an
Ġsp ong
Ġsp leen
Ġsu v
ĠJ oint
Ġhyp ocalcemia
Ġreg ression
Ġhuman ity
xim e
ĠMedic ations
Ġphosph atase
Ġpolym eric
Ġemb ol
Ġgrad uate
crip ts
Ġexacerb ated
Ġsurround ed
Ġexceed s
Ġantihyper tensives
Ġbiot echnology
Ġhous ing
Ġparest hesia
ĠClear ance
D E
l gestromin
r h
in stein
Ġm irab
ĠC ory
ĠH ond
ĠF lo
ĠR a
Ġcl ad
Ġinf antile
iti dis
Ġ5 4
ord ination
av a
tim al
ans as
ĠAn a
Ġ6 9
Ġ7 4
Ġblock b
Ġnore lgestromin
mic ron
Ġantagon izing
Ġester ified
Ġred ist
plant ation
ĠPer ipheral
Ġion ization
Ġdissol ving
Ġerec tion
Ġbioc hem
ato es
ĠPos itive
ĠGluc ocorticoid
Ġreconstr uc
ĠHorm one
ĠFact or
Ġbiomark ers
Ġreluct ance
Ġinher ited
ĠHydroxy zine
Ġsuv orexant
ter oate
di hydrop
el ong
ĠD rey
ĠL ic
ox azine
ĠG rand
Ġsp ending
Ġwhen ever
Ġtrans c
Ġra in
Ġ7 8
Ġant ine
Ġdistrib utes
Ġlo tion
Ġprec ision
Ġmil es
Ġlact ose
Ġmening itidis
Ġprincip ally
ĠSur gical
ĠBen adryl
Ġheter ocyc
ĠLor atadine
Ġarri ved
Ġbrief ly
develop ed
Ġentit led
ĠNal oxone
galact ose
Ġmicrom olar
Ġdihydrop teroate
Ġmicrog rams
otrac heal
e val
ĠT an
ĠC ontin
Ġal arm
ĠE T
Ġle ct
ĠN i
az id
Ġpar ameter
Ġdevelop ers
Ġprot riptyline
ĠComm erc
Ġlog ical
Ġtax a
Ġprompt ly
etal ol
bec k
aryl prop
} ,
Å ¡
Ġ å
Ġt ears
er ion
ine al
ĠA qu
Ġpro ges
ĠC rinone
op tic
Ġal pac
ĠP ower
ĠF c
Ġmet res
ĠG ynec
Ġ3 000
ĠK l
ĠV III
19 80
Ġpart nered
Ġloss es
Ġperipher y
ĠIV F
ĠMeth ods
ĠSal icylic
Ġtit anium
Ġhaem at
ĠRichard son
Ġma ize
T ri
n amed
s us
s kin
Ġc ylind
ar um
Ġth rush
di rect
Ġst raw
Ġdis til
ĠR italin
ox apine
ĠUn treated
Ġph one
Ġcell ulitis
Ġtim olol
Ġsym met
pec tives
orph anol
Ġreview ing
Ġparticip ating
ĠIm perial
Ġflow ers
oxif ylline
Ġtransport ation
Ġlig ase
Ġpack s
Ġantigonad otropin
Ġreli ably
ĠChris ti
Ġemphas izing
omyel itis
E B
N V
S er
e til
f us
j a
Ġf rontal
Ġn ostril
ith ine
ĠA P
ĠP neum
ati d
ys ter
gest in
Ġro c
Ġmy ocl
fici encies
Ġoxid izing
Ġoper ates
Ġharm s
corb ate
Ġdehydrogen ases
reduc ing
Ġquin one
Ġcircum cision
Ġacceler ation
ĠHen le
Ġantiarr hythmics
Ġlook s
ipar atide
ĠUt rogest
Ġnov o
Ġenlar ged
Ġalpac as
) \
V ie
f und
l ambda
Ġt ick
op ride
Ġcomp ensation
Ġpl ates
ĠJ im
amin obutyric
ler y
Ġwork er
Ġcondition ally
Ġov ari
Ġhyd ride
Ġdil ute
Ġdeep ening
Ġuns afe
opharm ac
Ġancest ry
Ġcontradic tory
ĠReich stein
Ġdup lic
) ),
p ired
u els
Ġa fl
Ġh uge
im a
ati zation
ĠR ome
amp sia
PA GE
Ġaut onomy
rob acter
Ġlo tions
ĠPre par
Ġparticip ant
asal azine
Ġglut en
Ġphosphor ylase
Ġconst rain
Ġdisp ute
ĠBro ok
prote ins
C s
i Ã¨re
Ġt ab
Ġh arb
Ġn uts
ĠT H
ĠT es
op aminergic
ay ed
Ġex hal
ĠU N
Ġ19 13
Ġsp un
ific ations
tis h
Ġwhe el
Ġsymptom atology
Ġorgan isation
Ġlev or
ĠX R
lob enz
Ġevery thing
Ġhepat o
Ġmm Hg
RE s
Ġcandid iasis
Ġmicros omal
ĠEb ola
E M
H ydro
ti st
ĠA A
em p
ad al
Ġr as
ĠL ady
Ġrec rystall
ne ed
Ġphen procoumon
Ġrep utation
ĠComm un
Ġbre ach
Ġneurot rophic
ĠFol k
Ġax on
Ġkeep s
ĠDel ta
Ġpsychos ocial
Ġevid enced
Ġisozym es
Ġopportun ities
fri end
lobenz aprine
Ġs ort
Ġp lex
or ice
ec tivity
ab ig
si ze
ĠD L
Ġch apter
ĠN SC
ĠN early
Ġcont ing
Ġse lecting
ĠW id
Ġy ohimbine
Ġval idated
Ġcle aving
Ġconsider ations
Ġ193 2
ĠSystem s
Ġreferen ced
Ġsustain able
Ġphenothiaz ine
gul onolactone
Ġpyroph osphate
A ll
Ġb rach
an xiety
it ous
Ġbe ll
est eem
ĠAs h
Ġvis ited
Ġbioavail able
Ġfib roids
Ġmac ro
Ġmulti pl
aste re
Ġlis inopril
Ġsoci o
ĠEnterobacter iaceae
Ġcleans ing
ĠPaste ur
Ġmirab ilis
+ )-
H PA
ĠT a
ĠP ow
ĠP all
ĠD ak
ĠB ureau
Ġdi astere
ĠL es
iv udine
Ġ" [
Ġreduc tive
Ġinter personal
ĠAl an
Ġcent res
Ġlic ensing
ĠOrgan ic
Ġmig rate
orrh agia
Ġregist ration
Ġmim ics
Ġvascul itis
Ġdisadvant ages
Ġconv incing
Ġannoun cement
mil k
M W
n et
in ces
Ġt rap
Ġs otalol
Ġh onor
ĠA gu
ant e
ĠG a
ĠG entamicin
all ergic
ĠJ ose
tis ts
Ġj ury
Ġsulf oxide
alk ylation
Ġrepresent atives
Ġretinal dehyde
ĠBen j
Ġscar ce
ĠHol lywood
angi ogenic
Ġwa iting
ophthal mia
Ġtransfusion s
niv ores
tez omib
ĠStern bach
iterrane an
D erm
F or
p olar
Ġo l
Ġw ire
as tics
Ġn ights
Ġg arden
ĠP V
qu in
Ġat opic
Ġim per
Ġmon ograph
orph in
ĠPro state
Ġconduc tivity
Ġirrit ant
Ġstri p
Ġthrombocyt openic
Ġarch ae
Ġrect ally
a uthor
b is
Ġre gener
uc cinate
ĠF rus
ĠN ich
tiv a
Ġcancer ous
urop athy
Ġca ught
inc reas
ĠDi et
Ġleg end
ĠMic ron
NT ech
Ġbiop sies
Ġresc u
Ġpref ix
ĠRay naud
Ġallyl estrenol
upro relin
p rec
Ġt read
re sia
ra vir
Ġ( '
op sis
ĠH ug
ĠB eth
iz able
ĠF ire
ĠL ate
Ġhyp erv
Ġmetabol izer
Ġme bendazole
of l
prop amide
Ġrandom ised
Ġoverd osing
Ġdom peridone
ĠMethyl testosterone
Ġmes olimbic
produc tion
Ġmalign ancy
Ġfore st
ĠSulf on
Ġstret ch
ĠFluor oqu
Ġaccompany ing
Ġclor azepate
ĠSalv ador
O N
n atural
Ġ |
Ġp ore
it ations
Ġd ated
ir y
ĠC li
ug s
ĠH PA
ub lished
ĠL yn
ĠW ill
Ġsim ulated
Ġatt or
Ġpers u
Ġdel ivers
Ġcap ill
Ġshe et
Ġnecess ity
ĠNo vel
Ġcycl ization
ĠDel agrange
Ġrab eprazole
Ġinten tionally
ĠCA H
Ġprovision s
Ġspi ke
Ġsne ezing
Ġchlorm adinone
Ġunpredict able
Ġafl ibercept
Ġc inchona
Ġre introduc
Ġn im
um et
ard ens
Ġindic ative
Ġatt ractive
ĠOn dansetron
ling s
Ġoff set
ucle otide
Ġrestric ting
ĠEl iz
ĠInter actions
ĠEC G
Ġheter ogene
Ã¼ r
Ġconsult ation
Ġexplo ited
ĠMus lim
Ġmicrotub ules
ĠPrac tice
- -
Ġc ac
or ol
Ġw atch
ol azone
Ġth ing
am ab
ab el
ĠS ym
ĠP el
ĠD ram
ĠH O
Ġhe el
ĠL ake
Ġfam iliar
Ġcompar isons
entan il
Ġtrim egestone
Ġste el
Ġoptim ization
ĠMal ta
ĠAM L
Ġprogressive ly
Ġjud gment
opress in
Ġemp athy
Ġoverexp ressed
ĠBenj amin
g ans
Ġa irc
Ġth read
od ext
ĠP PAR
Ġon wards
ĠM aria
og raft
ĠF inding
Ġde oxy
Ġcont rary
iv olol
Ġop ens
Ġmal t
Ġpredic ting
Ġput ative
Ġpent obarbital
Ġemphas ize
uro xime
ĠDat ab
Ġmathem atic
ĠIsot retinoin
Ġ rom
al g
ot roph
ĠA PI
ver a
ĠS ie
Ġinc en
Ġwh oles
ĠD in
ĠM Ã©n
og ues
Ġat resia
ch olester
ĠN CT
Ġbi oinformatics
PA C
Ġperiod ically
ĠDi ethyl
Ġpneum ococcal
Ġeng or
Ġagg ra
ĠPot entially
Ġhard er
Ġstain s
Ġsound s
Ġpet roleum
Ġinh A
abig atran
cholester olemia
in ium
Ġh ole
ot o
ĠC up
ig ella
ĠF I
ĠF lus
ure tte
Ġwe ighted
ĠG ame
Ġco inc
Ġsyn apse
Ġsm eg
Ġtra it
Ġ7 1
ĠSe qu
Ġexist ential
ĠDep ak
Ġsuic ides
Ġenter ococci
Ġallevi ates
Ġatten uate
ĠSecond ary
Ġrig id
Ġalumin um
Ġsyring es
Ġglucone ogenesis
Ġin ward
is al
Ġb udesonide
Ġre vision
Ġbe verage
ĠC ast
ub ic
Ġ19 22
lic ulin
Ġatt racted
19 50
ĠMed iterranean
ĠZ y
Ġgu anine
su ing
Ġexpl oration
Ġaccording ly
Ġphosphor ibosyl
Ġwr ites
Ġdaugh ters
Ġharv ested
inten sity
ĠInj ectable
Ġureth ra
ĠAven gers
ĠRespon se
T NF
Ê ¿
Ġp raz
Ġf iction
ĠT ro
ĠT max
ĠN ormal
ĠL ang
Ġne eding
ĠG ro
00 2
ip ril
ĠUn i
Ġover use
ĠSt age
ĠV iat
li er
rel la
ĠAc tivated
Ġweak ened
Ġ24 0
ĠComp lex
Ġcaps aicin
Ġtob ramycin
Ġautom atically
Ġpray er
Ġparamed ics
Ġantidi uretic
Ġblockb uster
ĠViat ris
. âĢĿ
d oor
Ġt rough
Ġt ex
Ġo m
ac on
ĠT ramadol
ĠN at
ph ys
ati zed
az osin
Ġsim ulation
Ġup held
old ing
to o
ann el
Ġren dered
part y
Ġsarc oidosis
rocy te
ĠCyt ochrome
Ġalt ogether
ĠAmin ophylline
Ġpict ure
A p
V i
t art
y el
ĠI so
ĠC M
ĠS at
ast om
ĠK al
edi one
Ġcare g
yle a
Ġlip olysis
Ġsexual ity
ier arch
200 7
Ġdisp ers
Ġadren ocortical
oconstric tion
Ġfight ing
pres ent
Ġbis phosph
Ġthym idine
O M
im inary
Ġcom mented
ĠM ob
Ġat tained
ĠV inc
Ġrest oring
Ġmy orel
Ġinflu ential
Ġgastro enter
Ġbio ass
Ġvas omotor
Ġfacilit ated
Ġpool s
ĠTr ump
Ġrabb it
Ġancest or
Ġq i
fib ro
Ġhyg roscopic
ĠAden osine
Ġvine gar
ĠDrey fus
p red
Ġt ied
Ġd iaz
am an
Ġl aid
ĠC ase
ĠC icl
od ex
ĠB BC
ĠF ant
ĠF itness
ĠL G
Ġsp end
cy t
Ġar ginine
Ġexpos ing
ĠLe o
Ġet yn
Ġflow s
Ġglucuron ic
Ġepid idym
ĠEth iop
carb oxyl
ĠEnter ic
Ġcorrel ates
Ġamph ib
ĠDig ital
Ġreb oxetine
Or gan
Ġdehyd rated
Ġinte rests
ĠSlovak ia
Ġmyorel axant
en ergy
Ġs itting
Ġm ite
Ġre use
os ts
oc ine
ĠE F
ĠF ur
Ġproduc er
ob arbit
Ġexp ed
ĠAd olf
Ġhydro bromide
Ġrep ell
Ġcarb idopa
Ġinst ant
ah u
met razine
ĠPsych ology
inn ers
ĠPaul ing
diab etes
Ġmur ine
Ġrecover ing
ĠAC SCN
Ġadreno ceptor
ĠTi abendazole
cyclop entyl
Ġimmunoass ay
Ġlapa roscopic
ĠCryst al
Ġimmunocomp romised
Ġm sw
as ions
ĠA y
ir ms
ĠR U
az z
Ġrec ompression
ric k
Ġ4 9
Ġmod ule
Ġpo orer
Ġref rig
Ġir is
Ġcomplex ed
ĠPar adox
ĠAb rupt
ĠMet abolic
Ġprolong s
Ġattack ed
hydroxy amphetamine
ĠPhy siology
Ġbot ulism
Ġones elf
Ġpreferen tial
Ġverteb ral
Ġbuff ering
Ġeros ive
conf irmed
ĠMÃ©n iÃ¨re
Ġengor gement
D EA
Ã ł
on z
ol ated
ac les
Ġas king
og aine
ĠH B
ĠE MT
ĠF P
por ting
Ġpe oples
erg oline
rac ts
Ġshow er
ĠNe o
Ġmic roscopic
bl ack
ik es
Ġel agolix
Ġleuk ocyte
Ġhydroxyl amine
mal a
Ġclot hes
ĠBrazil ian
Ġec osystem
rov ascular
ĠChl amydia
Ġveterin arians
ĠNorm an
Ġdrow ning
Ġgynec ological
Ġdemonst ration
ĠHond uras
it ar
ec onomic
ĠI Q
ĠH g
Ġdis par
gen s
Ġen abled
Ġpar tition
Ġtrans human
ond ansetron
Ġqu ota
Ġpers pectives
Ġdef ective
20 13
Ġow ner
gin ning
ĠGu ate
Ġrun s
Ġquanti fy
ĠRob ins
Ġtrac ed
agon ists
ĠLos ec
Ġbag s
ĠEstrad erm
obarbit one
F L
S e
b A
b utamide
Ġc enti
et yl
Ġl oneliness
ow ler
ĠC ivil
op ap
ĠP ulmonary
ĠF ull
Ġcl ones
Ġbl ade
ĠJ ess
ari asis
Ġinter cal
de v
arb oxylation
Ġnon competitive
Ġelect rom
ĠAr m
ocardi al
ĠEs tim
Ġlif ting
Ġdeb ris
gener ally
leb itis
aden osyl
ĠScienti sts
ĠAntic holinergic
Ġliqu ids
ĠEstro Gel
s ensing
Ġthe baine
Ġp od
om o
Ġpro jection
ĠC ephal
ab e
ĠM I
ĠE GFR
ĠO l
Ġun coup
Ġdec a
ect omized
Ġend otracheal
Ġflu oxymesterone
Ġval idity
anti b
ĠCl omifene
ĠSc opolamine
Ġsugges tive
ĠCol l
Ġgrap hene
ĠClon azepam
ĠDil antin
Ġc ope
Ġc ows
al at
ol ide
id en
Ġis obutyl
Ġg lycerol
th alidomide
ĠP anc
ĠP sycho
Ġpar athyroid
Ġeth n
Ġclassi fies
Ġresid ence
Ġregim e
Ġrecogn ised
Ġcounter parts
py rrol
Ġcal ories
char acter
ĠVi agra
Ġdiscover ing
ĠLet ter
ĠClar itin
ĠPrevious ly
Ġile us
Ġtol butamide
Ġlifes pan
Ġth ioridazine
ĠC r
Ġst ature
Ġex ch
ph the
ĠSt ol
Ġass ume
Ġins ight
of ep
ian g
tig ma
Ġtechn ically
Ġdiff uses
Ġsuc rose
reg ulates
Ġcycl ized
Ġlig ation
ĠSal butamol
Ġhapp ened
Ġadhe sive
brom o
igaret te
agu ay
Ġillust rated
Ġsen ior
Ġthiaz ides
Ġlegiti mate
ĠPrel iminary
Ġdece ased
chlorper azine
ĠGuate mala
A I
m atis
o acetate
r athe
y rid
ti dine
Ġin patient
is dom
es an
ol ith
Ġl os
Ġal ive
em an
Ġdis charged
co very
ie val
ĠAm gen
Ġmain stream
Ġfl are
ish ness
ĠPar aguay
Ġpa ired
ik i
Ġmit osis
Ġple asure
Ġcrit erion
Ġerg ot
Ġantit ussive
hep atitis
ĠMil ton
Ġip roniazid
Ġamyl oid
Ġgr ass
Ġduc ts
Ġrecons tit
Ġnanot ubes
ĠLud wig
A B
en ediol
Ġan e
ol izumab
ĠI ce
ĠC ore
od rine
oc ript
ĠB MI
end o
ĠW ADA
ne bacterium
Ġfe els
ĠZ olpidem
mit riptan
Ġte g
Ġstand alone
ĠFran ken
Ġmar ried
uman n
Ġbene ath
med etomidine
Ġretin oids
MAO I
Ġrit uals
enedi amine
pharm ac
Ġstrept ococci
ĠDerm at
Ġintrathe cal
hid rosis
n i
Ġ radiol
Ġt ells
ep s
Ġ2 10
ad minister
ran ts
ĠR T
rop in
Ġper ce
ach ol
li ament
ix ene
Ġext inction
aj o
ert o
Ġreason ing
Ġmono hydrate
Ġtrig eminal
Ġpac ing
Ġanth ra
Ġmanifest ation
ĠUT I
Ġvacu ole
oser ine
Ġcapill aries
Ġsmeg matis
G l
P red
Ã ±
Ġin otropic
Ġis chaemic
am en
ĠE con
Ġbut ter
ĠK OR
Ġro botic
Ġany where
Ġmethod ology
ĠOn c
Ġact in
dis cipl
rog ate
cal ine
Ġcur ric
ocon ut
ĠPan el
Ġsqu at
Ġstay ing
respon siveness
Ġbor tezomib
ĠStand ards
Ġcorrec ted
ĠElect ro
ĠGP a
ropip ate
reflex ia
odext rin
' re
k ary
z ac
Ġb rus
an abolic
Ġw rist
ar ate
Ġst uff
ĠB ank
Ġle vetiracetam
ĠR BP
hy s
ne u
the w
Ġreg ain
ĠAn im
enz a
ĠZ e
Ġmy osin
ĠCon ditions
Ġap alutamide
Ġmar riage
ĠVal ley
ĠHydro chlorothiazide
Ġchromos omal
ĠForm ulations
pat tern
Ġhous es
ĠMem orial
Ġlamin itis
ĠLact ulose
Ġstyl es
S N
h rs
t aking
Ġh ired
phen adrine
Ġcalc ulate
Ġmal a
ĠSp e
Ġz ol
ĠCo A
Ġprolong ing
ĠAr tificial
Ġmat ching
Ġdri ves
Ġphenyl alanine
Ġalkal osis
ĠCar isoprodol
Ġstri pped
len gth
Ġguan osine
Ġadminist rative
ĠGL UT
ĠPatric k
Organ on
b iop
h ring
Ġw ait
Ġd an
ar ach
ing les
Ġl an
Ġg ent
Ġal igned
oc lasts
res tim
ĠM MR
ĠN yc
Ġ19 18
Ġam ikacin
ĠJ ung
ĠJ oe
Ġdec arboxylation
Ġind ef
pos able
Ġthem e
Ġbu y
Ġester ification
Ġvi ability
ik o
Ġgel atin
Ġneurolog ic
ico umarol
Ġspray ed
Ġdocument ation
ĠTor onto
Ġclub s
Ġcannabin oids
Ġscat tered
quar ters
Ġmillil it
onol act
ĠVenezuel a
ĠCory nebacterium
1 35
P en
d ess
e lev
ar ter
os gene
og rap
ĠN ig
ip ramol
Ġover weight
Ġunder lie
Ġcons ervation
Ġcons ervative
Ġph rase
Ġinter ior
ĠCh anges
Ġur inating
assi fication
Ġprob es
oman ia
Ġexpression s
Ġcarcin ogens
ĠGl ibenclamide
inct ure
Ġ190 8
Ġincorpor ation
through put
Ġker at
ĠStan ford
sour i
Ġemulsi fier
inite ly
ĠNY HA
Ġbiofil m
Ġretic ulum
Ġremed ies
ĠEliz abeth
Ġo ve
Ġre ass
Ġn av
ur gical
Ġg rief
ĠG wen
Ġcar d
Ġtrans membrane
acet one
Ġfl ash
Ġstruct ured
ĠCl ub
aw ed
Ġrespond s
DS S
vir us
iot a
Ġencoura ges
ĠPP I
Ġscreen ed
Ġsched ules
umar ins
substit uted
O L
m m
Ġan omal
Ġw ip
Ġd ras
uc ine
im aging
Ġst ressed
ĠIn terest
ĠD ix
ĠF ace
Ġmet henamine
Ġrel ieved
Ġph osgene
Ġtri es
Ġdoes n
Ġant acid
ĠPhen termine
Ġminim ized
Ġcomm and
Ġbre wed
Ġinst all
Ġrelax ing
cepti ble
Ġobserv able
Ġendothel ium
Ġmorph ology
Ġbiot in
Ġmush room
ĠMill er
Ġstraight forward
otyp ing
Ġdiscoura ged
oat rial
ĠEnt amoeba
ĠExperim ental
G u
m ates
Ð ½
Ġs ector
Ġb omb
as vir
im ol
Ġst ents
ĠL en
ail ed
lor atadine
zym e
Ġflu razepam
Ġshort ages
Ġpath ologic
10 2
Ġpred ec
ĠLe ishman
Ġyear ly
ĠTo urette
Ġbond ing
Ġglucuron ate
ĠEp is
Ġsin oatrial
ano ia
Ġnanopar ticle
ĠGer hard
ĠPep si
ĠLar ger
Ġinvent or
ĠNADP H
ĠPu erto
trig gered
ĠDoug las
a round
d oping
h ab
s teroidal
al titude
ic c
ĠD un
ĠD eb
Ġr id
ĠH ap
ĠB PH
Ġres ume
ĠR SV
ome gestrol
Ġest ra
rol utamide
Ġno tions
Ġmon onucle
Ġdel ta
Ġcirc ulates
Ġbeh alf
Ġdown regulated
ĠIndi ana
ĠSh ang
Ã© rone
Ġhyd antoin
Ġter fenadine
Ġopp ose
open em
ĠGen ome
ĠSec onal
ĠHer riot
Ġdiss ociative
Ġjoin ing
Ġpor cine
Ġresemb ling
Ġvent ure
Ġalkyl ating
Ġadop tion
Ġcorpor ate
Ġgem citabine
Ġretard ation
ĠCost a
ĠEmp ire
ostom ia
N or
W S
p ur
Ã £
Ġt au
as el
ĠA le
im olar
od ox
Ġ2 24
Ġdis l
Ġover s
Ġout flow
Ġmen tions
Ġmal absorption
ĠPre v
Ġpal p
Ġrepresent ation
oprop ane
Ġsport ing
Ġjurisdic tion
hydroxyphen yl
Ġureth ral
ĠCapt ain
Ġteen agers
a q
m u
Ġt ort
Ġc urative
Ġn inet
est one
ĠIn term
Ġad opt
ĠN an
Ġco ast
Ġbl unt
Ġest etrol
Ġben ch
Ġocc asions
erv ical
Ġj et
Ġaut oreceptors
old s
Ġca ffeinated
Ġdys regulation
Ġver ified
Ġlev amisole
ĠCo uns
Ġtran ylcypromine
allen ge
Ã§ on
ĠMis souri
ĠDO PA
Ġfle a
esan Ã§on
0 15
B E
C N
M c
n orethisterone
t oxin
Ġh unger
Ġcon vers
ĠS i
Ġinf iltration
Ġun responsive
per or
ĠSt ra
tim ulation
ĠV on
Ġsol ve
Ġpost ure
Ġbel ieves
ĠSe a
trans l
Ġdoctor al
ĠNeu rom
Ġpi oglitazone
ĠAndro st
Ġsac rific
ĠTen nes
Ġvisc ous
Ġthiop ental
orp oreal
Ġhemisp here
Ġlaund ry
Ġirrig ation
C L
p ack
á º
in iti
Ġs terol
Ġb ow
Ġm akers
os kelet
ĠN arc
Ġdis ag
ib izumab
az oles
Ġsyn apses
Ġext ending
ardi an
phen yleth
ĠEx amination
Ġdiagn oses
wh o
Ġlic ence
ĠDis c
Ġinactiv ates
uric emia
Ġphenomen a
ĠTechn ical
Ġproxim ity
ĠIndust rial
Ġhypox anthine
Ġhypere mesis
ĠHaw ai
ĠRib oflavin
ĠGil bert
ĠBup renorphine
ĠSear le
b olone
g ically
t own
z ep
Ġpro ceeding
ĠD ydrogesterone
Ġcont acts
Ġsp elling
Ġmod ulating
Ġexc lude
19 90
ocyt openia
Ġpul led
Ġdev ised
Ġcost ly
benz yl
Ġemploy ing
acetyl cysteine
ĠAbb Vie
Ġelectric ity
ĠDiscontinu ation
ĠBulg aria
ĠTennes see
c alc
h ai
m i
r ised
re th
Ġre ver
ac yc
ĠT hyroid
ĠC op
ĠC av
ĠD yn
ĠD ogs
ĠM ach
yp sin
ox amide
ĠO il
ĠO phthal
low er
Ġtri pt
Ġintra ct
Ġmy algia
inc reased
ĠIm pro
ĠInc rease
ĠDa o
ĠInf ection
fl utamide
Ġanaly zing
fluor omethyl
pe zil
ĠAcet azolamide
ĠDist ribution
Ġsyrup s
PT SD
Ġprefer ably
Ġproc aine
agu a
adal afil
7 50
u i
Ġc ations
Ġd ar
Ġh on
Ġe ug
ĠC iba
ad ows
ĠIn jection
ĠG Rs
Ġsub mit
hed ra
Ġur ge
Ġmic elle
phen iramine
con dition
Ġsl ugg
ĠSe ven
ĠApp eals
SD S
ĠMeth otrexate
hex yphen
Ġsuperior ity
Ġswallow ed
Ġscan ning
Ġmethem oglobin
Ġcry op
ĠSil ver
Ġdisadvant age
Ġsof ten
ĠProst agland
Ġleukotri ene
Ġstaphyl ococci
Ġcareg ivers
hexyphen idyl
T here
d on
v inyl
Ġt ics
er ule
or um
one ph
tic idal
ad ex
ĠIn dex
gen omic
Ġappro ached
Ġimp urity
Ġafter wards
Ġdo or
Ġsur pass
Ġ7 50
Ġhem ophilia
Ġproced ural
aim ed
Ġmag ic
Ġconflic ts
ĠPlas m
Ġflav in
Ġaggressive ly
-[ (
ĠHot el
Ġportray ed
Ġskelet on
Ġintract able
r ub
Ġre wards
ec k
Ġth reo
si x
Ġinc o
Ġad sor
ĠL ex
ĠJ ane
ax olone
ock s
Ġmus ical
par as
arc oma
Ġmethyl dopa
Ġtranspor ts
Ġfav our
Ġtermin als
Ġdestro ys
Ġconvul sive
Ġadvoc ates
Ġmyc olic
Ġcation ic
ĠDR ESS
ĠLund beck
m orphine
Ġ Å
Ġin ad
ĠA id
st asy
ĠE ye
ĠN ortriptyline
ĠU rine
ph ine
Ġinf ring
Ġest ropipate
Ġun eth
Ġpe ace
Ġar ranged
Ġcaus ation
ĠPro b
edi ate
Ġneu rogen
arc hes
ermin ed
Ġcharacter ize
adi one
Ġoper ational
Ġconn ective
Ġachieve ment
Ġoffic ers
Ġconstant ly
Ġsearch ing
ĠEnd ocrine
Ġamnes ic
ogene ic
ĠVer apamil
Ġcompens atory
Ġmutagen esis
Ġpert ussis
Ġhypoch lore
ĠDat ura
Ġsurp rising
Ġknock out
olym er
S ub
p ulmonary
is her
ve ter
Ġas ymmet
Ġbe es
ant amine
ĠE P
Ġco administration
ĠSt atis
Ġsc enes
Ġem it
Ġanal ysed
Ġdist ant
Ġmul tip
hydrox yt
Ġshe ets
Ġnucle ases
ophil s
ione lla
Ġpreca ution
Ġinh ab
Ġaccommod ation
ĠEngine ering
ĠPyraz inamide
G CR
M M
Ġs or
Ġc iv
Ġp age
or iented
Ġm c
ad j
ĠB A
ĠB ack
Ġun ilateral
Ġun available
Ġrel ates
ort in
ĠK r
Ġexp ulsion
hyd ron
Ġsynthesis ed
Ġ18 99
Ġ18 93
20 20
ĠRe b
Ġstand s
Ġfac ing
Ġunc ontrol
Ġnor oxymorphone
ER G
bal t
Ġtransplant ed
Ġmicrob iota
Ġgonad s
ĠHer bert
ĠTop asel
Ġrig orous
ĠUl timately
Ġhyperp olarization
ĠMat thew
ĠNeurolog ical
Ġlubric ation
adren o
Ġanec d
Ġperox ides
ĠAgain st
ĠAvail able
ĠAsth ma
( \
d am
f ar
l ich
l oss
p ed
Ġs igma
Ġto es
im oxifene
Ġcon ception
ĠS oon
ĠS JS
ĠD A
Ġcomp ost
ill in
Ġen counter
erg otamine
Ġexper tise
Ġprog ressing
inf ected
Ġnicot in
Ġsurv iving
itamin osis
Ġcram ping
ĠLa unched
ĠBro die
ĠOcc asionally
Ġmim icking
Ġillicit ly
Ġcomfort able
ĠTran examic
ĠTreat ments
ĠRegard less
ĠFunction al
Ġdiaphrag m
Ġantine oplastic
ĠNyc omed
oneph ritis
F em
P h
w orth
re ts
ur ry
rom azine
ĠD BS
ĠB an
ĠE pid
ph one
ĠO ns
Ġsp ark
Ġun responsiveness
Ġam end
Ġsub therapeutic
de xt
Ġep i
ung s
Ġcarb oplatin
Ġble ed
Ġrepl aces
Ġach ieves
Ġline age
Ġlymph ocyte
Ġchrom atin
Ġcounter acts
ĠCommon ly
ĠFem in
Ġallevi ating
Ġconstruc ts
gener ational
Ġalign ments
Ġdisapp eared
ĠSen ate
Ġpra ised
Ġoverexp ression
Ġsparing ly
Ġreven ue
ĠPrometh azine
g yline
Ġa ort
ti el
ec oxib
ĠT ay
di ble
ĠP oll
ĠM ater
so ver
up on
ĠL ord
Ġpe eling
lu ent
Ġme ats
Ġshould ers
fer ases
Ġtr is
Ġthromb us
ĠLong er
Ġconstit uents
Ġpolymorph ic
Ġtail ored
Ġdelib erately
Ġsut ures
ĠInh A
Ġxer ophthalmia
Ġembed ded
ĠStol z
veter inary
C an
s um
al april
Ġm ism
Ġcon dem
res cine
ĠD S
ag ram
yl omic
ĠB ella
ĠN K
Ġdis h
co unt
ord inary
Ġass umption
Ġpos i
Ġdo i
Ġar ts
Ġgl ial
Ġdes cent
Ġev il
Ġ10 1
Ġsuc k
ĠSe ason
lab o
bl att
TE N
Ġtrac ks
Ġbrad y
ĠContra ceptive
Ġfresh water
Ġendoscop y
synthe si
Ġexagger ated
Ġslugg ishness
a ques
b ig
Ġs tigma
Ġp seudo
Ġb r
Ġb ent
Ġf iss
om ach
Ġv oted
Ġcom ments
Ġres ort
Ġ19 27
Ġen alapril
Ġinf ilt
erg ide
Ġtw itching
Ġgl oves
ĠAl liance
Ġvit amers
Ġsulf amethoxazole
Ġconf ined
Ġ18 0
Ġlack ed
Ġevery day
Ġpes ts
Ġdisplace ment
Ġmicrof ilar
ĠAlt ana
Ġimmunoass ays
ĠKap osi
Ġdefec ation
a ugh
n eph
o ul
y ellow
er a
as ic
ot rophic
Ġinc hes
ĠD APT
ĠM ove
ĠB ig
Ġpre existing
Ġsp iro
co ver
av ax
af ine
Ġra ys
amm ag
Ġrest aur
Ġelim inates
ĠSc heme
Ġmut ants
opa edic
Ġdil ate
carb ohydrate
Ġcapac ities
Ġpractic ing
oscop e
Ġcyan ocobalamin
glyc ine
Ġec ological
ĠNic ar
Ġsuspic ious
Ġnotice able
Ġtransf ers
ĠRheum atology
ĠAntagon ism
ĠTurn er
ĠCannab is
phthe ria
E str
R ed
a em
z z
á ¼
Ġt amp
Ġh ierarch
si tis
Ġch ose
ĠN ow
ĠR out
ĠW inthrop
als artan
ĠCh ron
rex a
Ġaden ylate
Ġinsu ff
nit ros
ĠRec ords
200 4
Ġmyel osupp
Ġitch y
ĠHum ans
Ġexpect ations
market ed
mean ing
Ġdiv ide
ĠJud ge
ĠSurge on
Ġpollut ants
ĠAgu ilar
ofep ramine
p Ka
t est
Ġa ffe
re es
er ts
al icylate
Ġm aps
om at
ve c
ra cy
il in
ver sities
Ġv oy
rom al
ĠB R
Ġpre y
Ġim ine
Ġsp ells
ap id
ĠK el
Ġgl ove
ĠAd alat
Ġsal v
Ġpol l
con former
oh im
Ġtub erc
ĠX a
cyc le
Ġcere mon
rolog y
Ġdil ution
Ġpsycho analysis
Ġimm ig
Ġsubs alicylate
Ġcatal ase
Ġvaccin ia
Ġhypere x
ĠIncreas ing
Ġimmob ilized
vit ro
Ġgar lic
Ġeyel id
cit ability
Ġhaemorrh age
ĠFranken stein
ĠNicar agua
G G
f uran
t ryptamine
or se
Ġd ict
om alidomide
om atosis
ĠA de
ĠC it
op lan
ĠH unting
ure th
Ġcomp uting
ĠG arden
ĠO lder
mon t
ber ry
Ġcontain ers
Ġbenz oic
Ġtra pping
Ġcertain ly
Ġmat ches
oxif loxacin
Ġuni versities
Ġtrac hea
Ġcomb us
Ġallevi ation
ĠMel oxicam
Ġsettle ments
Ġendoscop e
ĠCy an
otherap ies
ĠHC V
ĠGile ad
O x
T HF
d ry
p seudoephedrine
as p
Ġl amp
Ġbe aring
ĠI CD
ig ong
th reo
Ġmet ers
Ġun favorable
Ġsub side
ĠJ ones
Ġrel ate
Ġhead s
Ġ12 8
Ġed ible
ĠY ang
ĠCol labor
Ġhom ology
Ġelectroly tes
ĠMo on
ĠMo untain
Ġgest ation
ĠMel atonin
aut y
strand ed
Ġdenat uring
aner cept
re vir
Ġc oconut
Ġan ov
ar se
ot en
ter ally
ĠP ul
ag an
Ġper ch
Ġbi ologic
Ġra tions
Ġsal mon
Ġatt ended
Ġexc ision
edi tions
Ġhyper sexuality
Ġwhere in
emic arb
Ġcycl osporine
ĠQT c
Ġfix ation
Ġcontrac ts
Ġsudden ly
Ġpolymorph s
ometh ane
150 2
Ġemploye e
Ġank le
ĠLeg ionella
ĠDim en
Ġmutagen ic
fol iative
Ġthiop urine
Ġgli oblastoma
Ġadmission s
Ġhyste rectomy
Ġindef initely
B esanÃ§on
re active
os il
Ġn ad
ot in
ot ulinum
ĠS lo
si vity
Ġde af
Ġdis sip
ast ing
yc ins
Ġtri age
Ġme ets
de ep
Ġsur gically
Ġop sin
Ġcount y
Ġhyper cholesterolemia
Ġamp utation
ĠRe bound
Ġsed iment
Ġrespond ers
Ġpal ate
Ġce ment
Ġstre ptomycin
fung al
Ġcys ts
Ġexplan ations
ĠScot tish
ĠRDA s
ophore ctomy
ĠBus pirone
ĠPep cid
Ġchor oidal
Ġaudi ence
oxymethyl penicillin
ĠpHiso Hex
Ġchondro itin
ĠSac cha
ĠNurs ing
ĠLav ille
Ġairc raft
k ind
n ithine
Ġin k
at able
Ġb inary
ic ks
Ġn ails
am ates
Ġg one
ĠS ynthesis
Ġit er
Ġsh all
Ġhyp omagnesemia
are lin
Ġmod ules
Ġfl ame
rec tional
Ġparticip ates
ĠHyp erglycemia
Ġparen terally
Ġstatis tics
ĠPhy si
Ġorigin ator
ĠOp ium
Ġcit rus
iqu et
Ġdispl aced
ĠChurch ill
ĠAnal ges
Ġinsec ticidal
ĠPhil ip
ĠRifamp in
fi able
Ġje jun
Ġexpend iture
Ġhypochlore mia
ohim be
7 16
P a
P hen
c italopram
m and
m elan
Ġp ess
as ome
Ġ( (
Ġpro kary
di ethyl
ĠS erb
od ed
Ġv om
Ġr ins
Ġdi es
ox epin
az ocine
Ġgen itals
Ġsub acute
Ġstrong est
Ġprogram ming
Ġaltern ating
Ġdev oid
Ġeng aging
Ġglucuron ides
Ġpal iperidone
Ġsil ica
bu vir
Ġsuperv ised
ubb ing
ĠTem azepam
Ġhol low
ĠAch illes
ocript ine
Ġin versely
an idine
Ġw est
os buvir
ĠS NP
ri o
ĠM IC
Ġle uprorelin
Ġcont ras
ĠR y
ox yp
min eral
ĠSt arting
ari os
Ġdep roton
Ġtrans mit
Ġtri amterene
form on
Ġprote ases
Ġcol ors
Ġbreast feed
Ġsuc tion
Ġdesign er
orr or
Ġdysfunction al
... ]
Ġheav ier
Ġtric l
Ġlif ted
olec ule
ĠCycl ogest
Ġintrav it
ĠRis ks
othor ax
Ġsucc inyl
Ä ĵ
an in
Ġd odecyl
om atic
Ġac ylation
ĠL ansoprazole
Ġinf ect
ind olol
eth ane
Ġsc and
Ġhal t
Ġprim e
Ġcat ch
Ġcat ast
inc l
rad uate
Ġandrogen icity
cin ic
Ġmat ched
ĠBi oc
RNA s
Ġplan et
Ġbronch osp
Ġoccup ied
Ġoptim ized
Ġster ilized
ĠOp ioid
Ġwin ter
Ġexer tion
Ġinten tional
Ġtap ered
ĠDil tiazem
Ġimpul se
Ġpiper idine
ĠPrec a
Ġmotiv ational
lys ine
ĠObstetric ians
Ġnostril s
P er
n ine
v ari
w atch
en gers
id ines
ĠT rin
Ġfor tify
ĠA rea
Ġeff ervescent
ĠD or
ĠH ippoc
ĠB ad
ch ronic
ren ess
Ġsh unt
Ġne oplasia
Ġrec ru
Ġbi phasic
Ġeth inyl
other mic
Ġpsych ic
con c
Ġequ estrian
ĠEst elle
Ġfer ric
rest rial
ĠBe ginning
flu oxetine
Ġspe eds
Ġtrac he
tri hydroxy
Ġpolymorph ism
Ġacknow ledge
ĠTob ramycin
Ġpione ered
ĠDox orubicin
Ġremark able
ĠInhib itors
ĠThrom b
Ġwrink les
P ET
n ected
u ates
Ġf ines
ur ized
Ġpro j
ĠC ole
ĠM irt
Ġat tain
Ġsh ield
and rosterone
ip ur
Ġpregn anolone
Ġvag inosis
fici ent
cent ered
Ġmis con
Ġmicro c
Ġcreat ure
Ġpap illary
ĠBenz ocaine
Ġbronch i
ĠMod erate
reduc tion
Ġtit rated
ĠTri v
Ġembry opathy
ĠFil ip
ĠHoff man
Ġubiqu itous
Ġplex us
biop terin
w er
Ġfor th
ur u
Ġse ized
Ġper phenazine
our ces
io facial
Ġmem antine
ĠComp etition
Ġtrem ens
Ġhom ozygous
Ġtit ration
ci ences
Ġprogress es
Ġincision s
Ġphilos oph
ĠPK A
ĠPK C
Ġstrengthen ed
Ġketo acid
ĠTradi tional
Ġprogen itor
ĠDie go
opharmac ology
discipl inary
otulinum toxin
} +
Ġt ear
Ġan astom
id ov
ur id
ir ium
ĠC ur
ĠC innarizine
ĠP in
so lete
ĠG TP
Ġsub tle
ĠHe aven
hes us
ĠZ yp
ĠCl assification
ĠEx tra
methyl ene
ĠSp ace
Ġdistrib utor
ĠMon o
Ġdifferenti ated
ĠAndro cur
Ġretail ers
Ġelectroph ilic
ĠStep hen
Ġpeg ylated
Ġstereoc enter
ĠSert raline
ĠMarket ed
ĠEgyp tian
Ġamygd ala
ĠGlucocorticoid s
Ġinad vert
j e
Ð µ
al ine
Ġd raft
Ġf urazolidone
Ġpro ving
Ġor chiectomy
ĠM aster
ag k
Ġad ap
ĠH am
hen tic
ĠN erve
ĠG ERD
Ġper mission
enti sts
ĠUn known
ne ys
Ġdos ulepin
Ġgro oming
Ġsupp l
ĠV illa
ass ic
ĠAm iodarone
row th
Ġprov inces
rex ia
Ġconsist ency
Ġlymph omas
ĠReg ional
Ġgra vity
200 6
Ġcal orie
Ġoffic es
Ġtravel s
ĠTra ce
Ġseb aceous
pot ency
Ġprison ers
Ġdisproportion ately
ipot ent
Ġras agiline
H P
t oman
in ing
Ġo pt
Ġm olar
il ation
od ing
ĠB le
Ġsp okes
Ġpar anoia
ric e
ath inone
ĠK y
ĠAm endment
Ġur ged
Ġresid ential
carb azepine
Ġread ings
astro zole
Ġbusiness es
Ġplastic ity
Ġthor acic
Ġpolar ity
Ġinstruc ted
ĠClim en
ĠDom agk
Ġcardiop ulmonary
ĠPo ison
cyclo hex
idov udine
S JS
Ġt ert
ti er
Ġd amp
as corbate
Ġl enses
ĠS oft
Ġex foliative
ĠM oh
ĠF ra
ost ane
Ġco balt
Ġanti thrombotic
Ġbut t
eth oxy
ism us
Ġimp ression
ros ophila
Ġar rays
ĠAd am
Ġfl ag
Ġbrain stem
int ended
ĠEn ergy
Ġul timate
reg ulating
Ġantagon ized
Ġap athy
icyl ates
CA M
Ġstress ful
des ign
rig o
ĠPl ant
ĠCor ps
Ġandrost ane
Ġthin ner
Ġelic its
Ġhypers ensitive
Ġcompetit or
Ġimag ery
Ġscat tering
Ġdefend ants
osex ual
Ġâģ ¡
ĠPlasm odium
B r
h op
h igher
o urable
Ġs ons
Ġre hydration
Ġh CG
ve t
Ġbe ars
ĠS S
Ġex udate
ĠM H
ĠH ay
Ġch art
Ġch ylomic
ĠB oy
ran ging
rib le
Ġar range
Ġro f
Ġup ward
ick ness
ĠSc urvy
orr he
ĠApp lic
Ġred d
Ġlat est
ai ra
ai ac
Ġri vers
ĠGu ide
200 9
Ġquanti fication
cortis ol
Ġthi os
ĠHep atitis
Ġdistinguish ing
Ġevol ve
Ġpor ous
sour ced
Ġchair man
ĠMur ray
Ġaf imoxifene
ĠKol li
ĠSack ler
B ritish
F urosemide
V E
Ġs aved
us p
om ip
ly ase
Ġbe ats
ĠI vermectin
op to
oc ylin
iz ar
ĠR ash
ip ro
ĠK lim
ov aginal
ĠY ect
Ġsequ enced
Ġcomm ence
Ġfull ness
ĠSal icylates
Ġinstit uted
Ġconform ers
âĢł .
Ġautop sy
Ġbac illi
ĠPier re
ĠAlk ylation
Ġsel dom
Ġanomal ies
ĠHunting ton
Ġthios emicarb
Î Ķ
Ġ Ð
Ġs elen
al o
Ġf uran
ec ret
ec tives
ĠT ib
ot ex
st ra
est a
ĠP S
ĠH F
Ġsh rink
ĠL ister
Ġsc rot
af ety
Ġhum idity
rad en
ucle ar
ĠSh igella
athe red
ĠPsych otherapy
Ġimplement ing
Ġdiscus sions
Ġantid opaminergic
ophag y
Ġdrink ers
ĠPart y
ĠAD Rs
ĠNal trexone
memb ered
Ġpenal ty
Ġnatri uretic
Ġheterocyc lic
Ġrof ecoxib
r ins
Ġf oster
as ia
Ġre lying
Ġfor tified
ĠS ug
Ġst ings
Ġv ocal
Ġex oskelet
ant el
ĠB oe
ĠO wing
Ġpar alytic
ĠW a
Ġmark s
Ġeffect or
Ġexp ire
ĠAm lodipine
Ġfunction ally
Ġdisc rep
dom in
Ġmethyl transferase
Ġtoxic ology
Ġcere mony
ĠDe ad
Ġflow er
ĠBe ing
iop lasty
Ġlys osomal
Ġabscess es
aminobenz oic
Ġcautious ly
main ly
ĠJess ica
F it
b owel
al azine
Ġf MRI
ot ary
ĠA ve
od al
ĠD ura
Ġad s
ĠF atigue
Ġde activ
ĠR ub
ĠO H
Ġen acted
Ġsyn apt
ins eng
ex posed
acet ylation
Ġso reness
Ġpol itic
Ġrep ur
Ġindust rially
ĠATP ase
Ġinteg rate
Ġsent ence
ĠNav ajo
ĠIg A
Ġfif teen
lix ir
Ġunconscious ness
obi ocin
Ġpriv acy
dest ruc
ĠTd P
ĠChol est
Ġketoacid osis
. :
Ġ }}
in otecan
Ġt at
Ġs oph
os iban
il on
Ġg ather
op last
Ġwh ipping
ĠL ot
ox anide
hy cardia
af tor
hyd razine
Ġcirc uits
ĠAc id
Ġir inotecan
Ġlimited ly
Ġz aleplon
Ġsix th
ĠReg ular
Ġtermin ating
Ġhydroxy flutamide
Ġincorpor ating
Ġclar ify
Ġbring s
Ġexplos ion
Ġimpul ses
ĠPil ocarpine
Ġadulter ated
Ġfel bamate
Nov um
Ġrepell ent
Ã£ o
W ADA
Ġin mates
Ġn ut
Ġdi am
Ġun t
ĠTh i
Ġins piration
ĠCh ang
Ġhal ides
osp el
Ġprost heses
10 1
Ġtop ics
Ġbel ly
Ġ[ ...]
Ġbu ffered
Ġcost ing
Ġter ror
ĠGu ill
Ġmicron ization
Ġros iglitazone
ethynyl testosterone
ĠCas tiel
Ġdisinf ectant
Ġaccommod ate
cyclop edia
Ġneovascular ization
Ġscen arios
ĠTun isia
Ġcros sover
tric itabine
b es
g ram
in ia
Ġb ait
Ġre ti
ac ol
ĠA erobic
ut ants
di p
ep ir
ĠD og
ĠM organ
qu inone
ĠB all
ĠF owler
Ġcomp uted
ĠG ol
ĠG rap
Ġcl ock
ap ers
ĠV KOR
qui et
ĠPro vera
Ġpsych ologist
Ġvag us
Ġact ress
ĠCon cent
arr hythmias
ĠDi arrhea
adi g
Ġexperim ented
Ġfav ored
Ġbronch oconstriction
Ġstri ps
oscop ic
ĠEff ective
ser otonin
Ġwebs ites
ĠGreen blatt
Ġconclusive ly
uls ory
Ġrop e
Ġsummar ized
Ġerythropo ietin
Ġrecrystall ization
ĠFinding s
Ê¿ A
Ġaort a
ĠZyp rexa
T T
h ik
h ou
Ġit em
ĠE ve
ous es
Ġsur rogate
oph lebitis
Ġloc omotor
Ġantip arkinson
Ġposition ing
aff ecting
au er
Ġfall en
see king
Ġprecip itation
ĠMR SA
ĠQue ens
ĠSen ator
ĠLute ina
Ġane urys
B icalutamide
G lu
k b
p op
Î ¹
Ġe lixir
Ġbe ads
ĠC ris
ĠS ildenafil
ep tides
ĠM eg
ĠL ie
ĠG ri
az ines
Ġpl c
Ġ5 000
Ġmetabol izing
ĠV II
ond ensation
rel ative
ĠCon fusion
lob ulin
ĠSe at
Ġestim ation
Ġglucuron idated
rig lycer
Ġunique ly
Ġbat ches
tra ce
Ġadapt ations
Ġreli ability
ĠMo ore
MO N
Ġmist aken
ĠFact ors
Ġxyl azine
orig inal
ĠSom nolence
Ġforb idden
ĠCere b
ĠNig eria
Ġuncontrol lable
C M
P ar
b reat
m und
Ġp est
ĠP COS
Ġhe aled
ĠR ica
per mia
ob lasts
Ġgro ss
af arelin
Ġfollow ers
rel ieving
Ġur inal
Ġrap amycin
Ġbound aries
anger ous
ĠQu ad
ĠPol ice
ĠProgest in
bu terol
phosph atase
Ġhybrid ization
ĠProgram me
ĠKet oconazole
Ġphyl ogen
Ġventric les
ĠAff airs
SER M
Ġisonicot inic
Ġsav ings
Ġmillilit ers
Ġnav ig
I ARC
Ġg un
ab arbital
th ixene
og roup
Ġdi ve
ph ig
ĠG BS
Ġpot ently
rac ks
ack ing
ulf ate
Ġinv asion
lim e
phen amine
Ġtherapeutic s
ĠEst inyl
ĠCo oper
ĠPar tial
ĠX b
cent er
Ġevalu ations
AS H
Ġprin t
Ġalle les
Ġpent oxifylline
ux ley
Ġsaliv ation
Ġsuspic ions
ĠNeurolog y
Ġdissoci ate
Ġadvertise ments
Ġcran iofacial
Dep o
MH RA
ĠBenef its
Ġetyn odiol
hys ergide
Ġinco ordination
H PG
P F
k itt
l aw
p ol
Ġf ludrocortisone
Ġe ast
Ġn ig
Ġl aryng
ĠT entative
ur il
ĠP olic
ĠM arc
ant um
if on
Ġwe alth
Ġafter ward
Ġdep olar
Ġme x
Ġcol ds
ĠNe ut
Ġsulf hydryl
pro thixene
ĠY ear
Ġpa ediatric
Ġnor floxacin
ĠAr c
Ġacetyl transferase
Ġoper ator
Ġline ages
rex ed
Ġcereb rovascular
Ġrequ esting
200 8
Ġaccess ory
Ġtrac ing
ĠPl ants
Ġorth op
ombin ant
Ġcyan o
Ġinstruc tion
Ġmap rotiline
Ġprolifer ative
Ġdesc end
Ġhighlight ing
ĠProvid ing
ĠHydrox ylation
Ġpem phig
ipex ole
ĠProger ing
âģ Ħ
Ġbiochem ist
Ġhepato cellular
Ġmathematic al
Ġmc g
ĠKolli phor
A G
c athinone
f entanyl
o encephal
z opiclone
es tion
Ġf eline
Ġf ires
ar ity
Ġh ERG
ol ving
ĠA CT
Ġg re
oc used
Ġv ial
ĠD apsone
Ġ20 9
ĠN eph
Ġsh ingles
Ġen amel
Ġco operation
ob iliary
Ġreg istry
iss olved
Ġtr unk
Ġsup rathe
ĠX en
AR B
ĠCa ro
Ġmaxim ize
Ġstar s
den osumab
Ġdext rose
Ġban ks
200 5
Ġnons pecific
Ġju ices
ĠMex ican
Ġbran ched
ares is
ĠValpro ic
Ġbuff er
Ġoverwhel ming
Ġsuprathe rapeutic
V I
b ra
Ġt ended
Ġb ands
ra q
ĠT ox
Ġcon vol
ff y
ĠD I
ĠD ic
ĠB ol
ell ate
Ġ19 21
Ġne b
ĠO estradiol
cept ual
ord an
Ġhyp oplasia
Ġser otypes
ĠAd diction
20 17
Ġdid n
ĠY am
Ġfil es
Ġacetyl ators
Ġion otropic
na ive
Ġput ting
Ġstere oselective
Ġstabil ized
ĠProl utex
Ġcul tivated
ĠForm ulary
Ġangi ography
ĠMC L
Ġunexpected ly
Ġpyrim ethamine
ofl urane
R e
Ġg i
ĠC ats
ĠS ig
est on
rom yces
ib e
Ġsh aped
Ġ3 60
ĠSt op
rib olone
ace ment
ari atric
ef ined
Ġmul tiv
Ġsex es
Ġble pha
Ġavoid s
Ġz oster
Ġamin open
Ġpul p
Ġpopular ized
Ġneut ron
gu ided
Ġorth o
Ġstri king
ĠPrim e
Ġabsolute ly
ĠIU Ds
Ġtext book
ĠIndust ry
Ġretain s
ucl ide
Ġinvest ment
Ġteach ings
ĠRandom ized
ĠPrepar ations
ĠWid ow
Ġninet eenth
N G
in bl
Ġp ir
Ġb end
ar ginine
om i
ur bed
Ġg ated
Ġg ardens
Ġcon g
Ġcon ferred
ĠP DSS
Ġr im
Ġmet ered
ram e
ob a
ech ne
Ġrep tiles
Ġlab etalol
ull ary
DH EA
but yrate
Ġtes ti
sc reen
Ġphysi ologically
lin ks
Ġhepat obiliary
roscop e
comp ared
Ġmanif ested
US PSTF
Ġtro ub
ĠAz athioprine
Ġjus tice
Ac etyl
modi fying
ĠLib rary
Ġeti ology
fibro zil
Ġcenti met
Ġlos artan
Ġhyperex citability
inbl astine
1 30
h us
m ale
t t
z ide
Ġs ib
ĠC SF
ĠH uxley
ĠE ch
ren d
Ġdis posable
az ard
rac king
Ġsc ars
ĠCh apter
Ġdiagn os
Ġmis used
Ġaddic ts
Ġeng agement
Ġtravel ing
Ġecon omy
ĠProf essional
Ġinsp ection
fac ine
Ġdele terious
Ġmirac ulous
Ġmala oxon
V et
b aby
f ried
an ing
ĠT EN
Ġbe z
Ġcon e
ĠC hen
Ġv inyl
ep it
ĠH as
ĠE H
ĠN L
aus ible
ĠG rav
ĠO d
Ġli e
Ġun intended
hol m
Ġcle ave
Ġcontrib utor
ĠMeth od
Ġinser ting
Ġchol inesterase
Ġthreshold s
Ġimmunosupp ression
ĠRich ter
Ġassemb led
ora ph
ĠAnal ogues
Ġreform ulated
metabol izing
Ġsilic on
Ġimmunosuppress ant
dot ally
ĠPromet rium
Ġophthalm ologist
ĠLast ly
Ġsa una
Ġmydri asis
Ġposi tives
ĠAde quate
m em
s he
v o
er ian
Ġd abigatran
ot oxins
ĠS timul
ĠP oor
ĠP ellets
qu ad
Ġch ampions
ĠN CI
ĠL ink
per oxidase
Ġrem od
Ġsm art
ĠOther wise
Ġsci ences
ĠDi rec
Ġgain s
ĠBl urred
Ġbic yc
Ġpel vis
Ġcoord inated
meth rin
Ġdiss ection
nor progesterone
NI H
angi itis
Ġsac red
ĠLas il
ĠNum ber
Ġphosphoryl ates
Ġnord azepam
Ġconvol uted
= {\
S h
u ren
v ax
Ñ Ĥ
Ġc rown
Ġin acc
Ġp ork
ro dis
Ġd ol
ĠT ardive
Ġas phy
ĠA h
ver n
um ination
od afinil
Ġv ultures
Ġeff usion
ĠIn flu
ĠE A
ĠE ric
ĠF a
ĠN R
Ġint rap
Ġsh op
ĠG astric
Ġpar adig
Ġun e
ram er
inal dehyde
Ġmon os
Ġ18 80
ĠSe g
Ġstress es
eff icacy
ĠPer rigo
ĠEth ionamide
23 3
ĠProp er
ĠLev othyroxine
ĠInter vention
elt amivir
Ġland sc
Ġlipos ome
Ġepig astric
ĠFen ofibrate
)-( +)-
prim arily
Ġdissoci ates
oxap rofen
ĠChampions hips
ĠRim ifon
Ġneurode generative
imid azoles
ĠKirk land
ĠUtrogest an
Ġbioass ays
Mc Neil
f ly
m ur
Ġ *
Ġt am
Ġan ionic
Ġbe et
Ġg rey
Ġcon versely
Ġst atic
Ġv alsartan
ĠP L
em etics
ĠB MS
ap ism
ram a
ĠJ ordan
ĠSt rate
Ġmon ocytes
ros ate
Ġhy oscyamine
ĠUS AN
Ġ18 90
Ġref use
Ġperiod on
Ġda unorubicin
androgen s
Ġfo ams
Ġpoly angiitis
Ġphysi ologist
Ġel bow
Ġphot otherapy
Ġbehaviour s
block er
Ġshif ted
Ġdyst rophy
Ġpreced ed
ĠNI CE
Ġdisinf ection
Ġeros ion
nitro imidazole
Ġunsuccess fully
Ġpainkill er
hring er
ĠOphthal m
Ġsuppl anted
Ġthiosemicarb azone
G a
R BP
b ad
Ġt aper
Ġs inger
Ġm ec
Ġm ites
ar apid
ĠT arget
Ġpro poses
ĠC ipl
Ġac uity
ag in
Ġcan des
ĠN icol
Ġmet ribolone
Ġcomp etitions
Ġab ras
Ġrel ied
hed rone
bin afine
Ġtrans it
amp rosate
Ġpol len
19 93
pro st
ĠSp iro
Ġhand led
ER Y
ĠDes ign
inn ati
ĠPa rox
Ġlys ergic
fen fluramine
Ġwild life
Ġreact or
Ġplatform s
ĠSER Ms
Est radiol
Ġpolys accharide
equival ence
Ġnont oxic
ĠAntip sycho
ĠHarr is
Ġrecruit ment
Ġhypochlor ite
ĠDram amine
ĠHippoc rates
Ġcandes artan
f ive
Ġo ophorectomy
Ġm E
ĠC rit
ĠC etirizine
ĠS D
ĠIn sp
Ġr hesus
ĠM amm
ak ob
Ġcomp ulsory
Ġsp lic
ram ipexole
ob romine
Ġimp ed
Ġphen yleth
Ġexc lusion
Ġpeak ed
Ġintern ally
ĠAnti epilep
Ġlact am
Ġlig ament
ĠAg ranulocytosis
Ġaddress es
Ġverteb rate
Ġpil ocarpine
Ġstrept ococcal
conver ting
Ġincorrect ly
merc aptopurine
Ġencomp asses
eptid ase
ĠIsl amic
z ne
Ġo edema
Ġc ures
us s
Ġh id
ac ry
ĠT esting
ĠA w
tic k
ĠS ource
ri tical
yl and
ess ential
ĠH A
ĠH erm
ĠB aclofen
Ġform ulas
ance l
Ġy og
Ġpe tition
amp icillin
af er
ive t
Ġpur ines
inc innati
Ġadrenal ectomy
Ġly ing
ĠGABA B
Ġmel asma
Ġdim eth
au ti
Ġcy ber
sh ot
Ġpersist ence
nes ota
Ġnight time
Ġau x
ĠRed dy
ju va
ĠVen lafaxine
Ġexem pl
Ġelic ited
ĠKn oll
cat alyzed
Ġatheroscler otic
Ġkeratin ocytes
Ġ(âĪĴ )-
Ġgalact orrhea
ĠCaucas ian
ĠFolk man
M en
T H
d al
t ar
w ave
Ġs ad
an osine
ĠT it
ter ona
ĠC rim
ep ine
ĠIn duc
Ġr umin
ĠH BO
Ġcomp uters
Ġsp o
Ġman eu
ĠJ ur
pir ubicin
Ġphen obarbitone
Ġgluc onate
ĠZ en
Ġbenef ited
Ġcirc adian
ump tions
ĠRep roduc
rog ram
Ġagon istic
tri fluoromethyl
ĠCons ortium
Ġtransform ations
ĠVi enna
ĠThrough out
Ġhol ly
Ġargum ents
chym al
Ġdextror otatory
anthe line
Ġbodybuild ers
ĠAmph otericin
opap ular
echne tium
T G
m ortem
Ġw rest
ver ty
um er
ĠP H
ĠIn nov
ĠE ut
ure tics
ĠO ffic
Ġrem ember
Ġpub lishing
me as
Ġmal arial
Ġbio equivalence
ĠIndi ans
des ivir
Ġthromb ophlebitis
sh ire
ĠPsych iatry
Ġincorpor ates
ĠHydro codone
ocal yp
Ġmodest ly
Ġargu ing
Ġrecall s
Ġhypert rophic
Ġexpect ancy
Ġchirop ractors
Ġdiscipl ine
Ġinfra red
COV ERY
Ġmacul opapular
Ġteg mental
Ġanecd otal
Ġjejun um
Ġintravit real
M DMA
W ater
g amma
h air
o ors
re ceptors
Ġc uff
Ġd rew
ur ium
ur rence
uc el
di phenyl
ĠC am
op timal
Ġst ap
Ġv enezuel
ren yl
Ġpot encies
Ġdo zens
Ġob solete
ĠPro ton
Ġfl ush
dep le
Ġpo verty
10 4
rad ical
Ġprop ell
Ġtend initis
ĠBe ach
ĠMan n
ĠAnti androgens
Ġacceler ating
Ġkne es
stim ulant
Ch inese
Ġcyclo hex
ĠRE COVERY
Ġvasoconstric tor
ffic ulty
Ġdigital is
Ġmys terious
ĠPers istent
ĠBot ulinum
Ġallergen s
ĠRog er
Ġdefe at
Ġphag ocytosis
ĠCommerc ial
a rom
b actam
h osphor
Ġc ues
os h
ac ial
ĠI OC
Ġg aps
ĠC C
ĠC PE
Ġex on
Ġat osiban
ph ar
Ġper methrin
raz ol
Ġpub lis
Ġcardi over
air ing
ĠWh o
Ġpublic ity
rem edy
Ġsee ks
Ġpredic tive
sp e
benz oic
bor g
AL T
Ġtro ops
Ġfarm ing
Ġdiver ted
Ġcontract ing
ĠBu ild
IA DH
oxap arin
à¥ į
A AS
N o
i h
Ġin otrop
Ġb in
ol imus
ut amid
Ġst inging
ĠP oint
ĠH bA
ĠG ar
Ġpos ted
ĠV O
are r
Ġext ingu
Ġnon benzodiazepine
Ġbenz amide
20 12
Ġtr ichlor
Ġprop antheline
Ġradi on
ĠCa hn
Ġred ox
Ġclassi fying
ober ts
ĠNit rofurazone
orrh oea
Ġmening ococcal
ĠCardi ology
Ġtons il
Ġrecur ring
Ġscaffold s
ĠAxel rod
carboxyl ic
P M
d ithi
z o
Ġt ens
Ġs ept
Ġb are
Ġm erger
os c
Ġpro line
Ġg riseofulvin
st roke
ĠC ord
ĠThe elin
ĠS ut
pt a
Ġde amination
ran k
Ġpre formed
ĠW oman
ĠSt ruct
av oid
Ġph arynx
ĠK ev
Ġhydro therapy
yn c
Ġhal othane
Ġacc redited
ĠY u
lo aded
ĠDi uretics
18 0
Ġclassi fy
Ġcho osing
ĠMin nesota
ĠNit roglycerin
Ġcal m
feren ces
ĠSystem atic
Ġalk ylated
Ġcod ed
idi ol
ĠSupp lement
uv ian
glucuron ic
ĠHem odialysis
Ġsimpl er
bet ween
ĠLis dexamfetamine
ĠCross Fit
Ġstear ate
ĠDrin king
Ġaggra vate
Ġcurric ulum
Ġneb ivolol
D ec
O n
v ular
y rene
Ġc och
Ġb ats
Ġre taining
il oxazine
Ġg inseng
ĠC incinnati
od in
ĠP ed
ĠF arb
ap agliflozin
Ġpar s
pl an
rol actone
ĠJ enn
Ġall ogeneic
Ġtw ins
yn ol
rox aban
lect ric
Ġcateg or
Ġdeep ly
Ġneuro developmental
Ġneph rotoxic
Ġarm odafinil
ĠCB G
Ġrob ot
ochrom es
Ġdiv ine
orig inally
Ġethnic ities
ĠLem mon
Ġhalogen ated
ĠRANK L
ĠAmaz on
author ized
X A
h om
n ose
Ġs ke
Ġf ractions
ĠT in
ĠC lean
Ġco he
Ġanti progest
oth i
ock ets
Ġout door
Ġinv ari
Ġaut hentic
Ġ18 00
ĠRes erpine
Ġhydrox ymet
Ġhem ic
Ġlo aded
ĠIntern ationally
ah n
met al
ester ified
Ġmes caline
Ġsum mon
Ġdiver sion
Ġmorph ological
Ġstret ching
Ġpra ise
ĠBul let
ĠDef ense
eng ine
pyrid amole
Ġneurogen esis
ĠBoe hringer
Ġsoph istic
R OS
h ire
n at
Ï Ģ
Ġo cean
Ġd ura
ĠA PAP
Ġby products
em is
ĠD rosophila
ĠH u
Ġle p
ch l
ĠG ate
Ġmetabol ically
ĠV ascular
Ġran k
Ġamo eb
ĠZ IP
20 11
Ġrepl icating
Ġtub al
depress ants
Ġap no
ĠReg ulation
Ġuter uses
ĠNov avax
ĠSulf anilamide
ĠHep p
Ġhip s
Ġreward ing
Ġsco red
achlor ocyclohexane
iqu antel
ĠAltern ative
Ġwarm th
Ġhind ered
oplasm osis
Ġhexachlor ocyclohexane
Ġdyscras ia
Ġcatechol aminergic
ĠDown s
ĠJon athan
Ġhelic opter
hypno tic
ĠParen teral
hydroxypregn a
hydrom orphine
Ġamphib ians
oraph obia
3 50
B i
L ibrium
b ury
p ension
t ol
re act
ro gestone
ir ality
od ine
og y
ĠH ib
Ġse aled
ĠO ily
Ġover stimulation
Ġass umptions
ron ze
ĠV ale
Ġqu asi
Ġmin i
Ġcor rob
Ġchem oreceptor
Ġimmun ogenicity
Ġhel per
ĠCl ose
Ġcharacter ization
atric es
Ġamin ophylline
reme ly
hydroxy co
ĠDis p
ĠSy d
vis iae
Ġlas ted
ĠInter ventions
Ġandrost enedione
hist oric
Ġabsorb ing
Ġcompl aint
ĠVacc ination
Ġcontem pl
Ġcomorbid ities
ĠDom inic
Ġpick ed
Ġadvertise ment
Ġprotozo an
exper i
pergill us
opto tic
D B
N ew
c AMP
w he
re r
is ure
or ative
at ar
Ġw ants
Ġf ic
as a
et us
ĠT ed
ĠS AR
Ġst ations
res pective
ĠD yst
ĠL ibrium
Ġacid ification
Ġdes criptions
Ġro den
ĠCh ief
ĠAd ult
Ġexc luding
[...]
