{
  "version": "1.0",
  "truncation": null,
  "padding": null,
  "added_tokens": [
    {
      "id": 0,
      "content": "<|endoftext|>",
      "single_word": false,
      "lstrip": false,
      "rstrip": false,
      "normalized": false,
      "special": true
    }
  ],
  "normalizer": {
    "type": "NFKC"
  },
  "pre_tokenizer": {
    "type": "ByteLevel",
    "add_prefix_space": true,
    "trim_offsets": true,
    "use_regex": true
  },
  "post_processor": null,
  "decoder": {
    "type": "ByteLevel",
    "add_prefix_space": true,
    "trim_offsets": true,
    "use_regex": true
  },
  "model": {
    "type": "BPE",
    "dropout": null,
    "unk_token": null,
    "continuing_subword_prefix": null,
    "end_of_word_suffix": null,
    "fuse_unk": false,
    "byte_fallback": false,
    "ignore_merges": false,
    "vocab": {
      "<|endoftext|>": 0,
      "!": 1,
      "\"": 2,
      "#": 3,
      "$": 4,
      "%": 5,
      "&": 6,
      "'": 7,
      "(": 8,
      ")": 9,
      "*": 10,
      "+": 11,
      ",": 12,
      "-": 13,
      ".": 14,
      "/": 15,
      "0": 16,
      "1": 17,
      "2": 18,
      "3": 19,
      "4": 20,
      "5": 21,
      "6": 22,
      "7": 23,
      "8": 24,
      "9": 25,
      ":": 26,
      ";": 27,
      "<": 28,
      "=": 29,
      ">": 30,
      "?": 31,
      "@": 32,
      "A": 33,
      "B": 34,
      "C": 35,
      "D": 36,
      "E": 37,
      "F": 38,
      "G": 39,
      "H": 40,
      "I": 41,
      "J": 42,
      "K": 43,
      "L": 44,
      "M": 45,
      "N": 46,
      "O": 47,
      "P": 48,
      "Q": 49,
      "R": 50,
      "S": 51,
      "T": 52,
      "U": 53,
      "V": 54,
      "W": 55,
      "X": 56,
      "Y": 57,
      "Z": 58,
      "[": 59,
      "\\": 60,
      "]": 61,
      "^": 62,
      "_": 63,
      "`": 64,
      "a": 65,
      "b": 66,
      "c": 67,
      "d": 68,
      "e": 69,
      "f": 70,
      "g": 71,
      "h": 72,
      "i": 73,
      "j": 74,
      "k": 75,
      "l": 76,
      "m": 77,
      "n": 78,
      "o": 79,
      "p": 80,
      "q": 81,
      "r": 82,
      "s": 83,
      "t": 84,
      "u": 85,
      "v": 86,
      "w": 87,
      "x": 88,
      "y": 89,
      "z": 90,
      "{": 91,
      "|": 92,
      "}": 93,
      "~": 94,
      "¡": 95,
      "¢": 96,
      "£": 97,
      "¤": 98,
      "¥": 99,
      "¦": 100,
      "§": 101,
      "¨": 102,
      "©": 103,
      "ª": 104,
      "«": 105,
      "¬": 106,
      "®": 107,
      "¯": 108,
      "°": 109,
      "±": 110,
      "²": 111,
      "³": 112,
      "´": 113,
      "µ": 114,
      "¶": 115,
      "·": 116,
      "¸": 117,
      "¹": 118,
      "º": 119,
      "»": 120,
      "¼": 121,
      "½": 122,
      "¾": 123,
      "¿": 124,
      "Â": 125,
      "Ã": 126,
      "Ä": 127,
      "Å": 128,
      "Æ": 129,
      "Ç": 130,
      "È": 131,
      "É": 132,
      "Ê": 133,
      "Ë": 134,
      "Ì": 135,
      "Í": 136,
      "Î": 137,
      "Ï": 138,
      "Ð": 139,
      "Ñ": 140,
      "Ò": 141,
      "Ó": 142,
      "Ô": 143,
      "Õ": 144,
      "Ö": 145,
      "×": 146,
      "Ø": 147,
      "Ù": 148,
      "Ú": 149,
      "Û": 150,
      "Ü": 151,
      "Ý": 152,
      "ß": 153,
      "à": 154,
      "á": 155,
      "â": 156,
      "ã": 157,
      "ä": 158,
      "å": 159,
      "æ": 160,
      "ç": 161,
      "è": 162,
      "é": 163,
      "ê": 164,
      "ë": 165,
      "ì": 166,
      "í": 167,
      "î": 168,
      "ï": 169,
      "ð": 170,
      "Ġ": 171,
      "Ģ": 172,
      "ģ": 173,
      "Ĥ": 174,
      "ĥ": 175,
      "Ħ": 176,
      "ħ": 177,
      "Ĩ": 178,
      "ĩ": 179,
      "Ī": 180,
      "ī": 181,
      "Ĭ": 182,
      "ĭ": 183,
      "Į": 184,
      "į": 185,
      "İ": 186,
      "ı": 187,
      "Ĳ": 188,
      "ĳ": 189,
      "Ĵ": 190,
      "ĵ": 191,
      "Ķ": 192,
      "ķ": 193,
      "ĸ": 194,
      "Ĺ": 195,
      "ĺ": 196,
      "Ļ": 197,
      "ļ": 198,
      "Ľ": 199,
      "ľ": 200,
      "Ŀ": 201,
      "ŀ": 202,
      "Ł": 203,
      "ł": 204,
      "Ń": 205,
      "in": 206,
      "Ġa": 207,
      "Ġt": 208,
      "he": 209,
      "re": 210,
      "on": 211,
      "ti": 212,
      "Ġo": 213,
      "en": 214,
      "er": 215,
      "Ġthe": 216,
      "Ġs": 217,
      "Ġc": 218,
      "ed": 219,
      "Ġin": 220,
      "is": 221,
      "al": 222,
      "es": 223,
      "Ġp": 224,
      "or": 225,
      "Ġan": 226,
      "at": 227,
      "Ġb": 228,
      "an": 229,
      "Ġof": 230,
      "it": 231,
      "ro": 232,
      "Ġw": 233,
      "Ġm": 234,
      "Ġd": 235,
      "Ġf": 236,
      "ic": 237,
      "Ġand": 238,
      "as": 239,
      "ar": 240,
      "tion": 241,
      "ing": 242,
      "Ġto": 243,
      "le": 244,
      "us": 245,
      "Ġre": 246,
      "Ġh": 247,
      "Ġe": 248,
      "ent": 249,
      "ol": 250,
      "id": 251,
      "om": 252,
      "ve": 253,
      "ra": 254,
      "ec": 255,
      "Ġis": 256,
      "ly": 257,
      "os": 258,
      "Ġn": 259,
      "et": 260,
      "Ġth": 261,
      "ac": 262,
      "ul": 263,
      "am": 264,
      "Ġl": 265,
      "ation": 266,
      "ĠT": 267,
      "Ġfor": 268,
      "un": 269,
      "Ġas": 270,
      "ith": 271,
      "il": 272,
      "ine": 273,
      "Ġ(": 274,
      "ot": 275,
      "ur": 276,
      "ter": 277,
      "Ġbe": 278,
      "uc": 279,
      "Ġwith": 280,
      "ĠA": 281,
      "im": 282,
      "ĠI": 283,
      "ce": 284,
      "ut": 285,
      "Ġpro": 286,
      "ts": 287,
      "Ġg": 288,
      "Ġcon": 289,
      "ver": 290,
      "ff": 291,
      "di": 292,
      "st": 293,
      "ow": 294,
      "ir": 295,
      "Ġor": 296,
      "ĠC": 297,
      "op": 298,
      "ĠThe": 299,
      "ab": 300,
      "one": 301,
      "tic": 302,
      "el": 303,
      "ĠS": 304,
      "Ġal": 305,
      "Ġus": 306,
      "ate": 307,
      "ig": 308,
      "Ġac": 309,
      "um": 310,
      "ug": 311,
      "Ġ1": 312,
      "ri": 313,
      "Ġst": 314,
      "est": 315,
      "Ġby": 316,
      "her": 317,
      "Ġthat": 318,
      "od": 319,
      "ay": 320,
      "ment": 321,
      "oc": 322,
      "Ġv": 323,
      "th": 324,
      "si": 325,
      "ep": 326,
      "Ġit": 327,
      "res": 328,
      "Ġcom": 329,
      "Ġ2": 330,
      "ĠP": 331,
      "tive": 332,
      "Ġare": 333,
      "em": 334,
      "Ġinc": 335,
      "duc": 336,
      "ated": 337,
      "ad": 338,
      "ide": 339,
      "Ġeff": 340,
      "ity": 341,
      "Ġwas": 342,
      "rom": 343,
      "ical": 344,
      "Ġwh": 345,
      "ĠIn": 346,
      "se": 347,
      "Ġex": 348,
      "ĠD": 349,
      "Ġon": 350,
      "ain": 351,
      "ist": 352,
      "Ġr": 353,
      "ĠM": 354,
      "ag": 355,
      "und": 356,
      "pp": 357,
      "Ġad": 358,
      "Ġeffec": 359,
      "yl": 360,
      "ase": 361,
      "ud": 362,
      "qu": 363,
      "reat": 364,
      "red": 365,
      "ia": 366,
      "ess": 367,
      "og": 368,
      "Ġcan": 369,
      "ĠH": 370,
      "Ġat": 371,
      "ant": 372,
      "if": 373,
      "Ġch": 374,
      "hen": 375,
      "pt": 376,
      "ĠB": 377,
      "ĠE": 378,
      "iz": 379,
      "ĠF": 380,
      "Ġ20": 381,
      "Ġhas": 382,
      "Ġle": 383,
      "Ġde": 384,
      "ch": 385,
      "ren": 386,
      "ther": 387,
      "Ġhe": 388,
      "Ġsy": 389,
      "ub": 390,
      "ore": 391,
      "rug": 392,
      "ĠN": 393,
      "Ġnot": 394,
      "ers": 395,
      "ran": 396,
      "ĠU": 397,
      "Ġha": 398,
      "Ġtreat": 399,
      "ted": 400,
      "Ġdi": 401,
      "end": 402,
      "Ġdis": 403,
      "ally": 404,
      "ure": 405,
      "ich": 406,
      "Ġres": 407,
      "Ġbeen": 408,
      "Ġint": 409,
      "so": 410,
      "ous": 411,
      "Ġcont": 412,
      "Ġmet": 413,
      "Ġfrom": 414,
      "vel": 415,
      "Ġse": 416,
      "Ġused": 417,
      "igh": 418,
      "yp": 419,
      "ak": 420,
      "Ġwe": 421,
      "ph": 422,
      "ose": 423,
      "reas": 424,
      "aus": 425,
      "tions": 426,
      "Ġalso": 427,
      "Ġcomp": 428,
      "Ġhave": 429,
      "ell": 430,
      "Ġdrug": 431,
      "ib": 432,
      "Ġwhich": 433,
      "Ġsh": 434,
      "Ġmay": 435,
      "up": 436,
      "lud": 437,
      "ati": 438,
      "Ġpre": 439,
      "Ġab": 440,
      "ents": 441,
      "ĠL": 442,
      "Ġ19": 443,
      "Ġim": 444,
      "ĠR": 445,
      "Ġuse": 446,
      "Ġother": 447,
      "Ġne": 448,
      "ox": 449,
      "able": 450,
      "gen": 451,
      "Ġtreatment": 452,
      "Ġeffects": 453,
      "uch": 454,
      "Ġapp": 455,
      "ĠG": 456,
      "),": 457,
      "ĠO": 458,
      "Ġsp": 459,
      "ary": 460,
      "orm": 461,
      "and": 462,
      "ĠIt": 463,
      "Ġcl": 464,
      "Ġinclud": 465,
      "ound": 466,
      "ood": 467,
      "Ġits": 468,
      "tiv": 469,
      "ill": 470,
      "ion": 471,
      "ugh": 472,
      "te": 473,
      "ong": 474,
      "hy": 475,
      "ost": 476,
      "iv": 477,
      "Ġk": 478,
      "ome": 479,
      "'s": 480,
      "por": 481,
      "Ġen": 482,
      "az": 483,
      "act": 484,
      "rap": 485,
      "ue": 486,
      "âĢ": 487,
      "ations": 488,
      "sion": 489,
      "Ġag": 490,
      "Ġ\"": 491,
      "ence": 492,
      "ap": 493,
      "ates": 494,
      "ular": 495,
      "Ġmed": 496,
      "Ġli": 497,
      "all": 498,
      "Ġco": 499,
      ").": 500,
      "00": 501,
      "Ġthis": 502,
      "Ġanti": 503,
      "Ġpar": 504,
      "Ġbl": 505,
      "Ġproduc": 506,
      "ors": 507,
      "Ġform": 508,
      "Ġsuch": 509,
      "Ġinf": 510,
      "ast": 511,
      "min": 512,
      "ĠW": 513,
      "Ġpl": 514,
      "ct": 515,
      "cy": 516,
      "ved": 517,
      "ance": 518,
      "rop": 519,
      "terone": 520,
      "Ġest": 521,
      "pl": 522,
      "out": 523,
      "ges": 524,
      "low": 525,
      "age": 526,
      "Ġwere": 527,
      "ause": 528,
      "Ġun": 529,
      "ration": 530,
      "Ġper": 531,
      "our": 532,
      "Ġbut": 533,
      "Ġthan": 534,
      "ip": 535,
      "Ġris": 536,
      "ies": 537,
      "Ġpati": 538,
      "ĠTh": 539,
      "ail": 540,
      "Ġam": 541,
      "ge": 542,
      "ke": 543,
      "own": 544,
      "Ġgen": 545,
      "als": 546,
      "ind": 547,
      "Ġrec": 548,
      "ear": 549,
      "ory": 550,
      "ram": 551,
      "hib": 552,
      "ame": 553,
      "cept": 554,
      "Ġpres": 555,
      "Ġrisk": 556,
      "ign": 557,
      "enti": 558,
      "Ġreduc": 559,
      "vid": 560,
      "rol": 561,
      "ative": 562,
      "radi": 563,
      "oid": 564,
      "âĢĵ": 565,
      "Ġmore": 566,
      "Ġsub": 567,
      "uld": 568,
      "iti": 569,
      "Ġlevel": 570,
      "amine": 571,
      "Ġincreas": 572,
      "Ġund": 573,
      "co": 574,
      "Ġsu": 575,
      "eth": 576,
      "Ġ3": 577,
      "ĠUn": 578,
      "ven": 579,
      "per": 580,
      "Ġman": 581,
      "ne": 582,
      "Ġfound": 583,
      "ten": 584,
      "Ġ5": 585,
      "Ġsyn": 586,
      "ĠJ": 587,
      "Ġinhib": 588,
      "ord": 589,
      "dro": 590,
      "cer": 591,
      "ism": 592,
      "Ġmg": 593,
      "ie": 594,
      "ole": 595,
      "abol": 596,
      "ial": 597,
      "rans": 598,
      "Ġover": 599,
      "ric": 600,
      "the": 601,
      "ĠSt": 602,
      "ited": 603,
      "fter": 604,
      "irst": 605,
      "ob": 606,
      "ult": 607,
      "Ġy": 608,
      "ever": 609,
      "inal": 610,
      "Ġunder": 611,
      "Ġdos": 612,
      "ark": 613,
      "Ġcar": 614,
      "Ġass": 615,
      "mon": 616,
      "av": 617,
      "ines": 618,
      "Ġacid": 619,
      "Ġrel": 620,
      "Ġpe": 621,
      "Ġ201": 622,
      "rib": 623,
      "ile": 624,
      "Ġpatients": 625,
      "Ġfirst": 626,
      "Ġpot": 627,
      "Ġcons": 628,
      "Ġlow": 629,
      "Ġhyp": 630,
      "olog": 631,
      "Ġhigh": 632,
      "Ġph": 633,
      "Ġmetabol": 634,
      "odi": 635,
      "cc": 636,
      "ort": 637,
      "Ġcell": 638,
      "ys": 639,
      "ĠThis": 640,
      "Ġtherap": 641,
      "hed": 642,
      "bin": 643,
      "ace": 644,
      "ight": 645,
      "ath": 646,
      "Ġlevels": 647,
      "yc": 648,
      "Ġrecept": 649,
      "velop": 650,
      "Ġsome": 651,
      "ari": 652,
      "ym": 653,
      "Ġdec": 654,
      "tim": 655,
      "oci": 656,
      "arm": 657,
      "unc": 658,
      "radiol": 659,
      "Ġappro": 660,
      "ble": 661,
      "ific": 662,
      "ect": 663,
      "Ġinter": 664,
      "rogen": 665,
      "ough": 666,
      "Ġactiv": 667,
      "ard": 668,
      "Ġimp": 669,
      "amin": 670,
      "Ġdevelop": 671,
      "Ġgro": 672,
      "minist": 673,
      "Ġwhen": 674,
      "Ġinhibit": 675,
      "ater": 676,
      "Ġconc": 677,
      "ople": 678,
      "Ġafter": 679,
      "lor": 680,
      "udi": 681,
      "Ġtheir": 682,
      "Ġblood": 683,
      "ould": 684,
      "oth": 685,
      "Ġdep": 686,
      "ust": 687,
      "art": 688,
      "rease": 689,
      "Ġpos": 690,
      "Ġno": 691,
      "ized": 692,
      "lic": 693,
      "ffe": 694,
      "Ġresp": 695,
      "ress": 696,
      "Ġall": 697,
      "Ġrepor": 698,
      "ry": 699,
      "Ġmedic": 700,
      "Ġser": 701,
      "ating": 702,
      "Ġsupp": 703,
      "Ġcombin": 704,
      "ild": 705,
      "Ġav": 706,
      "Ġtrans": 707,
      "Ġinto": 708,
      "stem": 709,
      "uring": 710,
      "Ġbet": 711,
      "ility": 712,
      "Ġben": 713,
      "ces": 714,
      "ite": 715,
      "ber": 716,
      "owever": 717,
      "Ġocc": 718,
      "lu": 719,
      "ron": 720,
      "Ġone": 721,
      "ans": 722,
      "amp": 723,
      "ld": 724,
      "Ġpeople": 725,
      "ĠK": 726,
      "Ġmost": 727,
      "ĠÎ": 728,
      "ech": 729,
      "erm": 730,
      "Ġwho": 731,
      "Ġbec": 732,
      "Ġsign": 733,
      "ĠV": 734,
      "ree": 735,
      "Ġstudi": 736,
      "ual": 737,
      "ection": 738,
      "Ġdise": 739,
      "Ġincluding": 740,
      "Ġdo": 741,
      "Ġinclude": 742,
      "Ġthese": 743,
      "Ġmon": 744,
      "Ġsystem": 745,
      "omm": 746,
      "ins": 747,
      "sy": 748,
      "tis": 749,
      "gest": 750,
      "ium": 751,
      "we": 752,
      "ach": 753,
      "Ġ4": 754,
      "omen": 755,
      "erg": 756,
      "Ġmeth": 757,
      "ption": 758,
      "ute": 759,
      "rac": 760,
      "ros": 761,
      "Ġ200": 762,
      "Ġdue": 763,
      "Ġind": 764,
      "ulation": 765,
      "ov": 766,
      "Ġar": 767,
      "Ġoral": 768,
      "Ġtim": 769,
      "ack": 770,
      "Ġgener": 771,
      "Ġmark": 772,
      "Ġtak": 773,
      "Ġhy": 774,
      "Ġtw": 775,
      "azep": 776,
      "rough": 777,
      "Ġeffect": 778,
      "inical": 779,
      "unt": 780,
      "Ġsym": 781,
      "alth": 782,
      "ond": 783,
      "Ġhad": 784,
      "Ġsc": 785,
      "Ġthere": 786,
      "ass": 787,
      "Ġexp": 788,
      "rent": 789,
      "rim": 790,
      "Ġtri": 791,
      "ptom": 792,
      "Ġgl": 793,
      "acter": 794,
      "fic": 795,
      "Ġinj": 796,
      "Ġreg": 797,
      "nown": 798,
      "Ġwor": 799,
      "ens": 800,
      "dition": 801,
      "tain": 802,
      "Ġassoci": 803,
      "Ġfol": 804,
      "ases": 805,
      "Ġtest": 806,
      "til": 807,
      "Ġside": 808,
      "ax": 809,
      "Ġdes": 810,
      "af": 811,
      "Ġdose": 812,
      "Ġincreased": 813,
      "atic": 814,
      "ĠUnited": 815,
      "Ġme": 816,
      "ants": 817,
      "Ġoccur": 818,
      "very": 819,
      "Ġspec": 820,
      "ĠAs": 821,
      "Ġwomen": 822,
      "form": 823,
      "cular": 824,
      "Ġsol": 825,
      "ves": 826,
      "Ġbi": 827,
      "DA": 828,
      "Ġlong": 829,
      "ral": 830,
      "Ġstud": 831,
      "Ġdoses": 832,
      "de": 833,
      "Ġcommon": 834,
      "hem": 835,
      "gesterone": 836,
      "Ġtherapy": 837,
      "ures": 838,
      "ety": 839,
      "Ġsur": 840,
      "Ġdrugs": 841,
      "Ġdisease": 842,
      "ĠAn": 843,
      "Ġhum": 844,
      "ons": 845,
      "Ġcaus": 846,
      "Ġonly": 847,
      "Ġavail": 848,
      "ministration": 849,
      "atory": 850,
      "cess": 851,
      "Ġclinical": 852,
      "Ġsim": 853,
      "ock": 854,
      "ĠAl": 855,
      "are": 856,
      "amide": 857,
      "Ġconcent": 858,
      "Ġtwo": 859,
      "Ġins": 860,
      "Ġcancer": 861,
      "Ġreac": 862,
      "Ġra": 863,
      "Ġmarket": 864,
      "Ġwell": 865,
      "Ġincrease": 866,
      "Ġem": 867,
      "Ġduring": 868,
      "li": 869,
      "ression": 870,
      "Ġox": 871,
      "Ġwhe": 872,
      "ok": 873,
      "Ġstudies": 874,
      "Ġsynthe": 875,
      "ended": 876,
      "Ġavailable": 877,
      "Ġprev": 878,
      "ilar": 879,
      "Ġstudy": 880,
      "osis": 881,
      "ears": 882,
      "Ġ202": 883,
      "Ġsymptom": 884,
      "yt": 885,
      "Ġassociated": 886,
      "Ġro": 887,
      "qui": 888,
      "ex": 889,
      "ital": 890,
      "Ġmod": 891,
      "pir": 892,
      "sive": 893,
      "rain": 894,
      "ody": 895,
      "unction": 896,
      "Ġabout": 897,
      "Ġlike": 898,
      "ogen": 899,
      "ĠHowever": 900,
      "verse": 901,
      "ically": 902,
      "Ġrecomm": 903,
      "Ġeffective": 904,
      "Ġthrough": 905,
      "Ġthey": 906,
      "ults": 907,
      "Ġknown": 908,
      "str": 909,
      "Ġhour": 910,
      "Ġes": 911,
      "ĠStates": 912,
      "utic": 913,
      "oin": 914,
      "Ġtyp": 915,
      "ĠCh": 916,
      "Ġcause": 917,
      "Ġqu": 918,
      "ween": 919,
      "Ġreceptor": 920,
      "ma": 921,
      "Ġreported": 922,
      "gan": 923,
      "Ġcontrol": 924,
      "Ġprote": 925,
      "ness": 926,
      "Ġchan": 927,
      "ont": 928,
      "Ġop": 929,
      "ĠAd": 930,
      "Ġactivity": 931,
      "ethyl": 932,
      "sych": 933,
      "Ġsignific": 934,
      "Ġphen": 935,
      "ays": 936,
      "Ġpain": 937,
      "rand": 938,
      "Ġgroup": 939,
      "Ġ6": 940,
      "Ġup": 941,
      "Ġhydro": 942,
      "raz": 943,
      "Ġob": 944,
      "Ġstr": 945,
      "Ġshould": 946,
      "zym": 947,
      "Ġestradiol": 948,
      "ution": 949,
      "ased": 950,
      "Ġbetween": 951,
      "Ġcol": 952,
      "Ġliver": 953,
      "ational": 954,
      "Ġcombination": 955,
      "gn": 956,
      "Ġrem": 957,
      "Ġvari": 958,
      "ife": 959,
      "Ġout": 960,
      "Ġfe": 961,
      "Ġmin": 962,
      "Ġdiffe": 963,
      "Ġsymptoms": 964,
      "Ġcor": 965,
      "ice": 966,
      "tics": 967,
      "ually": 968,
      "Ġhours": 969,
      "acet": 970,
      "Ġboth": 971,
      "arb": 972,
      "ĠUS": 973,
      "Ġpotenti": 974,
      "ef": 975,
      "ĠAm": 976,
      "Ġsignificant": 977,
      "oph": 978,
      "Ġmen": 979,
      "Ġresult": 980,
      "ious": 981,
      "Ġcells": 982,
      "Ġfollow": 983,
      "mun": 984,
      "ition": 985,
      "ane": 986,
      "line": 987,
      "sible": 988,
      "Ġsm": 989,
      "ger": 990,
      "ix": 991,
      "50": 992,
      "sor": 993,
      "Ġless": 994,
      "iaz": 995,
      "PA": 996,
      "Ġchild": 997,
      "Ġtime": 998,
      "Ġhig": 999,
      "Ġso": 1000,
      "rel": 1001,
      "sis": 1002,
      "Ġext": 1003,
      "crib": 1004,
      "Ġname": 1005,
      "Ġenzym": 1006,
      "osterone": 1007,
      "Ġlead": 1008,
      "ced": 1009,
      "arch": 1010,
      "ive": 1011,
      "tip": 1012,
      "ization": 1013,
      "tern": 1014,
      "Ġur": 1015,
      "vidence": 1016,
      "Ġthose": 1017,
      "ĠHe": 1018,
      "Ġaff": 1019,
      "Ġrequi": 1020,
      "Ġev": 1021,
      "ks": 1022,
      "Ġvit": 1023,
      "Ġtox": 1024,
      "lis": 1025,
      "Ġsec": 1026,
      "ful": 1027,
      "pec": 1028,
      "ulf": 1029,
      "rome": 1030,
      "urop": 1031,
      "Ġnon": 1032,
      "Ġend": 1033,
      "rine": 1034,
      "Ġindic": 1035,
      "Ġprogesterone": 1036,
      "Ġsimilar": 1037,
      "Ġinv": 1038,
      "ency": 1039,
      "ied": 1040,
      "Ġmany": 1041,
      "Ġshow": 1042,
      "Ġapproved": 1043,
      "ared": 1044,
      "erv": 1045,
      "Ġpregn": 1046,
      "Ġbody": 1047,
      "Ġcontain": 1048,
      "Ġbreas": 1049,
      "led": 1050,
      "Ġgiv": 1051,
      "ability": 1052,
      "Ġpartic": 1053,
      "hol": 1054,
      "ake": 1055,
      "Ġ10": 1056,
      "Ġbeing": 1057,
      "Ġpharm": 1058,
      "roduc": 1059,
      "kin": 1060,
      "Ġevidence": 1061,
      "yn": 1062,
      "Ġmus": 1063,
      "Ġanal": 1064,
      "Ġchlor": 1065,
      "vere": 1066,
      "fore": 1067,
      "Ġhal": 1068,
      "Ġmain": 1069,
      "inding": 1070,
      "ting": 1071,
      "Ġrese": 1072,
      "Ġeth": 1073,
      "Ġacet": 1074,
      "Ġwhile": 1075,
      "Ġbenz": 1076,
      "ove": 1077,
      "Ġestrogen": 1078,
      "Ġhigher": 1079,
      "ise": 1080,
      "arge": 1081,
      "Ġj": 1082,
      "Ġdist": 1083,
      "erc": 1084,
      "Ġpub": 1085,
      "icity": 1086,
      "its": 1087,
      "iew": 1088,
      "though": 1089,
      "Ġaddition": 1090,
      "hydro": 1091,
      "Ġbreast": 1092,
      "fer": 1093,
      "ently": 1094,
      "Ġdet": 1095,
      "epam": 1096,
      "Ġagain": 1097,
      "iss": 1098,
      "ici": 1099,
      "Ġacc": 1100,
      "itive": 1101,
      "Ġchem": 1102,
      "Ġbrand": 1103,
      "Ġsal": 1104,
      "amm": 1105,
      "ological": 1106,
      "day": 1107,
      "Ġep": 1108,
      "Ġdisord": 1109,
      "Ġimpro": 1110,
      "Ġif": 1111,
      "Ġusing": 1112,
      "Ġexper": 1113,
      "Ġsug": 1114,
      "iron": 1115,
      "Ġheart": 1116,
      "Ġindi": 1117,
      "Ġtra": 1118,
      "les": 1119,
      "Ġany": 1120,
      "Ġfunction": 1121,
      "acc": 1122,
      "Ġnum": 1123,
      "ily": 1124,
      "dose": 1125,
      "ments": 1126,
      "Ġmedical": 1127,
      "Ġyears": 1128,
      "Ġatt": 1129,
      "ĠFDA": 1130,
      "Ġran": 1131,
      "ered": 1132,
      "Ġ7": 1133,
      "ues": 1134,
      "ities": 1135,
      "term": 1136,
      "Ġrele": 1137,
      "NA": 1138,
      "Ġhis": 1139,
      "ected": 1140,
      "amol": 1141,
      "Ġcardi": 1142,
      "lec": 1143,
      "Ġcent": 1144,
      "Ġadverse": 1145,
      "other": 1146,
      "Ġhealth": 1147,
      "YP": 1148,
      "Ġchildren": 1149,
      "pirin": 1150,
      "Ġcomple": 1151,
      "ade": 1152,
      "Ġ0": 1153,
      "Ġbecause": 1154,
      "io": 1155,
      "tit": 1156,
      "Ġadministration": 1157,
      "ler": 1158,
      "rin": 1159,
      "Ġ8": 1160,
      "Ġexc": 1161,
      "orph": 1162,
      "ĠThere": 1163,
      "eric": 1164,
      "uct": 1165,
      "Ġplas": 1166,
      "Ġreceptors": 1167,
      "Ġcontra": 1168,
      "Ġrespon": 1169,
      "ately": 1170,
      "Ġmem": 1171,
      "ergic": 1172,
      "Ġsevere": 1173,
      "Ġmusc": 1174,
      "Ġsaf": 1175,
      "odiazep": 1176,
      "Ġsever": 1177,
      "Ġele": 1178,
      "der": 1179,
      "Ġpol": 1180,
      "ĠCYP": 1181,
      "Ġhuman": 1182,
      "Ġagainst": 1183,
      "ists": 1184,
      "Ġprim": 1185,
      "Ġdoes": 1186,
      "utamide": 1187,
      "Ġpers": 1188,
      "Ġhalf": 1189,
      "ĠPro": 1190,
      "ites": 1191,
      "edi": 1192,
      "ning": 1193,
      "Ġear": 1194,
      "of": 1195,
      "Ġ9": 1196,
      "Ġoften": 1197,
      "Ġaction": 1198,
      "het": 1199,
      "ĠFor": 1200,
      "ancy": 1201,
      "Ġblock": 1202,
      "ving": 1203,
      "Ġvitamin": 1204,
      "view": 1205,
      "Ġskin": 1206,
      "Ġthen": 1207,
      "any": 1208,
      "Ġinvol": 1209,
      "Ġlower": 1210,
      "Ġactive": 1211,
      "Ġcases": 1212,
      "Î±": 1213,
      "Ġcount": 1214,
      "hes": 1215,
      "Ġflu": 1216,
      "Ġfl": 1217,
      "rations": 1218,
      "ormal": 1219,
      "vers": 1220,
      "Ġ199": 1221,
      "Ġhyper": 1222,
      "19": 1223,
      "Ġindivid": 1224,
      "Ġphy": 1225,
      "Ġpsych": 1226,
      "Ġvacc": 1227,
      "urope": 1228,
      "Ġshown": 1229,
      "Ġsynd": 1230,
      "Ġaut": 1231,
      "Ġfact": 1232,
      "ung": 1233,
      "ural": 1234,
      "Ġprotein": 1235,
      "ĠThese": 1236,
      "Ġreduce": 1237,
      "ĠEurope": 1238,
      "pos": 1239,
      "acetamol": 1240,
      "rect": 1241,
      "lim": 1242,
      "Ġbacter": 1243,
      "Ġwhere": 1244,
      "Ġlim": 1245,
      "inu": 1246,
      "Ġwater": 1247,
      "Ġsmall": 1248,
      "air": 1249,
      "cri": 1250,
      "ene": 1251,
      "Ġsyndrome": 1252,
      "Ġwork": 1253,
      "Ġrecommended": 1254,
      "osp": 1255,
      "Ġdevelopment": 1256,
      "cribed": 1257,
      "Ġgiven": 1258,
      "Ġdisc": 1259,
      "Ġrep": 1260,
      "Ġnew": 1261,
      "ool": 1262,
      "reated": 1263,
      "ysis": 1264,
      "lished": 1265,
      "aj": 1266,
      "eding": 1267,
      "Ġhorm": 1268,
      "ste": 1269,
      "Ġprevent": 1270,
      "Ġpotential": 1271,
      "ĠMed": 1272,
      "Ġrate": 1273,
      "ĠâĢĵ": 1274,
      "Ġconcentrations": 1275,
      "000": 1276,
      "get": 1277,
      "Ġtable": 1278,
      "idne": 1279,
      "ĠNe": 1280,
      "ections": 1281,
      "Ġlarge": 1282,
      "ince": 1283,
      "ĠPh": 1284,
      "dep": 1285,
      "Ġwithin": 1286,
      "Ġwill": 1287,
      "Ġabsor": 1288,
      "ination": 1289,
      "Ġadd": 1290,
      "hetamine": 1291,
      "ties": 1292,
      "Ġnit": 1293,
      "Ġdecreas": 1294,
      "Ġprocess": 1295,
      "teroid": 1296,
      "lamm": 1297,
      "Ġthree": 1298,
      "Ġvery": 1299,
      "Ġmarketed": 1300,
      "port": 1301,
      "echan": 1302,
      "ĠÎ¼": 1303,
      "Ġprot": 1304,
      "Ġresearch": 1305,
      "Ġantib": 1306,
      "Ġneed": 1307,
      "assi": 1308,
      "raw": 1309,
      "Ġdifferent": 1310,
      "acy": 1311,
      "old": 1312,
      "Ġfail": 1313,
      "Ġplasma": 1314,
      "Ġpress": 1315,
      "ale": 1316,
      "Ġcat": 1317,
      "Ġintra": 1318,
      "ality": 1319,
      "osph": 1320,
      "ms": 1321,
      "Ġdeath": 1322,
      "Ġresults": 1323,
      "othe": 1324,
      "Ġbenzodiazep": 1325,
      "Ġcompound": 1326,
      "fact": 1327,
      "Ġca": 1328,
      "Ġmechan": 1329,
      "Ġinduc": 1330,
      "Ġkidne": 1331,
      "Ġtestosterone": 1332,
      "par": 1333,
      "cohol": 1334,
      "ajor": 1335,
      "Ġpat": 1336,
      "Ġreview": 1337,
      "Ġret": 1338,
      "Ġval": 1339,
      "ature": 1340,
      "ology": 1341,
      "els": 1342,
      "actone": 1343,
      "usion": 1344,
      "Ġdem": 1345,
      "alc": 1346,
      "Ġseveral": 1347,
      "Ġimmun": 1348,
      "onist": 1349,
      "ages": 1350,
      "Ġtiss": 1351,
      "ior": 1352,
      "fe": 1353,
      "Ġnam": 1354,
      "ries": 1355,
      "Ġaspirin": 1356,
      "ule": 1357,
      "ective": 1358,
      "Ġthough": 1359,
      "inyl": 1360,
      "Ġvia": 1361,
      "Ġcle": 1362,
      "Ġbrain": 1363,
      "echn": 1364,
      "Ġneu": 1365,
      "ulin": 1366,
      "ish": 1367,
      "oss": 1368,
      "Ġmajor": 1369,
      "Ġtrials": 1370,
      "Ġfollowing": 1371,
      "Ġinjection": 1372,
      "Ġwould": 1373,
      "ru": 1374,
      "ĠDrug": 1375,
      "Ġmethod": 1376,
      "cep": 1377,
      "Ġder": 1378,
      "alled": 1379,
      "ardi": 1380,
      "Ġadv": 1381,
      "Ġanim": 1382,
      "Ġreduced": 1383,
      "Ġant": 1384,
      "Ġwee": 1385,
      "Ġsulf": 1386,
      "Ġmic": 1387,
      "elf": 1388,
      "ditions": 1389,
      "fied": 1390,
      "Ġpregnancy": 1391,
      "ascular": 1392,
      "Ġgast": 1393,
      "Ġprog": 1394,
      "estradiol": 1395,
      "Ġgene": 1396,
      "nal": 1397,
      "Ġproduct": 1398,
      "Ġnumber": 1399,
      "eutic": 1400,
      "Ġgreat": 1401,
      "bo": 1402,
      "Ġproduction": 1403,
      "itis": 1404,
      "rof": 1405,
      "iting": 1406,
      "Ġ50": 1407,
      "Ġmedication": 1408,
      "Ġpart": 1409,
      "hyd": 1410,
      ".,": 1411,
      "azole": 1412,
      "Ġsame": 1413,
      "Ġmonth": 1414,
      "renal": 1415,
      "ian": 1416,
      "Ġpatient": 1417,
      "Ġtaken": 1418,
      "Ġcould": 1419,
      "Ġconditions": 1420,
      "Ġ197": 1421,
      "\".": 1422,
      "omp": 1423,
      "Ġamo": 1424,
      "Ġ198": 1425,
      "Ġdeveloped": 1426,
      "ensi": 1427,
      "Ġdel": 1428,
      "Ġallow": 1429,
      "Ġincreases": 1430,
      "ID": 1431,
      "ances": 1432,
      "Ġstruct": 1433,
      "ang": 1434,
      "ick": 1435,
      "Ġlab": 1436,
      "val": 1437,
      "Ġsubst": 1438,
      "que": 1439,
      "Ġalcohol": 1440,
      "Ġdepend": 1441,
      "Ġacute": 1442,
      "Ġderiv": 1443,
      "Ġpo": 1444,
      "Ġusually": 1445,
      "iod": 1446,
      "Ġconf": 1447,
      "Ġfood": 1448,
      "Ġgluc": 1449,
      "Ġorgan": 1450,
      "olactone": 1451,
      "Ġpressure": 1452,
      "ĠHealth": 1453,
      "odium": 1454,
      "row": 1455,
      "Ġsecond": 1456,
      "ns": 1457,
      "ata": 1458,
      "ects": 1459,
      "irc": 1460,
      "iness": 1461,
      "vention": 1462,
      "Ġsynthesis": 1463,
      "Ġgrow": 1464,
      "Ġpharmac": 1465,
      "xim": 1466,
      "draw": 1467,
      "Ġcompared": 1468,
      "Ġproducts": 1469,
      "Ġstim": 1470,
      "ycin": 1471,
      "ronic": 1472,
      "eti": 1473,
      "Ġcarb": 1474,
      "Ġmul": 1475,
      "Ġmechanism": 1476,
      "Ġpost": 1477,
      "iazepam": 1478,
      "Ġproper": 1479,
      "Ġshort": 1480,
      "Ġpath": 1481,
      "Ġpur": 1482,
      "ision": 1483,
      "Ġrelative": 1484,
      "Ġparacetamol": 1485,
      "ize": 1486,
      "requ": 1487,
      "rapy": 1488,
      "ample": 1489,
      "Ġloss": 1490,
      "Ġphys": 1491,
      "ĠAmeric": 1492,
      "ere": 1493,
      "life": 1494,
      "Ġbir": 1495,
      "Ġ196": 1496,
      "SA": 1497,
      "phen": 1498,
      "emia": 1499,
      "Ġdef": 1500,
      "icacy": 1501,
      "idered": 1502,
      "Ġantag": 1503,
      "Ġhead": 1504,
      "Ġrece": 1505,
      "Ġu": 1506,
      "sequ": 1507,
      "Ġparticular": 1508,
      "Ġdays": 1509,
      "Ġhel": 1510,
      "Ġcer": 1511,
      "Ġthem": 1512,
      "ially": 1513,
      "Ġwithout": 1514,
      "enz": 1515,
      "Ġpop": 1516,
      "Ġ18": 1517,
      "Ġid": 1518,
      "round": 1519,
      "Ġperform": 1520,
      "urther": 1521,
      "Ġmetabolism": 1522,
      "Ġdepression": 1523,
      "Ġloc": 1524,
      "Ġcase": 1525,
      "Ġconsidered": 1526,
      "Ġcap": 1527,
      "Ġwar": 1528,
      "Ġplace": 1529,
      "Ġenzyme": 1530,
      "och": 1531,
      "Ġcountries": 1532,
      ".\"": 1533,
      "ritis": 1534,
      "Ġexpos": 1535,
      "aceutic": 1536,
      "tivity": 1537,
      "uals": 1538,
      "tig": 1539,
      "Ġchar": 1540,
      "ĠEuropean": 1541,
      "Ġprost": 1542,
      "anti": 1543,
      "rob": 1544,
      "gency": 1545,
      "Ġtechn": 1546,
      "ental": 1547,
      "me": 1548,
      "ĠZ": 1549,
      "Ġobs": 1550,
      "inylestradiol": 1551,
      "Ġmuscle": 1552,
      "Ġhormone": 1553,
      "atin": 1554,
      "Ġdiff": 1555,
      "icill": 1556,
      "Ġamp": 1557,
      "ufact": 1558,
      "icalutamide": 1559,
      "Ġintroduc": 1560,
      "tical": 1561,
      "ĠSome": 1562,
      "Ġinfections": 1563,
      "ĠCl": 1564,
      "Ġrat": 1565,
      "ll": 1566,
      "ither": 1567,
      "cription": 1568,
      "Ġresist": 1569,
      "Ġmole": 1570,
      "Ġbinding": 1571,
      "Ġnore": 1572,
      "20": 1573,
      "Ġefficacy": 1574,
      "Ġhep": 1575,
      "Ġexcre": 1576,
      "Ġreactions": 1577,
      "Ġsex": 1578,
      "ulations": 1579,
      "ĠOn": 1580,
      "int": 1581,
      "rence": 1582,
      "Ġbenef": 1583,
      "Ġwithdraw": 1584,
      "Ġurine": 1585,
      "Ġsus": 1586,
      "ator": 1587,
      "ĠCan": 1588,
      "arc": 1589,
      "Ġtoxicity": 1590,
      "tal": 1591,
      "aw": 1592,
      "Ġcommonly": 1593,
      "Ġrest": 1594,
      "rit": 1595,
      "Ġrelated": 1596,
      "lder": 1597,
      "agn": 1598,
      "Ġher": 1599,
      "Ġbefore": 1600,
      "mit": 1601,
      "ised": 1602,
      "Ġcaused": 1603,
      "ules": 1604,
      "Ġexperi": 1605,
      "Ġhelp": 1606,
      "Ġconcentration": 1607,
      "outh": 1608,
      "venous": 1609,
      "ury": 1610,
      "Ġelim": 1611,
      "Ġearly": 1612,
      "10": 1613,
      "ics": 1614,
      "Ġsodium": 1615,
      "Ġkidney": 1616,
      "Ġmy": 1617,
      "ĠEn": 1618,
      "ides": 1619,
      "ministered": 1620,
      "Ġtaking": 1621,
      "Ġimprove": 1622,
      "Ġage": 1623,
      "Ġdisco": 1624,
      "Ġcalled": 1625,
      "ty": 1626,
      "ross": 1627,
      "rot": 1628,
      "Ġbased": 1629,
      "ospital": 1630,
      "Ġoverdose": 1631,
      "ĠÎ¼g": 1632,
      "like": 1633,
      "Ġmanufact": 1634,
      "ension": 1635,
      "ters": 1636,
      "Ġremain": 1637,
      "Ġcirc": 1638,
      "oton": 1639,
      "use": 1640,
      "dom": 1641,
      "ogn": 1642,
      "Ġbirth": 1643,
      "Ġcombined": 1644,
      "utes": 1645,
      "Ġmonths": 1646,
      "Ġindividuals": 1647,
      "Ġproduce": 1648,
      "Ġnames": 1649,
      "Ġbeh": 1650,
      "ring": 1651,
      "Ġproble": 1652,
      "urrent": 1653,
      "Ġprogest": 1654,
      "inary": 1655,
      "Ġcyc": 1656,
      "Ġmade": 1657,
      "Ġsuggest": 1658,
      "Ġalthough": 1659,
      "Ġfrequ": 1660,
      "Ġmuch": 1661,
      "estinal": 1662,
      "ĠCO": 1663,
      "over": 1664,
      "inc": 1665,
      "Ġcalc": 1666,
      "Ġfat": 1667,
      "Ġamong": 1668,
      "Ġadults": 1669,
      "illion": 1670,
      "zed": 1671,
      "idine": 1672,
      "Ġhumans": 1673,
      "rad": 1674,
      "Ġtherapeutic": 1675,
      "Ġseiz": 1676,
      "âĢĶ": 1677,
      "Ġiniti": 1678,
      "leep": 1679,
      "Ġgu": 1680,
      "Ġdys": 1681,
      "ling": 1682,
      "olone": 1683,
      "Ġrecommend": 1684,
      "ingle": 1685,
      "Ġte": 1686,
      "Ġhist": 1687,
      "ramine": 1688,
      "ĠSc": 1689,
      "con": 1690,
      "dine": 1691,
      "Ġtreated": 1692,
      "Ġdop": 1693,
      "Ġequ": 1694,
      "Ġvir": 1695,
      "Ġvarious": 1696,
      "ioid": 1697,
      "ward": 1698,
      "oh": 1699,
      "Ġrequired": 1700,
      "Ġimport": 1701,
      "erate": 1702,
      "land": 1703,
      "Ġprom": 1704,
      "Ġtrial": 1705,
      "Ġset": 1706,
      "Ġpred": 1707,
      "Ġweight": 1708,
      "Ġcertain": 1709,
      "Ġble": 1710,
      "Ġsince": 1711,
      "Ġprac": 1712,
      "Ġpossible": 1713,
      "Ġrap": 1714,
      "icillin": 1715,
      "Ġfailure": 1716,
      "ember": 1717,
      "ye": 1718,
      "Ġoff": 1719,
      "arin": 1720,
      "medi": 1721,
      "Ġinterac": 1722,
      "Ġdata": 1723,
      "Ġproduced": 1724,
      "Ġtop": 1725,
      "azepam": 1726,
      "Ġworld": 1727,
      "Ġpublished": 1728,
      "Ġinhibitor": 1729,
      "Ġdisorder": 1730,
      "Ġperson": 1731,
      "Ġve": 1732,
      "Ġexample": 1733,
      "till": 1734,
      "Ġmemb": 1735,
      "ording": 1736,
      "Ġchronic": 1737,
      "urn": 1738,
      "Ġethinylestradiol": 1739,
      "Ġdam": 1740,
      "Ġadministered": 1741,
      "Ġref": 1742,
      "Ġcyt": 1743,
      "Ġtablets": 1744,
      "Ġ100": 1745,
      "ES": 1746,
      "Ġtem": 1747,
      "Ġsuc": 1748,
      "ĠFood": 1749,
      "eld": 1750,
      "ĠRe": 1751,
      "Ġdirect": 1752,
      "Ġdecrease": 1753,
      "Ġterm": 1754,
      "Ġnec": 1755,
      "phrine": 1756,
      "Ġprovid": 1757,
      "anc": 1758,
      "ausea": 1759,
      "Ġ30": 1760,
      "ovascular": 1761,
      "ison": 1762,
      "ĠMedic": 1763,
      "Ġeven": 1764,
      "Ġmeas": 1765,
      "Ġcauses": 1766,
      "Ġsingle": 1767,
      "cl": 1768,
      "oma": 1769,
      "Ġmal": 1770,
      "uble": 1771,
      "Ġrare": 1772,
      "Ġauth": 1773,
      "Ġsignificantly": 1774,
      "Ġlife": 1775,
      "Ġrepl": 1776,
      "ĠAt": 1777,
      "Ġresponse": 1778,
      "ĠOther": 1779,
      "Ġwide": 1780,
      "Ġdid": 1781,
      "lammatory": 1782,
      "Ġvag": 1783,
      "Ġ12": 1784,
      "eral": 1785,
      "ĠPharm": 1786,
      "way": 1787,
      "Ġed": 1788,
      "fici": 1789,
      "Ġmethyl": 1790,
      "Ġnormal": 1791,
      "Ġchemical": 1792,
      "Ġvol": 1793,
      "Ġhowever": 1794,
      "Ġreceiv": 1795,
      "onstr": 1796,
      "Ġstate": 1797,
      "Ġconsum": 1798,
      "Ġapplic": 1799,
      "Ġlonger": 1800,
      "rate": 1801,
      "ĠAc": 1802,
      "Ġweeks": 1803,
      "Ġfew": 1804,
      "Ġeither": 1805,
      "omes": 1806,
      "lective": 1807,
      "inf": 1808,
      "arget": 1809,
      "Ġact": 1810,
      "Ġpresent": 1811,
      "pro": 1812,
      "stit": 1813,
      "xi": 1814,
      "erved": 1815,
      "pecially": 1816,
      "ired": 1817,
      "ĠAdministration": 1818,
      "ĠDNA": 1819,
      "Ġrelease": 1820,
      "Ġoxid": 1821,
      "Î²": 1822,
      "ĠLe": 1823,
      "Ġweak": 1824,
      "Ġgenerally": 1825,
      "Ġprol": 1826,
      "Ġir": 1827,
      "Ġlater": 1828,
      "ĠEx": 1829,
      "ĠRes": 1830,
      "Ġantic": 1831,
      "Ġrange": 1832,
      "hydrox": 1833,
      "ode": 1834,
      "uscular": 1835,
      "Ġreaction": 1836,
      "Ġtissue": 1837,
      "Ġver": 1838,
      "Ġadrenal": 1839,
      "Ġpositive": 1840,
      "Ġrapid": 1841,
      "Ġconver": 1842,
      "gery": 1843,
      "ĠQ": 1844,
      "ĠCon": 1845,
      "Ġsleep": 1846,
      "MA": 1847,
      "Ġreduction": 1848,
      "Ġstimul": 1849,
      "ffeine": 1850,
      "Ġproperties": 1851,
      "man": 1852,
      "arr": 1853,
      "Ġslow": 1854,
      "Ġnausea": 1855,
      "olol": 1856,
      "Ġenzymes": 1857,
      "ĠY": 1858,
      "isterone": 1859,
      "ina": 1860,
      "Ġidenti": 1861,
      "ĠWhen": 1862,
      "Ġchanges": 1863,
      "Ġperiod": 1864,
      "ĠII": 1865,
      "Ġseroton": 1866,
      "Tool": 1867,
      "Tooltip": 1868,
      "tle": 1869,
      "ield": 1870,
      "ured": 1871,
      "eness": 1872,
      "Ġacetate": 1873,
      "Ġbehav": 1874,
      "Ġday": 1875,
      "uration": 1876,
      "Ġvaccine": 1877,
      "orphine": 1878,
      "Ġelect": 1879,
      "ortic": 1880,
      "Ġgreater": 1881,
      "Ġantibio": 1882,
      "Ġtimes": 1883,
      "Ġtype": 1884,
      "otherapy": 1885,
      "Ġintravenous": 1886,
      "Ġfurther": 1887,
      "asis": 1888,
      "ximately": 1889,
      "Ġbleeding": 1890,
      "Ġstill": 1891,
      "\",": 1892,
      "17": 1893,
      "uted": 1894,
      "Ġfour": 1895,
      "su": 1896,
      "Ġandrogen": 1897,
      "Ġsafety": 1898,
      "Ġwithdrawal": 1899,
      "Ġhydrox": 1900,
      "ygen": 1901,
      "Ġgeneral": 1902,
      "Ġhem": 1903,
      "Ġdiet": 1904,
      "Ġbenzodiazepines": 1905,
      "ival": 1906,
      "Ġmetabolites": 1907,
      "methyl": 1908,
      "Ġcare": 1909,
      "assium": 1910,
      "Ġlit": 1911,
      "Ġtoler": 1912,
      "ening": 1913,
      "Ġinfection": 1914,
      "Ġfil": 1915,
      "rial": 1916,
      "Ġcardiovascular": 1917,
      "chlor": 1918,
      "ontinu": 1919,
      "Ġtr": 1920,
      "ermin": 1921,
      "Ġmedications": 1922,
      "BA": 1923,
      "uron": 1924,
      "Ġspecific": 1925,
      "ffici": 1926,
      "Ġinhibitors": 1927,
      "Ġgrowth": 1928,
      "Ġdecreased": 1929,
      "yle": 1930,
      "endent": 1931,
      "Ġorig": 1932,
      "arily": 1933,
      "HT": 1934,
      "Ġbone": 1935,
      "Ġcharacter": 1936,
      "Ġer": 1937,
      "Ġintroduced": 1938,
      "Ġshowed": 1939,
      "tiple": 1940,
      "Ġstand": 1941,
      "Ġda": 1942,
      "Ġothers": 1943,
      "lyc": 1944,
      "Ġspiron": 1945,
      "thisterone": 1946,
      "Ġdemonstr": 1947,
      "Ġdisorders": 1948,
      "aneous": 1949,
      "ider": 1950,
      "ĠWh": 1951,
      "Ġspecies": 1952,
      "Ġsed": 1953,
      "ucle": 1954,
      "Ġoccurs": 1955,
      "Ġdosage": 1956,
      "Ġmix": 1957,
      "hea": 1958,
      "Ġspironolactone": 1959,
      "Ġtarget": 1960,
      "ink": 1961,
      "lement": 1962,
      "Ġagent": 1963,
      "tiveness": 1964,
      "ft": 1965,
      "Ġyear": 1966,
      "ĠÎ²": 1967,
      ")-": 1968,
      "rec": 1969,
      "Ġstrong": 1970,
      "Ġespecially": 1971,
      "Ġdescribed": 1972,
      "Ġimportant": 1973,
      "Ġinflu": 1974,
      "read": 1975,
      "Ġclass": 1976,
      "oint": 1977,
      "Ġ195": 1978,
      "rone": 1979,
      "Ġ17": 1980,
      "orb": 1981,
      "Ġinhibition": 1982,
      "Ġprogram": 1983,
      "Ġanxi": 1984,
      "Ġtub": 1985,
      "Ġnat": 1986,
      "ings": 1987,
      "ramuscular": 1988,
      "intestinal": 1989,
      "Ġgastro": 1990,
      "amate": 1991,
      "Ġpotent": 1992,
      "omet": 1993,
      "ĠEst": 1994,
      "aking": 1995,
      "ged": 1996,
      "times": 1997,
      "acin": 1998,
      "Ġcontaining": 1999,
      "ril": 2000,
      "Ġmo": 2001,
      "Ġheadac": 2002,
      "rane": 2003,
      "Ġbicalutamide": 2004,
      "Ġcontracep": 2005,
      "ĠNew": 2006,
      "ivers": 2007,
      "less": 2008,
      "Ġsynthesi": 2009,
      "Ġinform": 2010,
      "Ġeach": 2011,
      "Ġdex": 2012,
      "Ġbind": 2013,
      "Ġseizures": 2014,
      "ĠAlthough": 2015,
      "Ġaround": 2016,
      "Ġsolution": 2017,
      "ills": 2018,
      "ĠThey": 2019,
      "Ġabsorption": 2020,
      "Ġmust": 2021,
      "Ġcentral": 2022,
      "Ġsurgery": 2023,
      "Ġprof": 2024,
      "Ġdamage": 2025,
      "itor": 2026,
      "ept": 2027,
      "rox": 2028,
      "Ġcalcium": 2029,
      "aid": 2030,
      "Ġauthor": 2031,
      "ret": 2032,
      "Ġbel": 2033,
      "Ġ15": 2034,
      "oles": 2035,
      "Ġopioid": 2036,
      "go": 2037,
      "Ġincreasing": 2038,
      "Ġleast": 2039,
      "omiting": 2040,
      "Ġexpl": 2041,
      "sib": 2042,
      "Ġdiazepam": 2043,
      "icol": 2044,
      "Ġdopamine": 2045,
      "Ġlev": 2046,
      "Ġlip": 2047,
      "sia": 2048,
      "no": 2049,
      "ĠDES": 2050,
      "Ġprov": 2051,
      "ĠSp": 2052,
      "Ġdefici": 2053,
      "Ġphosph": 2054,
      "ert": 2055,
      "bed": 2056,
      "Ġlimited": 2057,
      "Ġfam": 2058,
      "mia": 2059,
      "Ġ[": 2060,
      "ĠAmerican": 2061,
      "mic": 2062,
      "Ġanother": 2063,
      "Ġeffectiveness": 2064,
      "Ġclear": 2065,
      "ions": 2066,
      "Ġbio": 2067,
      "ada": 2068,
      "azine": 2069,
      "inol": 2070,
      "hing": 2071,
      "tional": 2072,
      "12": 2073,
      "Ġapproximately": 2074,
      "gative": 2075,
      "Ġintramuscular": 2076,
      "Ġforms": 2077,
      "Ġserotonin": 2078,
      "Ġpow": 2079,
      "Ġimpair": 2080,
      "induc": 2081,
      "Ġmultiple": 2082,
      "NN": 2083,
      "Ġamphetamine": 2084,
      "Ġamount": 2085,
      "Ġincid": 2086,
      "Ġexposure": 2087,
      "Ġindicated": 2088,
      "aine": 2089,
      "Ġdoc": 2090,
      "vestig": 2091,
      "umab": 2092,
      "Ġobserved": 2093,
      "Ġconcer": 2094,
      "Ġproteins": 2095,
      "ocortic": 2096,
      "Ġmetabolized": 2097,
      "Ġenh": 2098,
      "ones": 2099,
      "Ġsold": 2100,
      "Ġmolec": 2101,
      "Ġlikely": 2102,
      "Ġmillion": 2103,
      "ission": 2104,
      "vered": 2105,
      "Ġtoxic": 2106,
      "Ġresistance": 2107,
      "Ġreducing": 2108,
      "Ġdiscontinu": 2109,
      "Ġpotassium": 2110,
      "ner": 2111,
      "Ġsubj": 2112,
      "Ġsupport": 2113,
      "Ġent": 2114,
      "ull": 2115,
      "aceutical": 2116,
      "Ġevents": 2117,
      "Ġtreating": 2118,
      "ĠÎ±": 2119,
      "Ġsci": 2120,
      "Ġnerv": 2121,
      "Ġvomiting": 2122,
      "Ġstudied": 2123,
      "las": 2124,
      "Ġrequire": 2125,
      "Ġserious": 2126,
      "inity": 2127,
      "atric": 2128,
      "Ġpen": 2129,
      "Ġbo": 2130,
      "Ġprescription": 2131,
      "Ġproced": 2132,
      "cin": 2133,
      "Ġet": 2134,
      "gre": 2135,
      "Ġprimary": 2136,
      "razole": 2137,
      "Ġavoid": 2138,
      "lo": 2139,
      "Ġâ": 2140,
      "odone": 2141,
      "Ġul": 2142,
      "Ġlack": 2143,
      "Ġvis": 2144,
      "osed": 2145,
      "Ġz": 2146,
      "ogenic": 2147,
      "ĠAust": 2148,
      "phyl": 2149,
      "Ġprop": 2150,
      "Ġappears": 2151,
      "ĠDi": 2152,
      "olar": 2153,
      "ĠCo": 2154,
      "ithium": 2155,
      "Ġtum": 2156,
      "alysis": 2157,
      "Ġchann": 2158,
      "Ġhospital": 2159,
      "amphen": 2160,
      "amphenicol": 2161,
      "Ġgeneric": 2162,
      "Ġpri": 2163,
      "Ġparticularly": 2164,
      "Ġcomplex": 2165,
      "Ġdistrib": 2166,
      "Ġinvestig": 2167,
      "Ġsup": 2168,
      "esthe": 2169,
      "Ġlo": 2170,
      "ĠPhen": 2171,
      "Ġfree": 2172,
      "nis": 2173,
      "Ġthrom": 2174,
      "Ġfac": 2175,
      "arbital": 2176,
      "..": 2177,
      "Ġprepar": 2178,
      "Ġvaginal": 2179,
      "ferred": 2180,
      "Ġcaffeine": 2181,
      "Ġpublic": 2182,
      "nia": 2183,
      "Ġthus": 2184,
      "Ġbacteria": 2185,
      "Ġnervous": 2186,
      "ract": 2187,
      "Ġmetabolite": 2188,
      "related": 2189,
      "ason": 2190,
      "roph": 2191,
      "Ġability": 2192,
      "icated": 2193,
      "ĠPar": 2194,
      "Ġsometimes": 2195,
      "ieved": 2196,
      "inephrine": 2197,
      "oper": 2198,
      "izing": 2199,
      "Ġfem": 2200,
      "Ġagonist": 2201,
      "Ġimpl": 2202,
      "Ġuntil": 2203,
      "induced": 2204,
      "Ġleg": 2205,
      "raph": 2206,
      "ĠIts": 2207,
      "icot": 2208,
      "Ġalone": 2209,
      "Ġexcreted": 2210,
      "fold": 2211,
      "Ġsequ": 2212,
      "ĠOr": 2213,
      "omer": 2214,
      "Ġproblems": 2215,
      "Ġaltern": 2216,
      "Ġgroups": 2217,
      "Ġbecame": 2218,
      "Ġdesign": 2219,
      "Ġprec": 2220,
      "rid": 2221,
      "Ġdaily": 2222,
      "Ġsw": 2223,
      "cell": 2224,
      "occ": 2225,
      "let": 2226,
      "ABA": 2227,
      "aly": 2228,
      "Ġach": 2229,
      "Ġelimination": 2230,
      "Ġrelatively": 2231,
      "Ġtypically": 2232,
      "depress": 2233,
      "Ġwidely": 2234,
      "Ġcre": 2235,
      "ĠGerm": 2236,
      "Ġly": 2237,
      "Ġleading": 2238,
      "atives": 2239,
      "ork": 2240,
      "ytoin": 2241,
      "ocyt": 2242,
      "Ġpa": 2243,
      "ensitivity": 2244,
      "Ġgastrointestinal": 2245,
      "Ġconj": 2246,
      "Ġcompar": 2247,
      "Ġsuppress": 2248,
      "Ġresulting": 2249,
      "Ġsubstance": 2250,
      "unts": 2251,
      "by": 2252,
      "prop": 2253,
      "%.": 2254,
      "ĠName": 2255,
      "Ġthought": 2256,
      "ably": 2257,
      "Ġdiab": 2258,
      "riol": 2259,
      "ris": 2260,
      "aim": 2261,
      "ĠOne": 2262,
      "Ġprostate": 2263,
      "Ġprevious": 2264,
      "Ġaffinity": 2265,
      "Ġplacebo": 2266,
      "omy": 2267,
      "oxic": 2268,
      "Ġcontrolled": 2269,
      "ocorticoid": 2270,
      "eration": 2271,
      "obarbital": 2272,
      "Ġback": 2273,
      "anol": 2274,
      "ned": 2275,
      "avail": 2276,
      "Ġformulation": 2277,
      "Ġamin": 2278,
      "Ġconduc": 2279,
      "Ġanxiety": 2280,
      "Ġagents": 2281,
      "{\\": 2282,
      "ĠAfter": 2283,
      "Ġsour": 2284,
      "Ġ25": 2285,
      "ĠCom": 2286,
      "Ġtechni": 2287,
      "itation": 2288,
      "Ġinformation": 2289,
      "Ġserum": 2290,
      "hal": 2291,
      "tice": 2292,
      "ifically": 2293,
      "ĠÂ": 2294,
      "Ġcompon": 2295,
      "ĠAb": 2296,
      "viron": 2297,
      "ĠCanada": 2298,
      "Ġsafe": 2299,
      "razepam": 2300,
      "Ġstructure": 2301,
      "Ġduration": 2302,
      "Ġformulations": 2303,
      "Ġ2020": 2304,
      "emb": 2305,
      "Ġdeficiency": 2306,
      "Ġcontinu": 2307,
      "Ġrole": 2308,
      "apine": 2309,
      "ences": 2310,
      "ĠX": 2311,
      "to": 2312,
      "Ġmake": 2313,
      "Ġdiffic": 2314,
      "cent": 2315,
      "Ġshe": 2316,
      "Ġunc": 2317,
      "DH": 2318,
      "ulated": 2319,
      "ulating": 2320,
      "Ġcann": 2321,
      "ĠBy": 2322,
      "Ġeye": 2323,
      "Ġinvolved": 2324,
      "Ġregard": 2325,
      "athy": 2326,
      "Ġanimals": 2327,
      "Ġminim": 2328,
      "Ġprescribed": 2329,
      "Ġalong": 2330,
      "ĠWhile": 2331,
      "ĠAustral": 2332,
      "Ġow": 2333,
      "mL": 2334,
      "Ġsite": 2335,
      "Ġpatent": 2336,
      "taining": 2337,
      "Ġrates": 2338,
      "Ġcarbon": 2339,
      "RI": 2340,
      "hip": 2341,
      "seud": 2342,
      "Ġtotal": 2343,
      "Ġadj": 2344,
      "Ġoxygen": 2345,
      "ĠMet": 2346,
      "Ġ-": 2347,
      "MP": 2348,
      "Ġ194": 2349,
      "Ġhighly": 2350,
      "Ġnorethisterone": 2351,
      "Ġyo": 2352,
      "ĠIs": 2353,
      "iversity": 2354,
      "Ġmouth": 2355,
      "Ġrespective": 2356,
      "Ġacts": 2357,
      "Ġsubsequ": 2358,
      "Ġcardiac": 2359,
      "orr": 2360,
      "eb": 2361,
      "ĠAcc": 2362,
      "Ġpeak": 2363,
      "une": 2364,
      "Ġantagonist": 2365,
      "orld": 2366,
      "king": 2367,
      "ĠComm": 2368,
      "Ġbecome": 2369,
      "Ġdown": 2370,
      "ash": 2371,
      "ameth": 2372,
      "Ġseen": 2373,
      "Ġnucle": 2374,
      "ĠIndi": 2375,
      "Ġhand": 2376,
      "Ġantidepress": 2377,
      "Ġlocal": 2378,
      "Ġnecess": 2379,
      "Ġappear": 2380,
      "Ġnor": 2381,
      "dependent": 2382,
      "Ġphysical": 2383,
      "active": 2384,
      "ura": 2385,
      "irm": 2386,
      "ophen": 2387,
      "Ġ$": 2388,
      "estosterone": 2389,
      "gth": 2390,
      "Ġanimal": 2391,
      "Ġchloride": 2392,
      "Ġaffect": 2393,
      "Ġcompany": 2394,
      "ogs": 2395,
      "Ġmedicine": 2396,
      "Ġstandard": 2397,
      "Ġincidence": 2398,
      "Ġrenal": 2399,
      "sol": 2400,
      "AN": 2401,
      "cyc": 2402,
      "anced": 2403,
      "Ġestab": 2404,
      "Ġrespir": 2405,
      "Ġsch": 2406,
      "Ġuseful": 2407,
      "but": 2408,
      "Ġcontrib": 2409,
      "asone": 2410,
      "lob": 2411,
      "Ġled": 2412,
      "ema": 2413,
      "unter": 2414,
      "Ġclaim": 2415,
      "app": 2416,
      "ergy": 2417,
      "axim": 2418,
      "Ġfactors": 2419,
      "oxide": 2420,
      "ored": 2421,
      "itu": 2422,
      "atitis": 2423,
      "ĠAp": 2424,
      "ylation": 2425,
      "Ġinhibits": 2426,
      "drug": 2427,
      "Ġtend": 2428,
      "Ġscienti": 2429,
      "ĠPre": 2430,
      "androgen": 2431,
      "Ġcomplete": 2432,
      "Ġorder": 2433,
      "Ġdiagn": 2434,
      "Ġdemonstrated": 2435,
      "Ġ40": 2436,
      "Ġcausing": 2437,
      "Ġcurrent": 2438,
      "Ġprimarily": 2439,
      "rofen": 2440,
      "Ġsl": 2441,
      "adi": 2442,
      "Ġformation": 2443,
      "Ġstom": 2444,
      "ontrol": 2445,
      "oxy": 2446,
      "Ġparticip": 2447,
      "Ġassess": 2448,
      "Ġmater": 2449,
      "wh": 2450,
      "ering": 2451,
      "Ġpul": 2452,
      "Ġminutes": 2453,
      "ococc": 2454,
      "Ġresponsible": 2455,
      "Ġbioavail": 2456,
      "ices": 2457,
      "Ġfactor": 2458,
      "Ġfive": 2459,
      "Ġpresence": 2460,
      "Ġsaid": 2461,
      "enc": 2462,
      "Ġbehavior": 2463,
      "Ġrespiratory": 2464,
      "ĠGABA": 2465,
      "Ġdev": 2466,
      "Ġ16": 2467,
      "Ġoil": 2468,
      "Ġtes": 2469,
      "fication": 2470,
      "Ġill": 2471,
      "Ġmil": 2472,
      "lex": 2473,
      "Ġphase": 2474,
      "Ġdiscovered": 2475,
      "tically": 2476,
      "Ġinsulin": 2477,
      "normal": 2478,
      "Ġsuccess": 2479,
      "ined": 2480,
      "Ġdeg": 2481,
      "ĠWorld": 2482,
      "Ġbacterial": 2483,
      "rast": 2484,
      "otrop": 2485,
      "Ġpharmaceutical": 2486,
      "Ġfib": 2487,
      "dis": 2488,
      "Ġincluded": 2489,
      "etra": 2490,
      "AR": 2491,
      "ript": 2492,
      "based": 2493,
      "hyth": 2494,
      "rant": 2495,
      "Ġfever": 2496,
      "ential": 2497,
      "amic": 2498,
      "FDA": 2499,
      "Ġtopical": 2500,
      "Ġable": 2501,
      "Ġsteroid": 2502,
      "iazid": 2503,
      "Ġair": 2504,
      "kg": 2505,
      "Ġvariety": 2506,
      "Ġche": 2507,
      "Ġcondition": 2508,
      "Ġemer": 2509,
      "function": 2510,
      "etes": 2511,
      "Ġtake": 2512,
      "Ġreceived": 2513,
      "Ġgo": 2514,
      "Ġcontraind": 2515,
      "Ġuses": 2516,
      "Ġmight": 2517,
      "tension": 2518,
      "Ġ+": 2519,
      "vul": 2520,
      "Ġmanufacture": 2521,
      "Ġket": 2522,
      "Ġenviron": 2523,
      "Ġheadache": 2524,
      "Ġrisks": 2525,
      "Ġ=": 2526,
      "Ġexerc": 2527,
      "ray": 2528,
      "ĠUniversity": 2529,
      "hedrine": 2530,
      "oline": 2531,
      "ples": 2532,
      "Ġsynthesized": 2533,
      "Ġpy": 2534,
      "Ġbetter": 2535,
      "fy": 2536,
      "ficial": 2537,
      "Ġsusp": 2538,
      "ryst": 2539,
      "ausal": 2540,
      "Ġdiarr": 2541,
      "opausal": 2542,
      "uk": 2543,
      "alid": 2544,
      "ĠSe": 2545,
      "Ġsecre": 2546,
      "Ġantip": 2547,
      "Ġexperim": 2548,
      "fficient": 2549,
      "gl": 2550,
      "Ġfluid": 2551,
      "ĠNSA": 2552,
      "Ġvirus": 2553,
      "ĠNational": 2554,
      "Ġstomach": 2555,
      "ĠIm": 2556,
      "stead": 2557,
      "Ġprovide": 2558,
      "Ġrespectively": 2559,
      "etic": 2560,
      "ĠWith": 2561,
      "lderly": 2562,
      "ession": 2563,
      "Ġcomm": 2564,
      "Ġreports": 2565,
      "asal": 2566,
      "hers": 2567,
      "Ġfinding": 2568,
      "Ġradi": 2569,
      "Ġang": 2570,
      "tide": 2571,
      "onad": 2572,
      "Ġtherefore": 2573,
      "ways": 2574,
      "ipher": 2575,
      "inflammatory": 2576,
      "icl": 2577,
      "aling": 2578,
      "ograph": 2579,
      "ume": 2580,
      "ritish": 2581,
      "ird": 2582,
      "Ġbioavailability": 2583,
      "ermal": 2584,
      "opro": 2585,
      "lab": 2586,
      "%),": 2587,
      "amphetamine": 2588,
      "IV": 2589,
      "gin": 2590,
      "Ġcomplic": 2591,
      "ateg": 2592,
      "Ġprevention": 2593,
      "Ġestrogens": 2594,
      "tensive": 2595,
      "Ġmethods": 2596,
      "Ġtract": 2597,
      "aced": 2598,
      "oy": 2599,
      "ieve": 2600,
      "ĠBec": 2601,
      "Ġsexual": 2602,
      "Ġsix": 2603,
      "ĠUK": 2604,
      "apan": 2605,
      "Ġmeta": 2606,
      "Ġpoor": 2607,
      "30": 2608,
      "Ġbeta": 2609,
      "Ġcompounds": 2610,
      "Ġpromot": 2611,
      "Ġcogn": 2612,
      "Ġmis": 2613,
      "ĠDec": 2614,
      "ĠApp": 2615,
      "aps": 2616,
      "kal": 2617,
      "utions": 2618,
      "Ġapproval": 2619,
      "Ġmainly": 2620,
      "Ġprolong": 2621,
      "ae": 2622,
      "ense": 2623,
      "Ġbu": 2624,
      "ptake": 2625,
      "onal": 2626,
      "ief": 2627,
      "ĠJoh": 2628,
      "Ġlate": 2629,
      "Ġmanage": 2630,
      "amethasone": 2631,
      "lect": 2632,
      "oz": 2633,
      "Ġmean": 2634,
      "ĠSh": 2635,
      "ĪĴ": 2636,
      "Ġ24": 2637,
      "Ġanalges": 2638,
      "Ġsep": 2639,
      "ypro": 2640,
      "Ġmild": 2641,
      "leg": 2642,
      "Ġcommun": 2643,
      "Ġhair": 2644,
      "ĠAr": 2645,
      "Ġabsorbed": 2646,
      "ĠBritish": 2647,
      "tention": 2648,
      "oniazid": 2649,
      "Ġguid": 2650,
      "Ġmut": 2651,
      "Ġselective": 2652,
      "Ġstop": 2653,
      "reg": 2654,
      "Ġdiseases": 2655,
      "Ġ60": 2656,
      "ump": 2657,
      "Ġnow": 2658,
      "Ġhypot": 2659,
      "ressive": 2660,
      "romycin": 2661,
      "Ġbenzodiazepine": 2662,
      "Ġtypes": 2663,
      "Ġbenefits": 2664,
      "Ġactivation": 2665,
      "Ġbenefit": 2666,
      "Ġnatural": 2667,
      "Ġpregnant": 2668,
      "Ġantagon": 2669,
      "Ġstart": 2670,
      "tives": 2671,
      "ient": 2672,
      "Ġaddic": 2673,
      "Ġsuggested": 2674,
      "inated": 2675,
      "Ġabove": 2676,
      "Ġspecifically": 2677,
      "18": 2678,
      "Ġarea": 2679,
      "%)": 2680,
      "Ġdifferen": 2681,
      "Ġcross": 2682,
      "oxicity": 2683,
      "Ġov": 2684,
      "Ġplay": 2685,
      "izz": 2686,
      "Ġnegative": 2687,
      "ĠJapan": 2688,
      "Ġhaving": 2689,
      "set": 2690,
      "ĠCa": 2691,
      "idazole": 2692,
      "Ġimpairment": 2693,
      "Ġmorphine": 2694,
      "ze": 2695,
      "Ġperipher": 2696,
      "play": 2697,
      "Ġneeded": 2698,
      "ĠNor": 2699,
      "Ġelderly": 2700,
      "ĠFran": 2701,
      "Ġmat": 2702,
      "Ġfollowed": 2703,
      "Ġmodi": 2704,
      "ĠCPA": 2705,
      "Ġalternative": 2706,
      "Ġpossib": 2707,
      "Ġprior": 2708,
      "Ġchange": 2709,
      "Ġreduces": 2710,
      "Ġsupplement": 2711,
      "utaneous": 2712,
      "Ġestrone": 2713,
      "farin": 2714,
      "ressed": 2715,
      "Ġ'": 2716,
      "ĠIf": 2717,
      "Ġabnormal": 2718,
      "Ġbre": 2719,
      "Ġlight": 2720,
      "Ġinteractions": 2721,
      "Ġacetyl": 2722,
      "Ġmoderate": 2723,
      "Ġestim": 2724,
      "Ġanalog": 2725,
      "Ġpotentially": 2726,
      "ĠAccording": 2727,
      "Ġana": 2728,
      "Ġbios": 2729,
      "Ġattack": 2730,
      "450": 2731,
      "alu": 2732,
      "cop": 2733,
      "tial": 2734,
      "mediate": 2735,
      "Ġdiarrhea": 2736,
      "ocaine": 2737,
      "tained": 2738,
      "Ġself": 2739,
      "inally": 2740,
      "Ġlast": 2741,
      "ators": 2742,
      "ire": 2743,
      "most": 2744,
      "ĠResear": 2745,
      "Ġlithium": 2746,
      "ern": 2747,
      "uprofen": 2748,
      "Ġcour": 2749,
      "ĠAgency": 2750,
      "Ġlung": 2751,
      "Ġperformed": 2752,
      "ĠIntern": 2753,
      "Ġimmune": 2754,
      "ectable": 2755,
      "oqu": 2756,
      "aging": 2757,
      "Ġlist": 2758,
      "Ġchloramphenicol": 2759,
      "lox": 2760,
      "Ġindividual": 2761,
      "Ã©": 2762,
      "Ġhistory": 2763,
      "Ġap": 2764,
      "Ġexist": 2765,
      "Ġhow": 2766,
      "emide": 2767,
      "ĠLi": 2768,
      "itidine": 2769,
      "Ġoutc": 2770,
      "Ġexperience": 2771,
      "Ġsystems": 2772,
      "elling": 2773,
      "Ġlabor": 2774,
      "ave": 2775,
      "INN": 2776,
      "ĠUnion": 2777,
      "15": 2778,
      "imilar": 2779,
      "Ġneurot": 2780,
      "Ġoper": 2781,
      "omide": 2782,
      "Ġwhether": 2783,
      "Ġevalu": 2784,
      "ĠBecause": 2785,
      "Ġhim": 2786,
      "Ġcontrast": 2787,
      "Ġbro": 2788,
      "lied": 2789,
      "ĠAll": 2790,
      "Ġresearc": 2791,
      "monary": 2792,
      "Ġrather": 2793,
      "Ġantiandrogen": 2794,
      "Ġnicot": 2795,
      "Ġstep": 2796,
      "Ġinst": 2797,
      "ĠSub": 2798,
      "men": 2799,
      "erve": 2800,
      "Ġevery": 2801,
      "Ġorally": 2802,
      "Ġhepatic": 2803,
      "orn": 2804,
      "overn": 2805,
      "terol": 2806,
      "ĠJan": 2807,
      "Ġmarketing": 2808,
      "Ġmar": 2809,
      "Ġsynthetic": 2810,
      "Ġester": 2811,
      "Ġmove": 2812,
      "onor": 2813,
      "Ġconclud": 2814,
      "ĠDM": 2815,
      "Ġway": 2816,
      "acting": 2817,
      "Ġadrenaline": 2818,
      "izziness": 2819,
      "ilep": 2820,
      "neum": 2821,
      "Ġenvironment": 2822,
      "Ġring": 2823,
      "sc": 2824,
      "roid": 2825,
      "Ġmembrane": 2826,
      "Ġcere": 2827,
      "ophil": 2828,
      "Ġsugges": 2829,
      "ĠComp": 2830,
      "Ġrapidly": 2831,
      "Ġconsider": 2832,
      "Ġdifficult": 2833,
      "Ġtesting": 2834,
      "robamate": 2835,
      "andom": 2836,
      "Ġdiabetes": 2837,
      "etine": 2838,
      "Ġthroughout": 2839,
      "posed": 2840,
      "onic": 2841,
      "Ġdysfunction": 2842,
      "Ġadditional": 2843,
      "Ġundergo": 2844,
      "Ġred": 2845,
      "verage": 2846,
      "ĠCol": 2847,
      "Ġantibiotics": 2848,
      "orts": 2849,
      "eptember": 2850,
      "Ġsystemic": 2851,
      "Ġonce": 2852,
      "Ġcri": 2853,
      "idate": 2854,
      "25": 2855,
      "ĠPe": 2856,
      "lammation": 2857,
      "ĠAustralia": 2858,
      "Ġdogs": 2859,
      "Ġbiological": 2860,
      "Ġtrain": 2861,
      "Ġamounts": 2862,
      "VID": 2863,
      "Ġpass": 2864,
      "Ġelev": 2865,
      "lan": 2866,
      "ortality": 2867,
      "Ġbegan": 2868,
      "cycline": 2869,
      "Ġglyc": 2870,
      "Ġopen": 2871,
      "ocl": 2872,
      "Ġrestric": 2873,
      "Ġpractice": 2874,
      "for": 2875,
      "Ġoste": 2876,
      "amples": 2877,
      "ER": 2878,
      "ĠKing": 2879,
      "Ġaccum": 2880,
      "Ġdry": 2881,
      "Ġmaxim": 2882,
      "ĠSeptember": 2883,
      "Ġitself": 2884,
      "ĠDep": 2885,
      "Ġ14": 2886,
      "Ġapplication": 2887,
      "Ġlink": 2888,
      "Ġnecessary": 2889,
      "ĠCent": 2890,
      "pite": 2891,
      "Ġanesthe": 2892,
      "Ġstates": 2893,
      "alidomide": 2894,
      "eprobamate": 2895,
      "raction": 2896,
      "Ġphenytoin": 2897,
      "ĠDe": 2898,
      "Ġwhereas": 2899,
      "Ġquality": 2900,
      "Ġdri": 2901,
      "thal": 2902,
      "renergic": 2903,
      "ardia": 2904,
      "nisolone": 2905,
      "uary": 2906,
      "Ġclassi": 2907,
      "now": 2908,
      "ochrome": 2909,
      "cers": 2910,
      "Ġdetermin": 2911,
      "ĠpH": 2912,
      "Ġinjury": 2913,
      "loxacin": 2914,
      "ams": 2915,
      "Ġline": 2916,
      "Ġbreat": 2917,
      "Ġcontains": 2918,
      "Ġcompan": 2919,
      "Ġreason": 2920,
      "ocial": 2921,
      "Ġusers": 2922,
      "Ġevent": 2923,
      "omnia": 2924,
      "Ġanalysis": 2925,
      "ras": 2926,
      "thritis": 2927,
      "ĠCOVID": 2928,
      "rex": 2929,
      "Ġlittle": 2930,
      "Ġsalt": 2931,
      "TP": 2932,
      "inic": 2933,
      "Ġtranspor": 2934,
      "Ġflow": 2935,
      "Ġ2021": 2936,
      "Ġmedicinal": 2937,
      "sycho": 2938,
      "opram": 2939,
      "Ġmodel": 2940,
      "Ġderivative": 2941,
      "Ġreport": 2942,
      "ext": 2943,
      "ĠMPA": 2944,
      "Ġ2013": 2945,
      "Ġestriol": 2946,
      "Ġ2015": 2947,
      "Ġtissues": 2948,
      "Ġmortality": 2949,
      "pinephrine": 2950,
      "Ġconsist": 2951,
      "Ġmicro": 2952,
      "icyl": 2953,
      "Ġmonitor": 2954,
      "yline": 2955,
      "Ġurinary": 2956,
      "omas": 2957,
      "rele": 2958,
      "Ġ2009": 2959,
      "Ġupon": 2960,
      "ĠMay": 2961,
      "Ġturn": 2962,
      "Ġery": 2963,
      "Ġplant": 2964,
      "Ġ{\\": 2965,
      "onia": 2966,
      "Ġsurf": 2967,
      "Ġolder": 2968,
      "Ġown": 2969,
      "Ġcognitive": 2970,
      "ception": 2971,
      "Ġmono": 2972,
      "Ġrats": 2973,
      "esis": 2974,
      "Ġgain": 2975,
      "SD": 2976,
      "used": 2977,
      "Ġke": 2978,
      "bl": 2979,
      "Ġ2019": 2980,
      "Ġpopulation": 2981,
      "Ġperipheral": 2982,
      "Ġsurv": 2983,
      "ĠNSAID": 2984,
      "Ġrandom": 2985,
      "Ġinflammation": 2986,
      "Ġremains": 2987,
      "izer": 2988,
      "roved": 2989,
      "enced": 2990,
      "ĠJanuary": 2991,
      "okine": 2992,
      "ĠHyp": 2993,
      "Ġestablished": 2994,
      "Ġharm": 2995,
      "Ġmanagement": 2996,
      "Ġinstead": 2997,
      "Ġmaking": 2998,
      "CT": 2999,
      "Ġbar": 3000,
      "Ġposition": 3001,
      "atis": 3002,
      "Ġmanufacturer": 3003,
      "Ġexercise": 3004,
      "Ġacne": 3005,
      "Ġ2016": 3006,
      "Ġcortic": 3007,
      "Ġdirectly": 3008,
      "Ġfet": 3009,
      "struc": 3010,
      "Ġhydrochlor": 3011,
      "ĠNo": 3012,
      "ouse": 3013,
      "Ġarter": 3014,
      "Ġattem": 3015,
      "Ġdizziness": 3016,
      "reatment": 3017,
      "akes": 3018,
      "Ġfamily": 3019,
      "reme": 3020,
      "Ġ11": 3021,
      "Ġcost": 3022,
      "Ġbinds": 3023,
      "Ġ2011": 3024,
      "abil": 3025,
      "ynthe": 3026,
      "Ġphenyl": 3027,
      "Ġmid": 3028,
      "aster": 3029,
      "Ġlaw": 3030,
      "Ġinhibiting": 3031,
      "Ġiss": 3032,
      "Ġparticipants": 3033,
      "Ġdependence": 3034,
      "ĠBl": 3035,
      "ensity": 3036,
      "Ġpneum": 3037,
      "ĠInternational": 3038,
      "ication": 3039,
      "Ġvi": 3040,
      "ging": 3041,
      "Ġinsomnia": 3042,
      "cessive": 3043,
      "Ġincludes": 3044,
      "Ġcannot": 3045,
      "osteroid": 3046,
      "ĠDue": 3047,
      "ober": 3048,
      "Ġisol": 3049,
      "Ġtran": 3050,
      "unced": 3051,
      "Ġ80": 3052,
      "Ġ&": 3053,
      "Ġdosages": 3054,
      "Ġtemper": 3055,
      "ĠIV": 3056,
      "CA": 3057,
      "Ġconfirm": 3058,
      "Ġpills": 3059,
      "ĠAddition": 3060,
      "Ġendomet": 3061,
      "Ġgrant": 3062,
      "Ġconjug": 3063,
      "ĠChlor": 3064,
      "Ġprob": 3065,
      "gue": 3066,
      "Ġcytochrome": 3067,
      "Ġstro": 3068,
      "Ġpathway": 3069,
      "oxif": 3070,
      "Ġcompanies": 3071,
      "analysis": 3072,
      "Ġdistribution": 3073,
      "ias": 3074,
      "Ġstress": 3075,
      "Ġven": 3076,
      "hydramine": 3077,
      "oman": 3078,
      "Ġphysici": 3079,
      "eff": 3080,
      "ĠOct": 3081,
      "stitute": 3082,
      "activ": 3083,
      "ibuprofen": 3084,
      "Ġ2012": 3085,
      "mber": 3086,
      "ĠMarch": 3087,
      "uros": 3088,
      "Ġtreatments": 3089,
      "CO": 3090,
      "Ġcaps": 3091,
      "ĠDecember": 3092,
      "uman": 3093,
      "Ġ2017": 3094,
      "isms": 3095,
      "ype": 3096,
      "Ġvolume": 3097,
      "Ġgland": 3098,
      "Ġmetabolic": 3099,
      "Ġacross": 3100,
      "ple": 3101,
      "ovember": 3102,
      "otor": 3103,
      "Ġoverall": 3104,
      "ulate": 3105,
      "oxid": 3106,
      "lation": 3107,
      "Ġ2014": 3108,
      "Ġmilk": 3109,
      "Ġtests": 3110,
      "Ġvas": 3111,
      "istic": 3112,
      "Ġmel": 3113,
      "Ġversion": 3114,
      "ĠResearch": 3115,
      "ference": 3116,
      "Ġexpression": 3117,
      "oly": 3118,
      "Ġintake": 3119,
      "emic": 3120,
      "Ġemergency": 3121,
      "ulatory": 3122,
      "Ġaden": 3123,
      "Ġpoison": 3124,
      "Ġwarning": 3125,
      "Ġcomponent": 3126,
      "Ġpulmonary": 3127,
      "rem": 3128,
      "Ġmac": 3129,
      "Ġhen": 3130,
      "Ġ2010": 3131,
      "eph": 3132,
      "Ġadded": 3133,
      "cutaneous": 3134,
      "Ġprocedure": 3135,
      "Ġlar": 3136,
      "Ġcarcin": 3137,
      "Ġsulfate": 3138,
      "seudo": 3139,
      "aired": 3140,
      "Ġspecial": 3141,
      "Ġdeveloping": 3142,
      "itary": 3143,
      "des": 3144,
      "gredi": 3145,
      "Ġsuggests": 3146,
      "ible": 3147,
      "Ġpolym": 3148,
      "}}": 3149,
      "ĠNovember": 3150,
      "ĠAct": 3151,
      "ton": 3152,
      "ĠDes": 3153,
      "Ġcult": 3154,
      "oses": 3155,
      "hedule": 3156,
      "Ġingredi": 3157,
      "Ġclose": 3158,
      "Ġhypertension": 3159,
      "Ġeas": 3160,
      "Ġmeans": 3161,
      "riptyline": 3162,
      "izes": 3163,
      "ĠJu": 3164,
      "odies": 3165,
      "ĠAnother": 3166,
      "onate": 3167,
      "containing": 3168,
      "tor": 3169,
      "Ġidentified": 3170,
      "care": 3171,
      "Ġtolerance": 3172,
      "gical": 3173,
      "Ġcreat": 3174,
      "Ġmolecule": 3175,
      "Ġfer": 3176,
      "Ġinitial": 3177,
      "Ġranitidine": 3178,
      "ĠInc": 3179,
      "Ġconsumption": 3180,
      "Ġnear": 3181,
      "AS": 3182,
      "Ġeng": 3183,
      "Ġemo": 3184,
      "mph": 3185,
      "pha": 3186,
      "queous": 3187,
      "Ġhyd": 3188,
      "%,": 3189,
      "Ġvitro": 3190,
      "idone": 3191,
      "Ġfoc": 3192,
      "Ġstar": 3193,
      "35": 3194,
      "known": 3195,
      "Ġhence": 3196,
      "olam": 3197,
      "Ġresid": 3198,
      "ĠSince": 3199,
      "Ġcontraceptive": 3200,
      "Ġantipsycho": 3201,
      "Ġremov": 3202,
      "Ġneurop": 3203,
      "side": 3204,
      "Ġwarfarin": 3205,
      "Ġgastric": 3206,
      "ensive": 3207,
      "ĠDiazepam": 3208,
      "oate": 3209,
      "ophyl": 3210,
      "dermal": 3211,
      "Ġdrop": 3212,
      "Ġthromb": 3213,
      "ogest": 3214,
      "ĠOctober": 3215,
      "opted": 3216,
      "Ġconducted": 3217,
      "CH": 3218,
      "ĠUse": 3219,
      "omin": 3220,
      "Ġdim": 3221,
      "Ġglucose": 3222,
      "ĠOx": 3223,
      "ĠApril": 3224,
      "Ġcereb": 3225,
      "ephedrine": 3226,
      "olic": 3227,
      "versible": 3228,
      "Ġgovern": 3229,
      "Ġpreviously": 3230,
      "Ġpep": 3231,
      "Ġgenetic": 3232,
      "den": 3233,
      "Ġphenobarbital": 3234,
      "ĠInt": 3235,
      "Ġabuse": 3236,
      "Ġcentury": 3237,
      "Ġreferred": 3238,
      "Ġ2018": 3239,
      "icin": 3240,
      "wide": 3241,
      "ques": 3242,
      "ese": 3243,
      "Ġmedi": 3244,
      "Ġleads": 3245,
      "Ġwhat": 3246,
      "Ġmixt": 3247,
      "Ġconcluded": 3248,
      "soci": 3249,
      "ĠTo": 3250,
      "Ġpoint": 3251,
      "Ġfrequently": 3252,
      "ococcus": 3253,
      "Ġapproach": 3254,
      "Ġmemory": 3255,
      "Ġcontraindicated": 3256,
      "Ġimproved": 3257,
      "Ġpopular": 3258,
      "corb": 3259,
      "Ġsepar": 3260,
      "Ġess": 3261,
      "eling": 3262,
      "Ġdext": 3263,
      "Ġpotency": 3264,
      "11": 3265,
      "Ġfo": 3266,
      "ĠÂ°": 3267,
      "Ġ2024": 3268,
      "Ġter": 3269,
      "ified": 3270,
      "Ġpoly": 3271,
      "tein": 3272,
      "Ġaccording": 3273,
      "ebru": 3274,
      "ots": 3275,
      "eg": 3276,
      "Ġamino": 3277,
      "omers": 3278,
      "onazole": 3279,
      "Ġterms": 3280,
      "oxetine": 3281,
      "Ġgenes": 3282,
      "Ġdig": 3283,
      "ebruary": 3284,
      "oglob": 3285,
      "vant": 3286,
      "Ġmice": 3287,
      "ĠKingdom": 3288,
      "ĠHIV": 3289,
      "Ġguidel": 3290,
      "eprazole": 3291,
      "ronidazole": 3292,
      "Ġareas": 3293,
      "pose": 3294,
      "Ġacco": 3295,
      "Ġmass": 3296,
      "Ġmother": 3297,
      "Ġslight": 3298,
      "ights": 3299,
      "Ġlymph": 3300,
      "entric": 3301,
      "Ġepilep": 3302,
      "seudoephedrine": 3303,
      "itamin": 3304,
      "Ġ1970": 3305,
      "Ġglob": 3306,
      "Ġrepres": 3307,
      "Ġaffected": 3308,
      "Ġdecreases": 3309,
      "Ġderivatives": 3310,
      "Ġrequ": 3311,
      "Ġsecretion": 3312,
      "Ġban": 3313,
      "Ġtrig": 3314,
      "Ġcorticosteroid": 3315,
      "Ġanno": 3316,
      "Ġcommerc": 3317,
      "Ġenergy": 3318,
      "Ġbound": 3319,
      "azone": 3320,
      "idal": 3321,
      "Ġdeli": 3322,
      "Ġactions": 3323,
      "ĠAf": 3324,
      "ĠFebruary": 3325,
      "Ġnitrazepam": 3326,
      "Ġstat": 3327,
      "Ġcirculating": 3328,
      "ĠMedicines": 3329,
      "Ġsecondary": 3330,
      "vuls": 3331,
      "Ġthird": 3332,
      "onolactone": 3333,
      "Ġcryst": 3334,
      "Ġprodrug": 3335,
      "Ġmale": 3336,
      "ĠJuly": 3337,
      "Ġlic": 3338,
      "Ġequival": 3339,
      "ĠSw": 3340,
      "indane": 3341,
      "vi": 3342,
      "Ġinsu": 3343,
      "Ġla": 3344,
      "Ġregim": 3345,
      "Ġbas": 3346,
      "rains": 3347,
      "Ġsystematic": 3348,
      "Ġantih": 3349,
      "Ġantibiotic": 3350,
      "Ġlat": 3351,
      "Ġdelay": 3352,
      "Ġdrin": 3353,
      "Ġcontraceptives": 3354,
      "otropic": 3355,
      "ycodone": 3356,
      "Ġbelow": 3357,
      "ĠJune": 3358,
      "gestrel": 3359,
      "ids": 3360,
      "Ġallergic": 3361,
      "ik": 3362,
      "Ġ90": 3363,
      "Ġ2007": 3364,
      "be": 3365,
      "ching": 3366,
      "Ġweek": 3367,
      "Ġibuprofen": 3368,
      "style": 3369,
      "Ġmental": 3370,
      "Ġsuspension": 3371,
      "ĠFol": 3372,
      "Ġprovided": 3373,
      "Ġopp": 3374,
      "Ġchain": 3375,
      "urally": 3376,
      "Ġglut": 3377,
      "Ġindust": 3378,
      "Ġirrit": 3379,
      "Ġintended": 3380,
      "Ġrelations": 3381,
      "Ġproduces": 3382,
      "âĪĴ": 3383,
      "Ġwhite": 3384,
      "ĠDuring": 3385,
      "Ġsurface": 3386,
      "Ġcho": 3387,
      "Ġrecogn": 3388,
      "Ġdeaths": 3389,
      "lus": 3390,
      "Ġunderst": 3391,
      "hydroxy": 3392,
      "Ġaverage": 3393,
      "ĠMany": 3394,
      "16": 3395,
      "Ġnerve": 3396,
      "Ġhealthy": 3397,
      "Ġinduce": 3398,
      "Ġfatal": 3399,
      "Ġsuccessful": 3400,
      "Ġapplied": 3401,
      "ophylline": 3402,
      "Ġthereby": 3403,
      "Ġtested": 3404,
      "Ġtradi": 3405,
      "ĠMedical": 3406,
      "Ġfindings": 3407,
      "Ġinflammatory": 3408,
      "ude": 3409,
      "ĠEng": 3410,
      "ĠMost": 3411,
      "Ġdiscontinued": 3412,
      "Ġsuper": 3413,
      "tee": 3414,
      "urosemide": 3415,
      "Ġrib": 3416,
      "open": 3417,
      "Ġallows": 3418,
      "Ġtablet": 3419,
      "ocardi": 3420,
      "Ġacids": 3421,
      "ender": 3422,
      "Ġi": 3423,
      "oved": 3424,
      "Ġtetra": 3425,
      "ili": 3426,
      "Ġnorepinephrine": 3427,
      "aff": 3428,
      "Ġresearchers": 3429,
      "uptake": 3430,
      "ĠER": 3431,
      "ai": 3432,
      "Ġposs": 3433,
      "Ġshows": 3434,
      "plant": 3435,
      "ranolol": 3436,
      "release": 3437,
      "Ġconcerns": 3438,
      "Ġ2025": 3439,
      "Ġemb": 3440,
      "_{": 3441,
      "Ġrelax": 3442,
      "Ġalmost": 3443,
      "Ġdiure": 3444,
      "ĠGen": 3445,
      "ersensitivity": 3446,
      "ropri": 3447,
      "Ġ2008": 3448,
      "ĠGl": 3449,
      "tility": 3450,
      "gestion": 3451,
      "nit": 3452,
      "anth": 3453,
      "14": 3454,
      "Ġneur": 3455,
      "oxin": 3456,
      "Ġnar": 3457,
      "rier": 3458,
      "tism": 3459,
      "axis": 3460,
      "Ġsocial": 3461,
      "Ġrace": 3462,
      "inson": 3463,
      "Ġbase": 3464,
      "ĠHy": 3465,
      "aceuticals": 3466,
      "Ġchannel": 3467,
      "ĠOrgan": 3468,
      "display": 3469,
      "Ġsize": 3470,
      "Ġseries": 3471,
      "displaystyle": 3472,
      "Ġbond": 3473,
      "Ġphysi": 3474,
      "Ġyield": 3475,
      "phenidate": 3476,
      "Ġedema": 3477,
      "ĠInstitute": 3478,
      "lin": 3479,
      "unctions": 3480,
      "Ġprin": 3481,
      "Ġabs": 3482,
      "ah": 3483,
      "ĠGerman": 3484,
      "Ġoccurred": 3485,
      "Ġfull": 3486,
      "Ġcomplications": 3487,
      "Ġsee": 3488,
      "Ġpharmacokine": 3489,
      "Is": 3490,
      "entan": 3491,
      "trans": 3492,
      "Ġsubstit": 3493,
      "Ġ13": 3494,
      "ars": 3495,
      "generation": 3496,
      "rest": 3497,
      "Ġcontin": 3498,
      "Ġinfants": 3499,
      "iring": 3500,
      "Ġpredic": 3501,
      "Ġremoved": 3502,
      "Ġfield": 3503,
      "Ġreuptake": 3504,
      "Ġproposed": 3505,
      "Ġinvolves": 3506,
      "Ġpreventing": 3507,
      "Ġsites": 3508,
      "ier": 3509,
      "ores": 3510,
      "adone": 3511,
      "dominal": 3512,
      "Ġonset": 3513,
      "Ġfilm": 3514,
      "Ġ1980": 3515,
      "arbit": 3516,
      "sp": 3517,
      "Ġel": 3518,
      "Ġpreparations": 3519,
      "Ġtumor": 3520,
      "ĠPC": 3521,
      "Ġrequires": 3522,
      "Ġtac": 3523,
      "Ġsuppression": 3524,
      "Ġ1960": 3525,
      "olesterol": 3526,
      "Ġstroke": 3527,
      "ĠBi": 3528,
      "Ġvary": 3529,
      "Ġrati": 3530,
      "osine": 3531,
      "ising": 3532,
      "ister": 3533,
      "Ġisoniazid": 3534,
      "mol": 3535,
      "ĠPer": 3536,
      "ĠIndia": 3537,
      "ĠSpir": 3538,
      "urb": 3539,
      "istant": 3540,
      "Ġreleased": 3541,
      "omic": 3542,
      "oking": 3543,
      "Ġnoted": 3544,
      "ĠMore": 3545,
      "Ġdietary": 3546,
      "Ġaqueous": 3547,
      "Ġsubcutaneous": 3548,
      "Ġadult": 3549,
      "Ġri": 3550,
      "ained": 3551,
      "ĠOver": 3552,
      "au": 3553,
      "Ġalle": 3554,
      "Ġtransdermal": 3555,
      "mitted": 3556,
      "ayer": 3557,
      "ented": 3558,
      "utri": 3559,
      "Ġfunctional": 3560,
      "Ġtraining": 3561,
      "Ġextended": 3562,
      "ĠAug": 3563,
      "odes": 3564,
      "HB": 3565,
      "anger": 3566,
      "Ġ193": 3567,
      "Ġmechanisms": 3568,
      "hythm": 3569,
      "ĠMin": 3570,
      "etitive": 3571,
      "Ġdone": 3572,
      "Ġneut": 3573,
      "Ġformed": 3574,
      "omycin": 3575,
      "ensitive": 3576,
      "Ġx": 3577,
      "Ġnever": 3578,
      "Ġoutcomes": 3579,
      "Ġreplace": 3580,
      "opa": 3581,
      "quid": 3582,
      "Ġempl": 3583,
      "ANTooltip": 3584,
      "Ġkill": 3585,
      "Ġchannels": 3586,
      "Ġfluor": 3587,
      "plas": 3588,
      "resp": 3589,
      "Ġcode": 3590,
      "Ġmenstr": 3591,
      "Ġmolecular": 3592,
      "Ġrelationship": 3593,
      "oic": 3594,
      "tase": 3595,
      "ĠEm": 3596,
      "Ġtraum": 3597,
      "Ġliv": 3598,
      "ĠAdditionally": 3599,
      "Ġ2022": 3600,
      "Ġestimated": 3601,
      "Ġclearance": 3602,
      "va": 3603,
      "atal": 3604,
      "aring": 3605,
      "Ġplants": 3606,
      "Ġdifference": 3607,
      "ĠPark": 3608,
      "Cl": 3609,
      "Ġleuk": 3610,
      "ĠBe": 3611,
      "astatin": 3612,
      "Ġaddiction": 3613,
      "ject": 3614,
      "met": 3615,
      "Ġsuic": 3616,
      "40": 3617,
      "equ": 3618,
      "formin": 3619,
      "lish": 3620,
      "Ġtas": 3621,
      "Ġopioids": 3622,
      "Ġbelieved": 3623,
      "Ġsens": 3624,
      "Ġveter": 3625,
      "Ġantidepressants": 3626,
      "Ġfrequency": 3627,
      "Ġextensive": 3628,
      "Ġhypotension": 3629,
      "rolog": 3630,
      "Ġfunctions": 3631,
      "Ġanalgesic": 3632,
      "Ġmeprobamate": 3633,
      "lear": 3634,
      "ontrolled": 3635,
      "Ġstated": 3636,
      "Ġconverted": 3637,
      "iatric": 3638,
      "ĠCOX": 3639,
      "Ġbur": 3640,
      "Ġserv": 3641,
      "onvuls": 3642,
      "ĠRec": 3643,
      "13": 3644,
      "Ġsubjects": 3645,
      "Ġproblem": 3646,
      "ĠAugust": 3647,
      "ogenous": 3648,
      "Ġperformance": 3649,
      "Ġextreme": 3650,
      "Ġstarting": 3651,
      "ĠTreatment": 3652,
      "ĠBoth": 3653,
      "Ġion": 3654,
      "such": 3655,
      "Ġrecent": 3656,
      "amines": 3657,
      "Ġeryth": 3658,
      "atigue": 3659,
      "aries": 3660,
      "ĠRep": 3661,
      "which": 3662,
      "arbitur": 3663,
      "here": 3664,
      "Ġmig": 3665,
      "Ġglucuron": 3666,
      "Ġsedation": 3667,
      "Ġpattern": 3668,
      "Ġannounced": 3669,
      "bs": 3670,
      "Ġdefects": 3671,
      "Ġbreak": 3672,
      "Ġglucocorticoid": 3673,
      "hyde": 3674,
      "ets": 3675,
      "ream": 3676,
      "dehyde": 3677,
      "quired": 3678,
      "Ġide": 3679,
      "Ġstren": 3680,
      "Ġindication": 3681,
      "Ġlen": 3682,
      "ote": 3683,
      "Ġasth": 3684,
      "phylaxis": 3685,
      "Ġmixture": 3686,
      "Ġmonitoring": 3687,
      "Ġresistant": 3688,
      "ĠQu": 3689,
      "cellular": 3690,
      "rog": 3691,
      "Ġmixed": 3692,
      ");": 3693,
      "Ġinfluenz": 3694,
      "MS": 3695,
      "ĠAfric": 3696,
      "Ġmaximum": 3697,
      "Ġinteraction": 3698,
      "Ġexcretion": 3699,
      "Ġhydroxyl": 3700,
      "Ġinactive": 3701,
      "aria": 3702,
      "ĠLike": 3703,
      "Ġng": 3704,
      "rows": 3705,
      "ĠWar": 3706,
      "gether": 3707,
      "yst": 3708,
      "Ġtogether": 3709,
      "Ġsource": 3710,
      "ĠAspirin": 3711,
      "Ġvisual": 3712,
      "Ġsedative": 3713,
      "Ġtechniques": 3714,
      "TE": 3715,
      "Ġsk": 3716,
      "Ġrepe": 3717,
      "Ġfall": 3718,
      "Ġphot": 3719,
      "Ġformer": 3720,
      "Ġ2000": 3721,
      "Ġmolecules": 3722,
      "Ġelectro": 3723,
      "ogens": 3724,
      "rus": 3725,
      "oxyl": 3726,
      "Ġneurons": 3727,
      "Ġvaccines": 3728,
      "Ġrarely": 3729,
      "Ġsymp": 3730,
      "Ġfacil": 3731,
      "Ġtrim": 3732,
      "Ġsalicyl": 3733,
      "ĠLab": 3734,
      "ulted": 3735,
      "ĠNSAIDs": 3736,
      "Ġtoo": 3737,
      "Ġepid": 3738,
      "Ġneurotrans": 3739,
      "Ġroute": 3740,
      "ĠNA": 3741,
      "otoxicity": 3742,
      "Ġalkal": 3743,
      "luding": 3744,
      "ĠSouth": 3745,
      "Ġkidneys": 3746,
      "oler": 3747,
      "stances": 3748,
      "Ġchrom": 3749,
      "sued": 3750,
      "Ġrandomized": 3751,
      "Ġsurgical": 3752,
      "Ġfar": 3753,
      "Ġcycl": 3754,
      "operative": 3755,
      "ĠNit": 3756,
      "Ġspect": 3757,
      "Ġdouble": 3758,
      "flu": 3759,
      "Ġtechnique": 3760,
      "Ġmeasure": 3761,
      "Ġmembers": 3762,
      "Ġasthma": 3763,
      "Ġreceiving": 3764,
      "ĠJohn": 3765,
      "reen": 3766,
      "artment": 3767,
      "ats": 3768,
      "osphate": 3769,
      "Ġpossibly": 3770,
      "Ġtemperature": 3771,
      "Ġthalidomide": 3772,
      "xt": 3773,
      "rams": 3774,
      "athe": 3775,
      "Ġabdominal": 3776,
      "ceed": 3777,
      "upp": 3778,
      "work": 3779,
      "ionate": 3780,
      "Ġprolonged": 3781,
      "chang": 3782,
      "opramide": 3783,
      "Ġinhal": 3784,
      "oclopramide": 3785,
      "ipramine": 3786,
      "mission": 3787,
      "Ġachieved": 3788,
      "Ġconn": 3789,
      "wise": 3790,
      "Ġquick": 3791,
      "Ġfemale": 3792,
      "Ġobtained": 3793,
      "Ġprocesses": 3794,
      "Ġgovernment": 3795,
      "Ġanticonvuls": 3796,
      "entricular": 3797,
      "HO": 3798,
      "ogenesis": 3799,
      "Ġliter": 3800,
      "umin": 3801,
      "Ġcholesterol": 3802,
      "Ġdosing": 3803,
      "Ġsubsequent": 3804,
      "Ġunknown": 3805,
      "Ġvalerate": 3806,
      "Ġoriginal": 3807,
      "Ġbene": 3808,
      "Ġ70": 3809,
      "Ġmodels": 3810,
      "Ġcontinued": 3811,
      "ĠAR": 3812,
      "Ġpathways": 3813,
      "oti": 3814,
      "arian": 3815,
      "Ġ2006": 3816,
      "Ġpap": 3817,
      "ography": 3818,
      "Ġdifferences": 3819,
      "olution": 3820,
      "Ġyoung": 3821,
      "avir": 3822,
      "Ġcats": 3823,
      "Ġelevated": 3824,
      "rated": 3825,
      "rupt": 3826,
      "Ġbarbitur": 3827,
      "Ġmedicines": 3828,
      "tered": 3829,
      "ediatric": 3830,
      "Ġprotection": 3831,
      "Ġdexamethasone": 3832,
      "inil": 3833,
      "Ġselec": 3834,
      "Ġworldwide": 3835,
      "Ġresulted": 3836,
      "Ġlaboratory": 3837,
      "Ġful": 3838,
      "ĠEE": 3839,
      "ou": 3840,
      "ĠProduc": 3841,
      "Ġhydrogen": 3842,
      "Ġepilepsy": 3843,
      "cepti": 3844,
      "ĠMan": 3845,
      "ĠReg": 3846,
      "Ġdetermined": 3847,
      "iasis": 3848,
      "Ġderived": 3849,
      "II": 3850,
      "ĠEstradiol": 3851,
      "Ġnet": 3852,
      "Ġgra": 3853,
      "gu": 3854,
      "onorgestrel": 3855,
      "Ġgood": 3856,
      "Ġpneumonia": 3857,
      "Ġpercent": 3858,
      "mal": 3859,
      "ried": 3860,
      "Ġprofession": 3861,
      "spec": 3862,
      "orpor": 3863,
      "Ġlimit": 3864,
      "aminophen": 3865,
      "istry": 3866,
      "ĠMeth": 3867,
      "Ġintern": 3868,
      "Ġplate": 3869,
      "sociation": 3870,
      "Ġequivalent": 3871,
      "ĠPeople": 3872,
      "oe": 3873,
      "Ġfatigue": 3874,
      "ĠAmerica": 3875,
      "Ġissued": 3876,
      "Ġclinically": 3877,
      "Ġmulti": 3878,
      "iline": 3879,
      "Ġconsequ": 3880,
      "Ġbroad": 3881,
      "erest": 3882,
      "aged": 3883,
      "label": 3884,
      "Ġaccept": 3885,
      "Ġenhance": 3886,
      "Ġsequence": 3887,
      "ĠGu": 3888,
      "Ġhepat": 3889,
      "Ġexposed": 3890,
      "Ġteam": 3891,
      "Ġmeaning": 3892,
      "Ġprescrib": 3893,
      "Ġadvanced": 3894,
      "Ġsubsequently": 3895,
      "Ġmaterial": 3896,
      "ynec": 3897,
      "Ġwound": 3898,
      "wards": 3899,
      "ending": 3900,
      "ived": 3901,
      "ĠAnti": 3902,
      "changed": 3903,
      "Ġinjectable": 3904,
      "ĠDis": 3905,
      "zapine": 3906,
      "Ġuter": 3907,
      "ĠGermany": 3908,
      "Ġhydrochloride": 3909,
      "itant": 3910,
      "orrh": 3911,
      "Ġpossess": 3912,
      "hex": 3913,
      "ercul": 3914,
      "ĠIII": 3915,
      "Ġpower": 3916,
      "entanyl": 3917,
      "Ġrash": 3918,
      "feeding": 3919,
      "hel": 3920,
      "Ġrelief": 3921,
      "alk": 3922,
      "Ġstimulation": 3923,
      "Ġparen": 3924,
      "NS": 3925,
      "resistant": 3926,
      "Ġguidelines": 3927,
      "Ġ150": 3928,
      "Ġmonoamine": 3929,
      "ĠCal": 3930,
      "Ġascorb": 3931,
      "Ġexcessive": 3932,
      "Ġsubstances": 3933,
      "Ġscientific": 3934,
      "eter": 3935,
      "Ġgrad": 3936,
      "Ġepis": 3937,
      "Ġworking": 3938,
      "Ġ2023": 3939,
      "Ġsubstr": 3940,
      "Ġregular": 3941,
      "Ġdiscovery": 3942,
      "Ġregarding": 3943,
      "Ġagon": 3944,
      "formation": 3945,
      "Ġbab": 3946,
      "Ġgive": 3947,
      "Ġsetting": 3948,
      "Ġsolutions": 3949,
      "Ġdocum": 3950,
      "oag": 3951,
      "adrenergic": 3952,
      "Ġsimilarly": 3953,
      "Ġsources": 3954,
      "lanzapine": 3955,
      "Ġarthritis": 3956,
      "Ġpreparation": 3957,
      "Ġrun": 3958,
      "Ġmyocardi": 3959,
      "Ġinhibitory": 3960,
      "Ġpurpose": 3961,
      "Ġblockers": 3962,
      "yprogesterone": 3963,
      "cor": 3964,
      "Ġdiscontinuation": 3965,
      "erb": 3966,
      "ished": 3967,
      "ĠParacetamol": 3968,
      "rag": 3969,
      "ĠOral": 3970,
      "ches": 3971,
      "Ġbegin": 3972,
      "ociety": 3973,
      "Ġseem": 3974,
      "atients": 3975,
      "Ġspe": 3976,
      "Ġmas": 3977,
      "Ġfav": 3978,
      "Ġcounter": 3979,
      "Ġratio": 3980,
      "ĠSpironolactone": 3981,
      "ĠCar": 3982,
      "Ġextent": 3983,
      "ĠPharmac": 3984,
      "pi": 3985,
      "rum": 3986,
      "rench": 3987,
      "Ġstopp": 3988,
      "ropriate": 3989,
      "oxifen": 3990,
      "Ġattempt": 3991,
      "Ġclon": 3992,
      "Ġtermin": 3993,
      "ĠSch": 3994,
      "oster": 3995,
      "Ġdiphen": 3996,
      "100": 3997,
      "Ġques": 3998,
      "Ġ1950": 3999,
      "Ġbuild": 4000,
      "ĠEth": 4001,
      "Ġ1990": 4002,
      "Ġnamed": 4003,
      "Ġimpaired": 4004,
      "time": 4005,
      "Ġinfusion": 4006,
      "cardia": 4007,
      "Ġalter": 4008,
      "ocy": 4009,
      "Ġunchanged": 4010,
      "including": 4011,
      "Ġindep": 4012,
      "rednisolone": 4013,
      "meprazole": 4014,
      "Ġbook": 4015,
      "ĠSm": 4016,
      "Ġinterest": 4017,
      "Ġcateg": 4018,
      "rover": 4019,
      "Ġ2004": 4020,
      "azepine": 4021,
      "Ġeffici": 4022,
      "Ġdehydro": 4023,
      "rofur": 4024,
      "tia": 4025,
      "ification": 4026,
      "opathy": 4027,
      "ĠProgesterone": 4028,
      "Ġreach": 4029,
      "Ġdegree": 4030,
      "Ġtachy": 4031,
      "CE": 4032,
      "Ġprograms": 4033,
      "Ġnasal": 4034,
      "etary": 4035,
      "ĠUp": 4036,
      "Ġsoluble": 4037,
      "ana": 4038,
      "ĠSever": 4039,
      "Ġfully": 4040,
      "Ġlact": 4041,
      "Ġendometrial": 4042,
      "Ġvision": 4043,
      "Ġinjected": 4044,
      "Ġessential": 4045,
      "med": 4046,
      "Ġunlike": 4047,
      "Ġpric": 4048,
      "Ġtypical": 4049,
      "ĠAmp": 4050,
      "Ġmajority": 4051,
      "Ġprep": 4052,
      "lusion": 4053,
      "Ġyet": 4054,
      "ta": 4055,
      "Ġgel": 4056,
      "hemical": 4057,
      "olytic": 4058,
      "Ġclassified": 4059,
      "200": 4060,
      "eal": 4061,
      "Ġdil": 4062,
      "Ġrespond": 4063,
      "DHD": 4064,
      "crip": 4065,
      "Ġcommunity": 4066,
      "ames": 4067,
      "ĠRNA": 4068,
      "oids": 4069,
      "ready": 4070,
      "rist": 4071,
      "Ġhydroly": 4072,
      "Ġoxycodone": 4073,
      "ronch": 4074,
      "Ġcataly": 4075,
      "Ġ2005": 4076,
      "Ġdescrib": 4077,
      "iram": 4078,
      "Ġmit": 4079,
      "Ġcreated": 4080,
      "hood": 4081,
      "atures": 4082,
      "orses": 4083,
      "Ġpoisoning": 4084,
      "Ġpowder": 4085,
      "ĠâĢĶ": 4086,
      "Ġworks": 4087,
      "Ġbiosynthe": 4088,
      "rup": 4089,
      "Ġpseudoephedrine": 4090,
      "pected": 4091,
      "ride": 4092,
      "ories": 4093,
      "ittee": 4094,
      "Ġoccurring": 4095,
      "Ġcontribute": 4096,
      "alluc": 4097,
      "ione": 4098,
      "hold": 4099,
      "AT": 4100,
      "Ġsuscepti": 4101,
      "eralocorticoid": 4102,
      "ĠOrganization": 4103,
      "ĠCommon": 4104,
      "Ġrecord": 4105,
      "ĠBenz": 4106,
      "ĠSeveral": 4107,
      "Ġrecommends": 4108,
      "allen": 4109,
      "Ġmenopausal": 4110,
      "ymptom": 4111,
      "Ġhepatitis": 4112,
      "renaline": 4113,
      "Ġprocedures": 4114,
      "Ġalready": 4115,
      "inergic": 4116,
      "Ġallowing": 4117,
      "...": 4118,
      "uter": 4119,
      "ĠFrench": 4120,
      "Ġplac": 4121,
      "80": 4122,
      "Ġliquid": 4123,
      "Ġ21": 4124,
      "Ġchemotherapy": 4125,
      "Ġhypersensitivity": 4126,
      "ĠGABAA": 4127,
      "urs": 4128,
      "ades": 4129,
      "amination": 4130,
      "Ġconfusion": 4131,
      "Ġinitially": 4132,
      "Ġbip": 4133,
      "Ġantidepressant": 4134,
      "tipation": 4135,
      "encing": 4136,
      "vent": 4137,
      "hest": 4138,
      "ĠApproved": 4139,
      "Ġconversion": 4140,
      "Ġsurvival": 4141,
      "Ġpump": 4142,
      "Ġimplant": 4143,
      "iop": 4144,
      "Ġanticoag": 4145,
      "Ġenanti": 4146,
      "Ġtumors": 4147,
      "rost": 4148,
      "Ġinvolving": 4149,
      "Ġfoods": 4150,
      "uth": 4151,
      "Ġattrib": 4152,
      "Ġbreastfeeding": 4153,
      "Ġspinal": 4154,
      "Ġexhib": 4155,
      "ols": 4156,
      "ĠDMPA": 4157,
      "OR": 4158,
      "Ġaccess": 4159,
      "ĠSchedule": 4160,
      "Ġmovement": 4161,
      "Ġstatus": 4162,
      "Ġreplacement": 4163,
      "Ġethyl": 4164,
      "zine": 4165,
      "ria": 4166,
      "na": 4167,
      "poses": 4168,
      "Ġseverity": 4169,
      "ilt": 4170,
      "Ġbarrier": 4171,
      "Ġvess": 4172,
      "Ġpartial": 4173,
      "Ġmood": 4174,
      "Ġdepending": 4175,
      "ipp": 4176,
      "allucin": 4177,
      "ope": 4178,
      "ications": 4179,
      "olism": 4180,
      "Ġlipid": 4181,
      "ĠDa": 4182,
      "ĠNon": 4183,
      "Ġisolated": 4184,
      "counter": 4185,
      "inase": 4186,
      "Ġparas": 4187,
      "ashes": 4188,
      "iral": 4189,
      "heum": 4190,
      "rapeutic": 4191,
      "Ġassociation": 4192,
      "ĠMedicine": 4193,
      "erculosis": 4194,
      "atories": 4195,
      "Ġbasis": 4196,
      "Ġschiz": 4197,
      "Ġswe": 4198,
      "Ġtempor": 4199,
      "rosis": 4200,
      "Ġmetronidazole": 4201,
      "kele": 4202,
      "bal": 4203,
      "sts": 4204,
      "lowing": 4205,
      "Ġprogestins": 4206,
      "Ġinfluence": 4207,
      "Ġdelivery": 4208,
      "last": 4209,
      "Ġdisturb": 4210,
      "Ġactivated": 4211,
      "Ġstem": 4212,
      "Ġsigns": 4213,
      "Ġexperienced": 4214,
      "Ġtransport": 4215,
      "ĠHuman": 4216,
      "ales": 4217,
      "Ġlindane": 4218,
      "Ġgas": 4219,
      "Ġartic": 4220,
      "Ġbeneficial": 4221,
      "DS": 4222,
      "ĠFurther": 4223,
      "DMA": 4224,
      "Ġiron": 4225,
      "Ġsick": 4226,
      "RNA": 4227,
      "Ġfin": 4228,
      "ott": 4229,
      "ĠPharmaceuticals": 4230,
      "menopausal": 4231,
      "Ġmakes": 4232,
      "amoxifen": 4233,
      "Ġsitu": 4234,
      "Ġfind": 4235,
      "Ġcurrently": 4236,
      "ĠSte": 4237,
      "ET": 4238,
      "Ġcos": 4239,
      "oplas": 4240,
      "Ġdiphenhydramine": 4241,
      "rowsiness": 4242,
      "Ġprevents": 4243,
      "ĠPf": 4244,
      "Ġplan": 4245,
      "Ġcontent": 4246,
      "Ġtransplant": 4247,
      "Ġphosphor": 4248,
      "ĠCommittee": 4249,
      "Ġinfluenza": 4250,
      "yroid": 4251,
      "Ġdeep": 4252,
      "Ġmaintain": 4253,
      "py": 4254,
      "tenance": 4255,
      "back": 4256,
      "unit": 4257,
      "ps": 4258,
      "ises": 4259,
      "Ġunclear": 4260,
      "oms": 4261,
      "ĠSimilar": 4262,
      "ophren": 4263,
      "Ġsubject": 4264,
      "Ġfract": 4265,
      "ofen": 4266,
      "Ġhypog": 4267,
      "ĠHospital": 4268,
      "Ġlargely": 4269,
      "ermine": 4270,
      "aro": 4271,
      "Ġbronch": 4272,
      "Ġpal": 4273,
      "Ġnons": 4274,
      "Ġcycle": 4275,
      "Ġcomparison": 4276,
      "oquine": 4277,
      "afinil": 4278,
      "Ġalpha": 4279,
      "Ġadvant": 4280,
      "apt": 4281,
      "Ġpersons": 4282,
      "ked": 4283,
      "Ġcapsules": 4284,
      "Ġulcer": 4285,
      "pper": 4286,
      "Ġtachycardia": 4287,
      "Ġenter": 4288,
      "Ġimprovement": 4289,
      "Ġoxidase": 4290,
      "cal": 4291,
      "Ġlor": 4292,
      "ĠSan": 4293,
      "Ġcy": 4294,
      "Ġconst": 4295,
      "ĠStre": 4296,
      "Ġdanger": 4297,
      "Ġlabel": 4298,
      "benz": 4299,
      "Ġfeed": 4300,
      "Ġreproduc": 4301,
      "Ġaw": 4302,
      "Ġwall": 4303,
      "nson": 4304,
      "rig": 4305,
      "Ġmostly": 4306,
      "Ġstrength": 4307,
      "Ġbal": 4308,
      "Ġlinked": 4309,
      "ĠPatients": 4310,
      "Ġachieve": 4311,
      "Ġdetermine": 4312,
      "Ġulcers": 4313,
      "EN": 4314,
      "tors": 4315,
      "ĠChina": 4316,
      "asion": 4317,
      "tioned": 4318,
      "Ġintest": 4319,
      "Ġthrombo": 4320,
      "itriptyline": 4321,
      "Ġste": 4322,
      "Ġuni": 4323,
      "Ġinvolve": 4324,
      "roup": 4325,
      "Ġenough": 4326,
      "Ġdecision": 4327,
      "Ġphosphate": 4328,
      "Ġmarked": 4329,
      "Ġanemia": 4330,
      "Ġfung": 4331,
      "Ġprinc": 4332,
      "carb": 4333,
      "Ġbehavi": 4334,
      "Ġhorses": 4335,
      "ira": 4336,
      "Ġbup": 4337,
      "60": 4338,
      "Ġschizophren": 4339,
      "Ġget": 4340,
      "Ġ35": 4341,
      "Ġoriginally": 4342,
      "Ġveterinary": 4343,
      "Ġfinal": 4344,
      "Ġneurotransmit": 4345,
      "Ġquickly": 4346,
      "CI": 4347,
      "Ġprovides": 4348,
      "Ġleft": 4349,
      "Ġcourse": 4350,
      "omitant": 4351,
      "Ġslightly": 4352,
      "year": 4353,
      "Ġsuppor": 4354,
      "keletal": 4355,
      "Ġ300": 4356,
      "Ġsales": 4357,
      "Ġdrops": 4358,
      "Ġminor": 4359,
      "ancing": 4360,
      "Ġbipolar": 4361,
      "phor": 4362,
      "Ġaged": 4363,
      "Ġmagn": 4364,
      "Ġcaution": 4365,
      "cycl": 4366,
      "PR": 4367,
      "ĠMA": 4368,
      "erous": 4369,
      "Ġbreathing": 4370,
      "Ġcompletely": 4371,
      "Ġreco": 4372,
      "Ġauthorization": 4373,
      "ĠLabor": 4374,
      "ournal": 4375,
      "Ġ75": 4376,
      "ĠnM": 4377,
      "Ġestrogenic": 4378,
      "more": 4379,
      "cious": 4380,
      "ospor": 4381,
      "rophy": 4382,
      "Ġlear": 4383,
      "put": 4384,
      "Ġalb": 4385,
      "Ġauthorized": 4386,
      "Ġtrem": 4387,
      "ley": 4388,
      "Ġax": 4389,
      "sh": 4390,
      "Ġenti": 4391,
      "etite": 4392,
      "HBG": 4393,
      "Ġold": 4394,
      "ĠTe": 4395,
      "ĠStudi": 4396,
      "Ġpersist": 4397,
      "24": 4398,
      "DL": 4399,
      "enolol": 4400,
      "openia": 4401,
      "ula": 4402,
      "ĠâĢ": 4403,
      "osa": 4404,
      "Ġquanti": 4405,
      "Ġchoice": 4406,
      "MT": 4407,
      "Ġ)": 4408,
      "Ġcur": 4409,
      "obic": 4410,
      "Ġnal": 4411,
      "Ġsem": 4412,
      "otic": 4413,
      "Ġcoron": 4414,
      "with": 4415,
      "Ġindicate": 4416,
      "Ġcord": 4417,
      "Ġput": 4418,
      "Ġcal": 4419,
      "oxicillin": 4420,
      "Ġcef": 4421,
      "Ġactivities": 4422,
      "tially": 4423,
      "Ġview": 4424,
      "Ġmetast": 4425,
      "Ġdesigned": 4426,
      "olysis": 4427,
      "Ġliterature": 4428,
      "Ġmyocardial": 4429,
      "eces": 4430,
      "antoin": 4431,
      "adine": 4432,
      "Ġmuc": 4433,
      "anic": 4434,
      "ylephrine": 4435,
      "Ġdehydrogen": 4436,
      "ĠAssociation": 4437,
      "Ġreversible": 4438,
      "Ġstrains": 4439,
      "Ġcast": 4440,
      "Ġvenous": 4441,
      "Ġantihist": 4442,
      "Ġappetite": 4443,
      "Ġmaintenance": 4444,
      "Ġattention": 4445,
      "rates": 4446,
      "Ġtuberculosis": 4447,
      "Ġinstance": 4448,
      "criptions": 4449,
      "Ġpropranolol": 4450,
      "):": 4451,
      "Ġparts": 4452,
      "Ġhot": 4453,
      "ĠRob": 4454,
      "iper": 4455,
      "Ġobserv": 4456,
      "Ġacetylch": 4457,
      "Ġdensity": 4458,
      "Ġconstipation": 4459,
      "Ġmanufactured": 4460,
      "Ġarr": 4461,
      "Ġvalue": 4462,
      "positive": 4463,
      "Ġdissol": 4464,
      "roscop": 4465,
      "ferase": 4466,
      "SO": 4467,
      "Ġimpact": 4468,
      "Ġethanol": 4469,
      "ĠProducts": 4470,
      "ormally": 4471,
      "Ġeliminated": 4472,
      "wo": 4473,
      "ials": 4474,
      "rew": 4475,
      "Ġaer": 4476,
      "Ġsil": 4477,
      "aptic": 4478,
      "izumab": 4479,
      "ĠUnlike": 4480,
      "Ġgives": 4481,
      "ĠPfizer": 4482,
      "ensed": 4483,
      "ĠFollowing": 4484,
      "Ġlib": 4485,
      "Ġleav": 4486,
      "Ġearli": 4487,
      "onses": 4488,
      "Ġfailed": 4489,
      "opur": 4490,
      "eli": 4491,
      "Ġsupplementation": 4492,
      "Ġoxidation": 4493,
      "Ġwhose": 4494,
      "Ġschizophrenia": 4495,
      "Ġlig": 4496,
      "pass": 4497,
      "sions": 4498,
      "PC": 4499,
      "Ġens": 4500,
      "Ġexpected": 4501,
      "Ġabnormalities": 4502,
      "Ġproducing": 4503,
      "omastia": 4504,
      "Ġinduced": 4505,
      "Ġdevice": 4506,
      "Ġlength": 4507,
      "Ġremoval": 4508,
      "etidine": 4509,
      "Ġanticonvulsant": 4510,
      "butazone": 4511,
      "Ġknow": 4512,
      "Ġresponses": 4513,
      "ying": 4514,
      "Ġcoll": 4515,
      "lying": 4516,
      "anding": 4517,
      "Ġdiethyl": 4518,
      "Ġfast": 4519,
      "Ġillness": 4520,
      "Ġtransporter": 4521,
      "ĠStudies": 4522,
      "Ġpenicillin": 4523,
      "Ġemploy": 4524,
      "Ġneuron": 4525,
      "Ġadopted": 4526,
      "amb": 4527,
      "Ġwors": 4528,
      "Ġretention": 4529,
      "Ġoverd": 4530,
      "imetidine": 4531,
      "Ġmenstrual": 4532,
      "Ġtrac": 4533,
      "Ġden": 4534,
      "ĠPsych": 4535,
      "oral": 4536,
      "ederal": 4537,
      "Ġrecovery": 4538,
      "Ġadequ": 4539,
      "Ġprogestogen": 4540,
      "Ġschool": 4541,
      "Ġingestion": 4542,
      "ĠHigh": 4543,
      "Ġminimal": 4544,
      "omal": 4545,
      "Ġreve": 4546,
      "Ġmotor": 4547,
      "Ġcommercial": 4548,
      "Ġhallucin": 4549,
      "Ġprofile": 4550,
      "Ġandrogenic": 4551,
      "Ġdiagnosis": 4552,
      "Ġinfarc": 4553,
      "ynecomastia": 4554,
      "Ġindications": 4555,
      "Ġlevonorgestrel": 4556,
      "Co": 4557,
      "vastatin": 4558,
      "Ġmeasures": 4559,
      "Ġsmo": 4560,
      "ĠADHD": 4561,
      "Ġinteract": 4562,
      "Ġdom": 4563,
      "Ġsufficient": 4564,
      "amazepine": 4565,
      "ĠDespite": 4566,
      "Ġacquired": 4567,
      "nes": 4568,
      "tri": 4569,
      "uses": 4570,
      "ĠParkinson": 4571,
      "ĠDr": 4572,
      "Ġretinol": 4573,
      "Ġantipsychotics": 4574,
      "lit": 4575,
      "Ġregion": 4576,
      "Ġlarger": 4577,
      "uries": 4578,
      "Ġmonotherapy": 4579,
      "Ġstarted": 4580,
      "inn": 4581,
      "ĠMar": 4582,
      "orrhea": 4583,
      "ĠTherefore": 4584,
      "Ġtook": 4585,
      "Ġreplaced": 4586,
      "respond": 4587,
      "Ġesters": 4588,
      "Ġcerebral": 4589,
      "ruc": 4590,
      "Ġatenolol": 4591,
      "ĠEar": 4592,
      "Ġneuro": 4593,
      "alian": 4594,
      "Ġjust": 4595,
      "Ġmamm": 4596,
      "opor": 4597,
      "Ġmanufacturers": 4598,
      "Ġengine": 4599,
      "Ġcontact": 4600,
      "Ġheav": 4601,
      "Ġsubstanti": 4602,
      "ocyc": 4603,
      "Ġhepar": 4604,
      "ady": 4605,
      "DP": 4606,
      "Ġcorticosteroids": 4607,
      "Ġfentanyl": 4608,
      "ĠThus": 4609,
      "Ġtrauma": 4610,
      "Ġcapac": 4611,
      "Ġfewer": 4612,
      "Ġinactiv": 4613,
      "rade": 4614,
      "retin": 4615,
      "Ġendogenous": 4616,
      "Ġtransi": 4617,
      "Ġdrowsiness": 4618,
      "Ġseven": 4619,
      "Ġcountry": 4620,
      "acetyl": 4621,
      "Ġmodern": 4622,
      "Ġtechnology": 4623,
      "ĠJapanese": 4624,
      "ester": 4625,
      "Ġfund": 4626,
      "Ġregimen": 4627,
      "Ġprotect": 4628,
      "Ġidentify": 4629,
      "ĠATP": 4630,
      "70": 4631,
      "ĠTestosterone": 4632,
      "Ġoccup": 4633,
      "ulates": 4634,
      "aminergic": 4635,
      "ann": 4636,
      "Ġplaced": 4637,
      "Ġhome": 4638,
      "Ġblocks": 4639,
      "Ġpill": 4640,
      "Ġovulation": 4641,
      "Ġgranted": 4642,
      "Ġconfirmed": 4643,
      "Ġaccumulation": 4644,
      "ĠPl": 4645,
      "ĠEl": 4646,
      "Ġdest": 4647,
      "off": 4648,
      "ident": 4649,
      "estrol": 4650,
      "ĠNov": 4651,
      "Ġabsence": 4652,
      "Ġoptim": 4653,
      "Ġeduc": 4654,
      "Ġchallen": 4655,
      "Ġtherapies": 4656,
      "Ġrequiring": 4657,
      "brain": 4658,
      "ĠSal": 4659,
      "Ġword": 4660,
      "ds": 4661,
      "Ġviv": 4662,
      "Ġprem": 4663,
      "Ġimmediate": 4664,
      "Ġinvestigation": 4665,
      "Ġneph": 4666,
      "ocytes": 4667,
      "Ġbillion": 4668,
      "raine": 4669,
      "Ġallowed": 4670,
      "tile": 4671,
      "Ġps": 4672,
      "Ġhom": 4673,
      "Ġfrequent": 4674,
      "Ġinjections": 4675,
      "Ġdefined": 4676,
      "Ġcreate": 4677,
      "Ġadoles": 4678,
      "RH": 4679,
      "Ġbest": 4680,
      "ĠMod": 4681,
      "Ġtranscription": 4682,
      "Ġcontinuous": 4683,
      "Ġinteg": 4684,
      "ĠSy": 4685,
      "ituitary": 4686,
      "Ġthromboemb": 4687,
      "Ġvers": 4688,
      "Ġey": 4689,
      "Ġingredient": 4690,
      "Ġupd": 4691,
      "Ġutil": 4692,
      "Ġevaluated": 4693,
      "Ġfatty": 4694,
      "Ġneurolog": 4695,
      "ĠVitamin": 4696,
      "Ġpsychological": 4697,
      "Ġorganisms": 4698,
      "Ġdangerous": 4699,
      "Ġprolif": 4700,
      "agen": 4701,
      "Ġexpressed": 4702,
      "Ġintermediate": 4703,
      "see": 4704,
      "comp": 4705,
      "ĠEU": 4706,
      "Ġissues": 4707,
      "Ġcorrespond": 4708,
      "oprazole": 4709,
      "ĠRus": 4710,
      "gg": 4711,
      "Ġreal": 4712,
      "ĠOf": 4713,
      "lycer": 4714,
      "Ġclaims": 4715,
      "Ġath": 4716,
      "Ġnitrogen": 4717,
      "Ġentire": 4718,
      "Ġaz": 4719,
      "The": 4720,
      "rict": 4721,
      "teroidal": 4722,
      "Ġclean": 4723,
      "ery": 4724,
      "Ġupper": 4725,
      "SH": 4726,
      "bre": 4727,
      "Ġextremely": 4728,
      "cortis": 4729,
      "Ġsupply": 4730,
      "Ġ2003": 4731,
      "Ġaid": 4732,
      "Ġhighest": 4733,
      "Ġrepeated": 4734,
      "Ġstage": 4735,
      "ĠFrance": 4736,
      "Ġreached": 4737,
      "Ġphysicians": 4738,
      "ĠSer": 4739,
      "Ġcontrover": 4740,
      "ĠDrugs": 4741,
      "bound": 4742,
      "Ġextra": 4743,
      "oprotein": 4744,
      "Ġmethylphenidate": 4745,
      "Ġinfarction": 4746,
      "23": 4747,
      "Ġpharmacokinetics": 4748,
      "ominant": 4749,
      "Ġpsychosis": 4750,
      "-(": 4751,
      "ange": 4752,
      "itable": 4753,
      "Ġnutri": 4754,
      "arent": 4755,
      "Ġann": 4756,
      "Ġpractic": 4757,
      "Ġten": 4758,
      "90": 4759,
      "zing": 4760,
      "Ġnext": 4761,
      "Ġeventually": 4762,
      "imer": 4763,
      "tex": 4764,
      "Ġmonit": 4765,
      "21": 4766,
      "vision": 4767,
      "water": 4768,
      "Ġsom": 4769,
      "Ġcocaine": 4770,
      "Ġpurposes": 4771,
      "Ġepinephrine": 4772,
      "lusive": 4773,
      "ĠAfrica": 4774,
      "stream": 4775,
      "ois": 4776,
      "Ġsensitivity": 4777,
      "ape": 4778,
      "Ġren": 4779,
      "Ġnature": 4780,
      "ĠInf": 4781,
      "osing": 4782,
      "Ġinsufficient": 4783,
      "reduc": 4784,
      "Ġradiation": 4785,
      "Ġtraditional": 4786,
      "Ġinduces": 4787,
      "Ġkey": 4788,
      "Ġmethadone": 4789,
      "ĠCenter": 4790,
      "Ġcop": 4791,
      "Ġrheum": 4792,
      "actic": 4793,
      "Ġ2002": 4794,
      "Ġbecomes": 4795,
      "agland": 4796,
      "lements": 4797,
      "pine": 4798,
      "oration": 4799,
      "Ġright": 4800,
      "Ġstable": 4801,
      "eds": 4802,
      "apse": 4803,
      "ĠSociety": 4804,
      "ellow": 4805,
      "inese": 4806,
      "ĠProg": 4807,
      "Ġcellular": 4808,
      "Ġcirculation": 4809,
      "Ġmarrow": 4810,
      "Ġquin": 4811,
      "Ġconcern": 4812,
      "Ġcomponents": 4813,
      "Ġattacks": 4814,
      "Ġoxide": 4815,
      "Ġanticoagul": 4816,
      "ĠClinical": 4817,
      "son": 4818,
      "Ġpure": 4819,
      "mediated": 4820,
      "Ġvalues": 4821,
      "Ġdiuretics": 4822,
      "Ġlisted": 4823,
      "ĠPa": 4824,
      "Ġhealing": 4825,
      "Ġbehavioral": 4826,
      "Ġdisp": 4827,
      "ime": 4828,
      "Ġsugar": 4829,
      "Ġpack": 4830,
      "Ġpharmacological": 4831,
      "Ġadenosine": 4832,
      "olid": 4833,
      "SC": 4834,
      "reatening": 4835,
      "Ġappropriate": 4836,
      "ĠBo": 4837,
      "ĠSci": 4838,
      "Ġerythromycin": 4839,
      "rich": 4840,
      "Ġantagonists": 4841,
      "Ġderm": 4842,
      "selective": 4843,
      "Ġviral": 4844,
      "Ġhydroxy": 4845,
      "Ġrif": 4846,
      "ĠCD": 4847,
      "Ġvascular": 4848,
      "Ġclosely": 4849,
      "%).": 4850,
      "ket": 4851,
      "Ġundergoes": 4852,
      "Ġinternational": 4853,
      "owel": 4854,
      "Ġinterfe": 4855,
      "Ġdisturbances": 4856,
      "Ġapplications": 4857,
      "ĠNorth": 4858,
      "Ġheparin": 4859,
      "gender": 4860,
      "Ġshor": 4861,
      "ĠFl": 4862,
      "Ġtheophylline": 4863,
      "ĠCons": 4864,
      "oxycycline": 4865,
      "Ġnumb": 4866,
      "Ġdefin": 4867,
      "rofurantoin": 4868,
      "Ġmetformin": 4869,
      "Ġexplain": 4870,
      "ĠSymptom": 4871,
      "organ": 4872,
      "vis": 4873,
      "Ġstructural": 4874,
      "Ġinvestigated": 4875,
      "mentation": 4876,
      "Ġrecre": 4877,
      "SRI": 4878,
      "versely": 4879,
      "Ġvaccination": 4880,
      "Ġavoided": 4881,
      "Ġdespite": 4882,
      "Ġmodified": 4883,
      "ogestrel": 4884,
      "oming": 4885,
      "umb": 4886,
      "holinergic": 4887,
      "Ġcharacterized": 4888,
      "ĠEs": 4889,
      "rietary": 4890,
      "Ġsmaller": 4891,
      "Ġmonitored": 4892,
      "izations": 4893,
      "ĠSec": 4894,
      "Ġheadaches": 4895,
      "Ġopin": 4896,
      "Ġmeasured": 4897,
      "Ġstrateg": 4898,
      "Ġster": 4899,
      "Ġbrom": 4900,
      "Ġdelayed": 4901,
      "apent": 4902,
      "75": 4903,
      "ticular": 4904,
      "ĠAg": 4905,
      "Ġseizure": 4906,
      "Ġacting": 4907,
      "Ġdependent": 4908,
      "izers": 4909,
      "ives": 4910,
      "Ġ28": 4911,
      "Ġscientists": 4912,
      "Ġions": 4913,
      "oints": 4914,
      "Ġirre": 4915,
      "lege": 4916,
      "Ġjoint": 4917,
      "Ġheld": 4918,
      "hythmias": 4919,
      "elves": 4920,
      "asc": 4921,
      "Ġfolate": 4922,
      "Ġface": 4923,
      "PP": 4924,
      "aled": 4925,
      "encies": 4926,
      "lux": 4927,
      "Ġphysiological": 4928,
      "celer": 4929,
      "Ġbus": 4930,
      "Ġconsumed": 4931,
      "Ġmetoclopramide": 4932,
      "Ġtakes": 4933,
      "Ġsoft": 4934,
      "Ġvivo": 4935,
      "Ġorganic": 4936,
      "ontin": 4937,
      "ithromycin": 4938,
      "Ġindicates": 4939,
      "Ġprogestin": 4940,
      "alline": 4941,
      "Ġfeel": 4942,
      "ĠBicalutamide": 4943,
      "eared": 4944,
      "inct": 4945,
      "ĠProp": 4946,
      "ĠMy": 4947,
      "Ġsuspected": 4948,
      "oll": 4949,
      "ctal": 4950,
      "Ġprescriptions": 4951,
      "Ġemotional": 4952,
      "Ġslowly": 4953,
      "Ġintravenously": 4954,
      "Ġlegal": 4955,
      "Ġolanzapine": 4956,
      "Ġ23": 4957,
      "ortion": 4958,
      "Ġactually": 4959,
      "Ġdehydrogenase": 4960,
      "ĠMethyl": 4961,
      "Ġgiving": 4962,
      "yphen": 4963,
      "Ġkinase": 4964,
      "Ġvessels": 4965,
      "Ġsust": 4966,
      "Ġtit": 4967,
      "adol": 4968,
      "Ġassessed": 4969,
      "ĠLev": 4970,
      "iet": 4971,
      "athic": 4972,
      "ĠSymptoms": 4973,
      "GF": 4974,
      "pre": 4975,
      "Ġdirec": 4976,
      "Ġnaturally": 4977,
      "Ġcerv": 4978,
      "olet": 4979,
      "Ġantibodies": 4980,
      "Ġinser": 4981,
      "Ġpopulations": 4982,
      "Ġ500": 4983,
      "oporosis": 4984,
      "Ġmyel": 4985,
      "Ġacetylcholine": 4986,
      "ochond": 4987,
      "illi": 4988,
      "ĠLong": 4989,
      "tious": 4990,
      "ĠServ": 4991,
      "Ġdegrad": 4992,
      "immun": 4993,
      "Ġnicotine": 4994,
      "OH": 4995,
      "asons": 4996,
      "Ġassist": 4997,
      "Ġthems": 4998,
      "asing": 4999,
      "odopa": 5000,
      "Ġstructures": 5001,
      "ĠVal": 5002,
      "Ġcoronary": 5003,
      "ĠYork": 5004,
      "ĠUs": 5005,
      "Ġetc": 5006,
      "iazide": 5007,
      "Ġunique": 5008,
      "lep": 5009,
      "Ġmuscles": 5010,
      "Ġnan": 5011,
      "osition": 5012,
      "Ġeasily": 5013,
      "Ġreceive": 5014,
      "Ġnumerous": 5015,
      "CD": 5016,
      "Ġgynecomastia": 5017,
      "dle": 5018,
      "Ġbarbiturates": 5019,
      "cemia": 5020,
      "Ġspace": 5021,
      "Ġthyroid": 5022,
      "dem": 5023,
      "threatening": 5024,
      "Ġhypothe": 5025,
      "Ġrevers": 5026,
      "Ġmicrob": 5027,
      "arinic": 5028,
      "Ġsupplements": 5029,
      "Ġproton": 5030,
      "Ġpenet": 5031,
      "Ġstatis": 5032,
      "Ġthemselves": 5033,
      "Ġcold": 5034,
      "Ġneon": 5035,
      "Ġdecreasing": 5036,
      "Ġult": 5037,
      "ĠQT": 5038,
      "Ġintestinal": 5039,
      "Ġsalts": 5040,
      "RA": 5041,
      "Ġrepresent": 5042,
      "Ġrout": 5043,
      "Ġspread": 5044,
      "Ġblack": 5045,
      "part": 5046,
      "Ġventricular": 5047,
      "ostatic": 5048,
      "Ġmening": 5049,
      "Ġexcess": 5050,
      "Ġsamples": 5051,
      "Ġtooth": 5052,
      "ĠINN": 5053,
      "Ġflutamide": 5054,
      "Ġfavor": 5055,
      "reased": 5056,
      "Ġmes": 5057,
      "Ġpast": 5058,
      "Ġarrest": 5059,
      "produc": 5060,
      "vir": 5061,
      "negative": 5062,
      "Ġclaimed": 5063,
      "ĠLow": 5064,
      "ened": 5065,
      "ulfiram": 5066,
      "Ġenco": 5067,
      "effective": 5068,
      "Ġcapacity": 5069,
      "Ġfetal": 5070,
      "Ġcollec": 5071,
      "osin": 5072,
      "Ġrelevant": 5073,
      "type": 5074,
      "Ġconcomitant": 5075,
      "Ġblocking": 5076,
      "Ġcarbamazepine": 5077,
      "Ġreturn": 5078,
      "Ġlorazepam": 5079,
      "Ġagonists": 5080,
      "aphyl": 5081,
      "ruit": 5082,
      "athetic": 5083,
      "Ġshock": 5084,
      "ĠChinese": 5085,
      "ingu": 5086,
      "otoxic": 5087,
      "ĠDip": 5088,
      "ĠCyc": 5089,
      "aches": 5090,
      "Ġegg": 5091,
      "Ġnight": 5092,
      "Ġsuperior": 5093,
      "ophilic": 5094,
      "olate": 5095,
      "Ġopinion": 5096,
      "ologist": 5097,
      "Ġomeprazole": 5098,
      "Ġcircum": 5099,
      "Ġfemin": 5100,
      "rium": 5101,
      "Ġsignaling": 5102,
      "Ġsensitive": 5103,
      "dic": 5104,
      "Ġeight": 5105,
      "Ġprincip": 5106,
      "ands": 5107,
      "racted": 5108,
      "Ġ190": 5109,
      "usc": 5110,
      "Ġerec": 5111,
      "Ġissue": 5112,
      "Ġaccount": 5113,
      "Ġservices": 5114,
      "Ġacceler": 5115,
      "ologic": 5116,
      "Ġimplement": 5117,
      "Ġpig": 5118,
      "ropion": 5119,
      "associ": 5120,
      "Ġorth": 5121,
      "Ġexists": 5122,
      "ĠWe": 5123,
      "amed": 5124,
      "proprietary": 5125,
      "Ġbox": 5126,
      "ico": 5127,
      "NF": 5128,
      "Ġhir": 5129,
      "Ġswelling": 5130,
      "Ġpolymer": 5131,
      "bor": 5132,
      "Ġadolesc": 5133,
      "othal": 5134,
      "exin": 5135,
      "Ġpediatric": 5136,
      "feren": 5137,
      "ĠMAO": 5138,
      "sutism": 5139,
      "Ġles": 5140,
      "Ġsuicide": 5141,
      "Ġmodul": 5142,
      "uture": 5143,
      "Ġstri": 5144,
      "binding": 5145,
      "Ġtolerated": 5146,
      "Ġlatter": 5147,
      "ĠPres": 5148,
      "bacter": 5149,
      "Ġdihydro": 5150,
      "Ġretinal": 5151,
      "Ġgonad": 5152,
      "Ġdomain": 5153,
      "Ġmitochond": 5154,
      "Ġmediated": 5155,
      "ĠSHBG": 5156,
      "Ġstopped": 5157,
      "Ġoccasion": 5158,
      "Ġwaste": 5159,
      "Ġconsists": 5160,
      "Ġprostagland": 5161,
      "iot": 5162,
      "Ġhirsutism": 5163,
      "Ġpanc": 5164,
      "Ġarti": 5165,
      "Ġmanufacturing": 5166,
      "fort": 5167,
      "legiline": 5168,
      "irt": 5169,
      "Ġcolor": 5170,
      "Ġdat": 5171,
      "Ġnonsteroidal": 5172,
      "Ġnormally": 5173,
      "Ġventi": 5174,
      "prednisolone": 5175,
      "Ġju": 5176,
      "mark": 5177,
      "ĠShe": 5178,
      "ifor": 5179,
      "Ġwrit": 5180,
      "LA": 5181,
      "Ġantibody": 5182,
      "Ġtheory": 5183,
      "nea": 5184,
      "ĠSur": 5185,
      "rypt": 5186,
      "acerb": 5187,
      "cortisone": 5188,
      "Ġconcept": 5189,
      "ĠSide": 5190,
      "Ġaim": 5191,
      "chem": 5192,
      "ĠTri": 5193,
      "Ġamitriptyline": 5194,
      "Ġsale": 5195,
      "Ġprice": 5196,
      "ĠGram": 5197,
      "Ġbic": 5198,
      "Ġure": 5199,
      "Ġobstruc": 5200,
      "Ġcut": 5201,
      "Ġ29": 5202,
      "Ġstere": 5203,
      "adder": 5204,
      "Ġdetected": 5205,
      "enes": 5206,
      "ĠDen": 5207,
      "ylate": 5208,
      "ses": 5209,
      "Ġphysician": 5210,
      "rous": 5211,
      "ricult": 5212,
      "plasia": 5213,
      "Ġreasons": 5214,
      "Ġtric": 5215,
      "tition": 5216,
      "ĠIntra": 5217,
      "Ġfurosemide": 5218,
      "ifornia": 5219,
      "Ġanesthesia": 5220,
      "Ġread": 5221,
      "amino": 5222,
      "ĨĴ": 5223,
      "eria": 5224,
      "Ġagg": 5225,
      "Ġgame": 5226,
      "Ġcodeine": 5227,
      "lete": 5228,
      "âĢĻ": 5229,
      "Ġosteoporosis": 5230,
      "Ġbat": 5231,
      "Ġstrongly": 5232,
      "unched": 5233,
      "Ġdon": 5234,
      "Ġbiosynthesis": 5235,
      "illy": 5236,
      "Ġspray": 5237,
      "Ġstabil": 5238,
      "ologically": 5239,
      "Ġprogression": 5240,
      "Ġsoon": 5241,
      "Ġhelps": 5242,
      "Ġrecommending": 5243,
      "ĠLatin": 5244,
      "Ġ2001": 5245,
      "Ġdoctors": 5246,
      "Ġprepared": 5247,
      "ranul": 5248,
      "ocytosis": 5249,
      "Ġcritical": 5250,
      "ĠPrim": 5251,
      "Ġenc": 5252,
      "Ġdoctor": 5253,
      "Ġattributed": 5254,
      "Ġsum": 5255,
      "Ġhypothal": 5256,
      "Ġhypno": 5257,
      "Ġfacilit": 5258,
      "Ġcompetitive": 5259,
      "ublic": 5260,
      "aprox": 5261,
      "Ġmutations": 5262,
      "abapent": 5263,
      "Ġgreatly": 5264,
      "Ġprescribing": 5265,
      "Ġcamp": 5266,
      "abapentin": 5267,
      "razodone": 5268,
      "nisone": 5269,
      "Ġbowel": 5270,
      "Ġcough": 5271,
      "Ġstimulant": 5272,
      "Ġoffer": 5273,
      "Ġcortis": 5274,
      "ĠMe": 5275,
      "Ġincorpor": 5276,
      "Ġpr": 5277,
      "ĠCalifornia": 5278,
      "ursor": 5279,
      "Ġembry": 5280,
      "LS": 5281,
      "asm": 5282,
      "Ġ22": 5283,
      "Ġhormonal": 5284,
      "Ġmisuse": 5285,
      "Ġmeet": 5286,
      "tage": 5287,
      "hydrate": 5288,
      "izine": 5289,
      "Ġneeds": 5290,
      "Ġversus": 5291,
      "Ġadolescents": 5292,
      "nRH": 5293,
      "ached": 5294,
      "eline": 5295,
      "pread": 5296,
      "\")": 5297,
      "jection": 5298,
      "entical": 5299,
      "Ġlicensed": 5300,
      "Ġunit": 5301,
      "Ġkeep": 5302,
      "Ġcolon": 5303,
      "Ġsubstrate": 5304,
      "ched": 5305,
      "Ġ{": 5306,
      "olamine": 5307,
      "idespread": 5308,
      "ombin": 5309,
      "Ġwoman": 5310,
      "ĠTwo": 5311,
      "lav": 5312,
      "Ġdiscus": 5313,
      "uric": 5314,
      "ylated": 5315,
      "Ġalg": 5316,
      "Ġscler": 5317,
      "ĠTrans": 5318,
      "ĠSaf": 5319,
      "Ġfeces": 5320,
      "ella": 5321,
      "ables": 5322,
      "opurinol": 5323,
      "Ġtamoxifen": 5324,
      "rometh": 5325,
      "ĠBet": 5326,
      "Ġcompleted": 5327,
      "ĠProl": 5328,
      "Ġanalogue": 5329,
      "Ġ,": 5330,
      "oxidil": 5331,
      "pid": 5332,
      "terior": 5333,
      "Ġarom": 5334,
      "Ġbath": 5335,
      "odyn": 5336,
      "Ġmethamphetamine": 5337,
      "Ġeffectively": 5338,
      "Ġretin": 5339,
      "Ġclot": 5340,
      "ovir": 5341,
      "Ġroutine": 5342,
      "ocon": 5343,
      "ĠGe": 5344,
      "Ġtrade": 5345,
      "Ġhistamine": 5346,
      "Ġnicotinic": 5347,
      "ĠHydro": 5348,
      "uz": 5349,
      "Ġoutside": 5350,
      "Ġpaper": 5351,
      "ether": 5352,
      "Ġprecursor": 5353,
      "aproxen": 5354,
      "treated": 5355,
      "Ġpsychiatric": 5356,
      "Ġdied": 5357,
      "Ġfluoxetine": 5358,
      "Ġneural": 5359,
      "ĠMal": 5360,
      "Ġenhanced": 5361,
      "ectomy": 5362,
      "Ġcall": 5363,
      "Ġ(\"": 5364,
      "unct": 5365,
      "Ġnovel": 5366,
      "qual": 5367,
      "Ġrise": 5368,
      "Ġfocus": 5369,
      "Ġexacerb": 5370,
      "Ġsperm": 5371,
      "aldehyde": 5372,
      "ancer": 5373,
      "Ġheat": 5374,
      "Ġascorbic": 5375,
      "Ġtransgender": 5376,
      "Ġlive": 5377,
      "rix": 5378,
      "Ġarticle": 5379,
      "Ġorg": 5380,
      "EA": 5381,
      "testosterone": 5382,
      "Ġanticholinergic": 5383,
      "Ġfish": 5384,
      "phal": 5385,
      "Ġanc": 5386,
      "Ġantiandrogenic": 5387,
      "Ġmalign": 5388,
      "ĠâĨĴ": 5389,
      "ĠZeal": 5390,
      "ressing": 5391,
      "Ġmember": 5392,
      "Ġexperiments": 5393,
      "ĠZealand": 5394,
      "vate": 5395,
      "ils": 5396,
      "Ġcoma": 5397,
      "Ġregulation": 5398,
      "Ġdevices": 5399,
      "auc": 5400,
      "Ġmach": 5401,
      "Ġrights": 5402,
      "Ġwithdrawn": 5403,
      "Ġweakness": 5404,
      "Ġexperimental": 5405,
      "Ġmedia": 5406,
      "orethisterone": 5407,
      "ĠChloramphenicol": 5408,
      "Ġapparent": 5409,
      "Ġappeared": 5410,
      "Ġthi": 5411,
      "odil": 5412,
      "Ġwidespread": 5413,
      "Ġirritation": 5414,
      "ĠPhase": 5415,
      "95": 5416,
      "teral": 5417,
      "inate": 5418,
      "Ġpsor": 5419,
      "Ġrev": 5420,
      "Ġinterval": 5421,
      "adily": 5422,
      "Ġregions": 5423,
      "ĠEnglish": 5424,
      "elle": 5425,
      "Ġdepressive": 5426,
      "22": 5427,
      "Ġwr": 5428,
      "Ġpostmenopausal": 5429,
      "Ġrestricted": 5430,
      "ledge": 5431,
      "associated": 5432,
      "Ġcoli": 5433,
      "Ġpropor": 5434,
      "Ġ1999": 5435,
      "erness": 5436,
      "ĠMic": 5437,
      "Ġpartially": 5438,
      "actam": 5439,
      "Ġ45": 5440,
      "Ġcomb": 5441,
      "ĠPhy": 5442,
      "ido": 5443,
      "down": 5444,
      "ĠFlu": 5445,
      "oscop": 5446,
      "PD": 5447,
      "Ġperman": 5448,
      "Ġthromboembolism": 5449,
      "Ġce": 5450,
      "activity": 5451,
      "Ġcoup": 5452,
      "ĠBenzodiazep": 5453,
      "Ġpreferred": 5454,
      "tene": 5455,
      "Ġinternal": 5456,
      "Ġinjuries": 5457,
      "Ġundec": 5458,
      "ĠSwed": 5459,
      "also": 5460,
      "Ġdifficulty": 5461,
      "max": 5462,
      "Ġether": 5463,
      "ĠBayer": 5464,
      "Ġenl": 5465,
      "Ġregulatory": 5466,
      "mer": 5467,
      "Ġlif": 5468,
      "Ġbanned": 5469,
      "Ġrifamp": 5470,
      "oor": 5471,
      "Ġusage": 5472,
      "ĠMc": 5473,
      "yses": 5474,
      "ĠPharma": 5475,
      "oconazole": 5476,
      "Ġphenylephrine": 5477,
      "ĠDex": 5478,
      "Ġlet": 5479,
      "ĠDH": 5480,
      "rought": 5481,
      "enec": 5482,
      "Ġcimetidine": 5483,
      "Ġreference": 5484,
      "free": 5485,
      "Ġbiosimilar": 5486,
      "Ġarrhythmias": 5487,
      "Ġsample": 5488,
      "Ġinfer": 5489,
      "abolic": 5490,
      "Ġmales": 5491,
      "unger": 5492,
      "Ġarm": 5493,
      "dim": 5494,
      "gy": 5495,
      "ĠCont": 5496,
      "Ġneurotransmitter": 5497,
      "roamphetamine": 5498,
      "Ġreverse": 5499,
      "Ġcame": 5500,
      "uck": 5501,
      "Ġground": 5502,
      "Ġairway": 5503,
      "Ġwhole": 5504,
      "itions": 5505,
      "ĠPCB": 5506,
      "immune": 5507,
      "renone": 5508,
      "Ġcancers": 5509,
      "Ġsulfon": 5510,
      "Ġbasic": 5511,
      "tian": 5512,
      "Ġacidic": 5513,
      "Ġpossibility": 5514,
      "Ġalways": 5515,
      "phosphate": 5516,
      "anolone": 5517,
      "rosp": 5518,
      "kalemia": 5519,
      "Ġsurround": 5520,
      "Ġrh": 5521,
      "Ġcortex": 5522,
      "Ġpremature": 5523,
      "Ġsusceptible": 5524,
      "Ġtransfer": 5525,
      "specific": 5526,
      "Ġneurological": 5527,
      "Ġimaging": 5528,
      "Ġproliferation": 5529,
      "certain": 5530,
      "arotene": 5531,
      "orphan": 5532,
      "ĠCollege": 5533,
      "Ġscre": 5534,
      "Ġvalpro": 5535,
      ".)": 5536,
      "Ġprobably": 5537,
      "Ġgram": 5538,
      "Ġmind": 5539,
      "mental": 5540,
      "Ġgenome": 5541,
      "Ġhyperplasia": 5542,
      "Ġhemorrh": 5543,
      "Ġsynthesize": 5544,
      "Ġcypro": 5545,
      "ĠAlso": 5546,
      "ĠMon": 5547,
      "ĠChar": 5548,
      "gal": 5549,
      "Ġrod": 5550,
      "Ġpersonal": 5551,
      "Ġearlier": 5552,
      "yclic": 5553,
      "Ġingredients": 5554,
      "Ġoption": 5555,
      "ĠHer": 5556,
      "Ġchanged": 5557,
      "ls": 5558,
      "Ġremove": 5559,
      "Ġenvironmental": 5560,
      "edip": 5561,
      "Ġloop": 5562,
      "Ġbreath": 5563,
      "Ġeyes": 5564,
      "Ġcongen": 5565,
      "Ġtwice": 5566,
      "ĠCoch": 5567,
      "Ġimproving": 5568,
      "uns": 5569,
      "Ġmigraine": 5570,
      "ĠEd": 5571,
      "ĠFem": 5572,
      "Ġblocker": 5573,
      "asive": 5574,
      "ĠConversely": 5575,
      "Ġau": 5576,
      "Ġnearly": 5577,
      "gonad": 5578,
      "ĠIsoniazid": 5579,
      "Ġsmooth": 5580,
      "phthal": 5581,
      "Ġfore": 5582,
      "Ġlost": 5583,
      "iclofen": 5584,
      "Ġexamin": 5585,
      "Ġrad": 5586,
      "Ġdox": 5587,
      "Ġfolic": 5588,
      "elic": 5589,
      "Ġcyan": 5590,
      "self": 5591,
      "anil": 5592,
      "Ġmicron": 5593,
      "Ġperiods": 5594,
      "ĠNa": 5595,
      "range": 5596,
      "tification": 5597,
      "Ġcatech": 5598,
      "Ġmag": 5599,
      "idocaine": 5600,
      "urred": 5601,
      "Ġ1998": 5602,
      "Ġhold": 5603,
      "Ġintracellular": 5604,
      "Ġhealthcare": 5605,
      "phenyl": 5606,
      "ĠPhenytoin": 5607,
      "Ġoffic": 5608,
      "itus": 5609,
      "fusion": 5610,
      "ypes": 5611,
      "Ġcarry": 5612,
      "Ġadvised": 5613,
      "ĠSpec": 5614,
      "esium": 5615,
      "steine": 5616,
      "iclofenac": 5617,
      "ested": 5618,
      "Ġlys": 5619,
      "Ġdifferenti": 5620,
      "ffee": 5621,
      "ropine": 5622,
      "irr": 5623,
      "Ġsequences": 5624,
      "gia": 5625,
      "Ġtree": 5626,
      "Ġamb": 5627,
      "fl": 5628,
      "ĠBen": 5629,
      "IC": 5630,
      "ĠSDS": 5631,
      "ĠPri": 5632,
      "ventional": 5633,
      "Ġinside": 5634,
      "otidine": 5635,
      "Ġingest": 5636,
      "Ġ400": 5637,
      "Ġexceed": 5638,
      "Ġneuropathy": 5639,
      "RT": 5640,
      "Ġexcept": 5641,
      "Ġsurge": 5642,
      "oxygen": 5643,
      "sian": 5644,
      "Ġantigen": 5645,
      "Ġprednisolone": 5646,
      "ĠCochrane": 5647,
      "Ġindustry": 5648,
      "born": 5649,
      "ĠLaboratories": 5650,
      "Ġcontinue": 5651,
      "alexin": 5652,
      "ostic": 5653,
      "ĠSyn": 5654,
      "ilization": 5655,
      "ethylamine": 5656,
      "ĠCancer": 5657,
      "Ġhearing": 5658,
      "Ġindependent": 5659,
      "Ġmaterials": 5660,
      "ĠLilly": 5661,
      "Ġadjust": 5662,
      "gluc": 5663,
      "tid": 5664,
      "ifedip": 5665,
      "ĠAst": 5666,
      "Ġmetastatic": 5667,
      "yr": 5668,
      "ĠPol": 5669,
      "ĠDel": 5670,
      "Ġsickness": 5671,
      "EE": 5672,
      "TC": 5673,
      "Ġsynth": 5674,
      "tes": 5675,
      "amycin": 5676,
      "ĠFrom": 5677,
      "orphone": 5678,
      "Ġproviding": 5679,
      "roxyprogesterone": 5680,
      "Ġnarco": 5681,
      "Ġil": 5682,
      "oxone": 5683,
      "Ġmodafinil": 5684,
      "char": 5685,
      "Ġbalance": 5686,
      "tra": 5687,
      "osupp": 5688,
      "ĠCH": 5689,
      "Ġinduction": 5690,
      "Ġchest": 5691,
      "Ġsuggesting": 5692,
      "Ġbrad": 5693,
      "ĠLithium": 5694,
      "idation": 5695,
      "ĠWHO": 5696,
      "Ġdetect": 5697,
      "ken": 5698,
      "Ġdrinking": 5699,
      "ĠDise": 5700,
      "iat": 5701,
      "Ġtravel": 5702,
      "ĠCNS": 5703,
      "Ġ27": 5704,
      "Ġintroduction": 5705,
      "ocarb": 5706,
      "ĠStaphyl": 5707,
      "Ġworkers": 5708,
      "rolone": 5709,
      "mg": 5710,
      "Ġanesthetic": 5711,
      "Ġlaunched": 5712,
      "Ġways": 5713,
      "Ġfetus": 5714,
      "ĠSimilarly": 5715,
      "Ġraised": 5716,
      "Ġdecl": 5717,
      "Ġfollic": 5718,
      "Ġpredominant": 5719,
      "ĠSubstances": 5720,
      "Ġtaste": 5721,
      "Ġepisodes": 5722,
      "Ġnational": 5723,
      "dol": 5724,
      "ifer": 5725,
      "Ġamoxicillin": 5726,
      "Ġcritic": 5727,
      "Ġbeg": 5728,
      "Ġuptake": 5729,
      "solute": 5730,
      "Ġsteroids": 5731,
      "Ġcomes": 5732,
      "ocal": 5733,
      "ĠEff": 5734,
      "Ġrab": 5735,
      "Ġvein": 5736,
      "Ġcontamin": 5737,
      "Ġrecognized": 5738,
      "Ġresol": 5739,
      "Ġstor": 5740,
      "Ġmothers": 5741,
      "ĠBrand": 5742,
      "Ġchemicals": 5743,
      "ĠÏ": 5744,
      "Ġquestion": 5745,
      "Ġ26": 5746,
      "Ġmov": 5747,
      "ĠRed": 5748,
      "Ġterat": 5749,
      "Ġvoltage": 5750,
      "Ġcontained": 5751,
      "Ġadren": 5752,
      "timately": 5753,
      "26": 5754,
      "Ġorigin": 5755,
      "pts": 5756,
      "idol": 5757,
      "ĠTop": 5758,
      "Ġitching": 5759,
      "phil": 5760,
      "ologists": 5761,
      "rical": 5762,
      "antoprazole": 5763,
      "razolam": 5764,
      "ĠEnter": 5765,
      "Ġeducation": 5766,
      "ck": 5767,
      "Ġhex": 5768,
      "yper": 5769,
      "Ġbrought": 5770,
      "atoid": 5771,
      "ontaneous": 5772,
      "oform": 5773,
      "Ġineffective": 5774,
      "azolam": 5775,
      "ĠChild": 5776,
      "Ġcannab": 5777,
      "brand": 5778,
      "Ġfuture": 5779,
      "Ġreadily": 5780,
      "Ġhepatotoxicity": 5781,
      "Ġadvantage": 5782,
      "dex": 5783,
      "Ġreviews": 5784,
      "reed": 5785,
      "Ġsimple": 5786,
      "itals": 5787,
      "Ġlog": 5788,
      "ĠSafety": 5789,
      "ona": 5790,
      "Ġchol": 5791,
      "Ġ65": 5792,
      "Ġammon": 5793,
      "ĠItalian": 5794,
      "Ġanalogues": 5795,
      "Ġrecreational": 5796,
      "bility": 5797,
      "reshold": 5798,
      "phas": 5799,
      "ĠSSRI": 5800,
      "okal": 5801,
      "Ġsteps": 5802,
      "Ġclin": 5803,
      "Ġintestine": 5804,
      "Ġvaries": 5805,
      "Ġeu": 5806,
      "icians": 5807,
      "TA": 5808,
      "Ġcortisol": 5809,
      "hering": 5810,
      "Ġsolub": 5811,
      "ĠFurthermore": 5812,
      "Ġcure": 5813,
      "ĠMerc": 5814,
      "Ġalbumin": 5815,
      "sed": 5816,
      "prazolam": 5817,
      "sm": 5818,
      "Ġfeatures": 5819,
      "anine": 5820,
      "Ġadequate": 5821,
      "state": 5822,
      "ĠGnRH": 5823,
      "Ġsuccessfully": 5824,
      "Ġvic": 5825,
      "Ġshowing": 5826,
      "Ġexperiment": 5827,
      "Ġinfant": 5828,
      "astro": 5829,
      "approved": 5830,
      "Ġsolid": 5831,
      "orex": 5832,
      "Ġculture": 5833,
      "Ġpeptide": 5834,
      "Ġdeb": 5835,
      "Ġ36": 5836,
      "Ġhero": 5837,
      "sequently": 5838,
      "ĠMen": 5839,
      "Ġconsistent": 5840,
      "ĠVTE": 5841,
      "ranes": 5842,
      "Ġ\\": 5843,
      "Ġviol": 5844,
      "only": 5845,
      "Ġprohib": 5846,
      "igned": 5847,
      "Ġrheumatoid": 5848,
      "ushing": 5849,
      "ĠInd": 5850,
      "ards": 5851,
      "syn": 5852,
      "amil": 5853,
      "Ġparenteral": 5854,
      "ĠIntravenous": 5855,
      "icit": 5856,
      "idity": 5857,
      "Ġves": 5858,
      "Ġuncom": 5859,
      "Ġsupported": 5860,
      "rill": 5861,
      "Ġcand": 5862,
      "Ġborn": 5863,
      "aste": 5864,
      "ectious": 5865,
      "ĠAnd": 5866,
      "Ġport": 5867,
      "ĠCompany": 5868,
      "Ġsympathetic": 5869,
      "pped": 5870,
      "Ġtenderness": 5871,
      "erves": 5872,
      "androlone": 5873,
      "Ġlocated": 5874,
      "Ġsimp": 5875,
      "Ġnucleus": 5876,
      "ifedipine": 5877,
      "Ġlas": 5878,
      "mediately": 5879,
      "Ġtube": 5880,
      "Ġgranting": 5881,
      "Ġpel": 5882,
      "igible": 5883,
      "oyl": 5884,
      "ĠStaphylococcus": 5885,
      "ĠCour": 5886,
      "Ġadrenergic": 5887,
      "ĠOp": 5888,
      "Ġconflic": 5889,
      "rs": 5890,
      "Ġfractures": 5891,
      "Ġilleg": 5892,
      "ĠLim": 5893,
      "Ġtowards": 5894,
      "Ġapplicant": 5895,
      "uation": 5896,
      "ĠPot": 5897,
      "ĠMex": 5898,
      "Ġantipsychotic": 5899,
      "Ġglobal": 5900,
      "unted": 5901,
      "Ġdepends": 5902,
      "Ġdatab": 5903,
      "aces": 5904,
      "Ġcongenital": 5905,
      "uster": 5906,
      "Ġplus": 5907,
      "Ġcenter": 5908,
      "Ġoverdoses": 5909,
      "Ġpractices": 5910,
      "Ġages": 5911,
      "Ġsynthase": 5912,
      "ĠâĪĴ": 5913,
      "Ġanaly": 5914,
      "ĠDC": 5915,
      "Ġpromote": 5916,
      "Ġradical": 5917,
      "Ġfa": 5918,
      "Ġsubunit": 5919,
      "Ġauto": 5920,
      "ĠHealthcare": 5921,
      "Ġparent": 5922,
      "Ġconscious": 5923,
      "Ġmuscarinic": 5924,
      "sibly": 5925,
      "Ġartery": 5926,
      "Ġvarying": 5927,
      "Ġamine": 5928,
      "Ġneuros": 5929,
      "Ġstrain": 5930,
      "Ġspir": 5931,
      "Ġspectrum": 5932,
      "Ġagricult": 5933,
      "Ġcarried": 5934,
      "letes": 5935,
      "oked": 5936,
      "'t": 5937,
      "arbonate": 5938,
      "ypical": 5939,
      "oar": 5940,
      "Ġseparate": 5941,
      "Ġcoffee": 5942,
      "ĠWilli": 5943,
      "Ġdepress": 5944,
      "Ġdistingu": 5945,
      "Ġimproves": 5946,
      "Ġhyperkalemia": 5947,
      "ek": 5948,
      "ĠNM": 5949,
      "Ġdistributed": 5950,
      "Ġphenomen": 5951,
      ",\"": 5952,
      "oglobulin": 5953,
      "Ġsuff": 5954,
      "Ġauthors": 5955,
      "ĠSystem": 5956,
      "Ġcit": 5957,
      "rown": 5958,
      "45": 5959,
      "ĠInter": 5960,
      "Ġuncertain": 5961,
      "onin": 5962,
      "ĠAM": 5963,
      "ĠSup": 5964,
      "Ġdraw": 5965,
      "Ġcomparable": 5966,
      "Ġchloroquine": 5967,
      "Ġprophylaxis": 5968,
      "Ġtargets": 5969,
      "Ġ1940": 5970,
      "isation": 5971,
      "99": 5972,
      "Ġcreating": 5973,
      "uel": 5974,
      "Ġavailability": 5975,
      "Ġmm": 5976,
      "Ġimmediately": 5977,
      "fen": 5978,
      "zer": 5979,
      "inone": 5980,
      "obacter": 5981,
      "Ġhormones": 5982,
      "adian": 5983,
      "Ġeuphor": 5984,
      "atur": 5985,
      "Ġcoord": 5986,
      "Ġlis": 5987,
      "Ġampicillin": 5988,
      "Ġcategory": 5989,
      "ians": 5990,
      "kines": 5991,
      "Ġbot": 5992,
      "ĠEC": 5993,
      "Ġcorrect": 5994,
      "absor": 5995,
      "Ġrecently": 5996,
      "Ġtetracycline": 5997,
      "etamine": 5998,
      "Ġcore": 5999,
      "Ġefforts": 6000,
      "uting": 6001,
      "Ġexact": 6002,
      "Ġbeginning": 6003,
      "Ġfacial": 6004,
      "Ġliving": 6005,
      "ubicin": 6006,
      "yond": 6007,
      "Ġfix": 6008,
      "isopro": 6009,
      "rile": 6010,
      "Ġsustained": 6011,
      "Ġconstant": 6012,
      "Ġnuclear": 6013,
      "Ġmedroxyprogesterone": 6014,
      "acco": 6015,
      "Ġpituitary": 6016,
      "controlled": 6017,
      "Ġremaining": 6018,
      "Ġmanif": 6019,
      "Ġhost": 6020,
      "ĠDepartment": 6021,
      "Ġexperiencing": 6022,
      "Ġyou": 6023,
      "Ġregulated": 6024,
      "Ġ.": 6025,
      "Ġsent": 6026,
      "oga": 6027,
      "Ġeating": 6028,
      "Ġgave": 6029,
      "Ġroutes": 6030,
      "Ġfit": 6031,
      "ĠPhenobarbital": 6032,
      "NH": 6033,
      "Ġketoconazole": 6034,
      "Ġuns": 6035,
      "Ġrecombin": 6036,
      "Ġspontaneous": 6037,
      "com": 6038,
      "Ġstimulates": 6039,
      "where": 6040,
      "Ġpay": 6041,
      "Ġabsolute": 6042,
      "Ġcolle": 6043,
      "Ġforce": 6044,
      "iclone": 6045,
      "Ġlethal": 6046,
      "Ġ1995": 6047,
      "Ġimplants": 6048,
      "Ġhard": 6049,
      "ĠSuch": 6050,
      "Ġtoxin": 6051,
      "Ġsuppos": 6052,
      "Ġepit": 6053,
      "Ġtob": 6054,
      "Ġdisulfiram": 6055,
      "angu": 6056,
      "Ġcarcinogen": 6057,
      "Ġdoxycycline": 6058,
      "alp": 6059,
      "ĠAv": 6060,
      "Ġbile": 6061,
      "Ġheter": 6062,
      "Ġcyclic": 6063,
      "ĠUnder": 6064,
      "ventions": 6065,
      "Ġglobulin": 6066,
      "aucoma": 6067,
      "isc": 6068,
      "anoate": 6069,
      "ĠRel": 6070,
      "ĠÎ¼M": 6071,
      "Ġselegiline": 6072,
      "Ġhistor": 6073,
      "Ġthreshold": 6074,
      "Ġexception": 6075,
      "endently": 6076,
      "okines": 6077,
      "Ġrevealed": 6078,
      "29": 6079,
      "Ġinstit": 6080,
      "Ġaxis": 6081,
      "atively": 6082,
      "razil": 6083,
      "Ġensure": 6084,
      "istics": 6085,
      "opiclone": 6086,
      "Ġreductase": 6087,
      "ipment": 6088,
      "okalemia": 6089,
      "isting": 6090,
      "ĠJohnson": 6091,
      "amet": 6092,
      "athom": 6093,
      "Ġpreval": 6094,
      "ĠAdopted": 6095,
      "Ġracemic": 6096,
      "adem": 6097,
      "Ġsignal": 6098,
      "PS": 6099,
      "Ġsn": 6100,
      "Ġdental": 6101,
      "Ġcover": 6102,
      "Ġglands": 6103,
      "enta": 6104,
      "Ġindustrial": 6105,
      "ĠDiphen": 6106,
      "ev": 6107,
      "ka": 6108,
      "Ġaccomp": 6109,
      "Ġrepair": 6110,
      "Ġscreening": 6111,
      "place": 6112,
      "Ġobj": 6113,
      "Ġsignificance": 6114,
      "aise": 6115,
      "udden": 6116,
      "Ġexisting": 6117,
      "ĠBel": 6118,
      "Ġbicarbonate": 6119,
      "Ġplatelet": 6120,
      "Ġtremor": 6121,
      "Ġcontroversi": 6122,
      "meth": 6123,
      "ided": 6124,
      "Ġkne": 6125,
      "Ġassessment": 6126,
      "ophage": 6127,
      "Ġinterfere": 6128,
      "ming": 6129,
      "Ġlik": 6130,
      "Ġoccasionally": 6131,
      "allow": 6132,
      "Ġstre": 6133,
      "Ġcris": 6134,
      "Ġexclusive": 6135,
      "Ġsuitable": 6136,
      "Ġsmoking": 6137,
      "amma": 6138,
      "Ġleukemia": 6139,
      "gers": 6140,
      "atase": 6141,
      "illed": 6142,
      "Ġlowering": 6143,
      "ĠSulf": 6144,
      "cobacter": 6145,
      "yched": 6146,
      "Ġlevodopa": 6147,
      "Ġunable": 6148,
      "Ġexpand": 6149,
      "cinate": 6150,
      "Ġribos": 6151,
      "Ġstages": 6152,
      "ought": 6153,
      "Ġhapp": 6154,
      "Ġgrowing": 6155,
      "vy": 6156,
      "Ġvul": 6157,
      "ĠBio": 6158,
      "carotene": 6159,
      "Ġmineralocorticoid": 6160,
      "Ġpsycho": 6161,
      "Ġknowledge": 6162,
      "ulos": 6163,
      "argement": 6164,
      "Ġneutral": 6165,
      "amus": 6166,
      "ĠPen": 6167,
      "Ġdesired": 6168,
      "ĠStrept": 6169,
      "ofi": 6170,
      "Ġalk": 6171,
      "Ġotherwise": 6172,
      "Ġoxidative": 6173,
      "ĠEp": 6174,
      "Ġthrombocyt": 6175,
      "Ġsin": 6176,
      "ĠJournal": 6177,
      "position": 6178,
      "Ġtemazepam": 6179,
      "erty": 6180,
      "Ġfiled": 6181,
      "Ġseason": 6182,
      "Ġmotion": 6183,
      "Ġanaphylaxis": 6184,
      "ĠBrazil": 6185,
      "lig": 6186,
      "Ġfederal": 6187,
      "Ġroom": 6188,
      "Ġcosts": 6189,
      "ĠCB": 6190,
      "Ġblockade": 6191,
      "ĠImp": 6192,
      "lets": 6193,
      "ĠNorethisterone": 6194,
      "aryn": 6195,
      "Ġbiom": 6196,
      "enzym": 6197,
      "aque": 6198,
      "Rs": 6199,
      "lycemia": 6200,
      "Ġantid": 6201,
      "Ġmembranes": 6202,
      "In": 6203,
      "stim": 6204,
      "Ġfluoroqu": 6205,
      "ĠDexamethasone": 6206,
      "ĠAdverse": 6207,
      "Ġfraction": 6208,
      "Ġunits": 6209,
      "Ġmechanical": 6210,
      "Ġhypogonad": 6211,
      "Ġemployed": 6212,
      "azol": 6213,
      "Ġcenters": 6214,
      "ephal": 6215,
      "romethorphan": 6216,
      "order": 6217,
      "Ġcorrel": 6218,
      "Ġdetail": 6219,
      "glyc": 6220,
      "ophosph": 6221,
      "itual": 6222,
      "Ġdecline": 6223,
      "ĠAmong": 6224,
      "anolamine": 6225,
      "ĠDiphenhydramine": 6226,
      "Ġlin": 6227,
      "Ġreactive": 6228,
      "Ġnitrofurantoin": 6229,
      "Ġimmunoglobulin": 6230,
      "Ġyounger": 6231,
      "Ġcolleag": 6232,
      "Ġcontext": 6233,
      "Ġattached": 6234,
      "US": 6235,
      "endazole": 6236,
      "heimer": 6237,
      "ĠMark": 6238,
      "Ġtransmission": 6239,
      "Ġallevi": 6240,
      "entia": 6241,
      "inamide": 6242,
      "Ġbladder": 6243,
      "Ġattempts": 6244,
      "fung": 6245,
      "lactam": 6246,
      "Ġ1997": 6247,
      "Ġunderstood": 6248,
      "Ġsolubility": 6249,
      "ĠFurosemide": 6250,
      "Ġdivid": 6251,
      "Ġaccord": 6252,
      "Ġflashes": 6253,
      "27": 6254,
      "EP": 6255,
      "ycardia": 6256,
      "Ġstudents": 6257,
      "ĠMedicinal": 6258,
      "ĠOnly": 6259,
      "ĠCourt": 6260,
      "etron": 6261,
      "Ġgut": 6262,
      "Ġagitation": 6263,
      "lingual": 6264,
      "ĠSpider": 6265,
      "Ġbaby": 6266,
      "acts": 6267,
      "Ġultimately": 6268,
      "transferase": 6269,
      "Ġskills": 6270,
      "ĠPan": 6271,
      "Ġveget": 6272,
      "Ġstorage": 6273,
      "Ġextract": 6274,
      "Ġdistinct": 6275,
      "Ġfrag": 6276,
      "Ġconstruc": 6277,
      "Ġhaz": 6278,
      "Ġpatch": 6279,
      "Ġwritten": 6280,
      "Ġaffects": 6281,
      "ĠPlas": 6282,
      "Ġextensively": 6283,
      "Ġoutcome": 6284,
      "Ġyellow": 6285,
      "Ġelectron": 6286,
      "Ġseems": 6287,
      "Ġupdated": 6288,
      "ci": 6289,
      "Ġgoal": 6290,
      "CR": 6291,
      "etition": 6292,
      "Ġtemporary": 6293,
      "Ġaddi": 6294,
      "Ġcontrac": 6295,
      "Ġchemist": 6296,
      "sen": 6297,
      "Ġaway": 6298,
      "prom": 6299,
      "ĠCare": 6300,
      "oglyc": 6301,
      "Ġpara": 6302,
      "ensin": 6303,
      "28": 6304,
      "LC": 6305,
      "Ġswit": 6306,
      "ĠControl": 6307,
      "Ġpatented": 6308,
      "factor": 6309,
      "Ġovarian": 6310,
      "Ġequal": 6311,
      "Ġimm": 6312,
      "ĠPhenyl": 6313,
      "tified": 6314,
      "fully": 6315,
      "Ġtrue": 6316,
      "âĢĲ": 6317,
      "Ġactivates": 6318,
      "Ġindex": 6319,
      "Ġpatterns": 6320,
      "Ġreproductive": 6321,
      "retinoin": 6322,
      "Ġcoag": 6323,
      "gestive": 6324,
      "Ġremained": 6325,
      "ĠEr": 6326,
      "Ġnetwork": 6327,
      "Ġlearning": 6328,
      "cies": 6329,
      "otrex": 6330,
      "Ġelectroly": 6331,
      "uloskeletal": 6332,
      "38": 6333,
      "nort": 6334,
      "Ġanhyd": 6335,
      "tivation": 6336,
      "Ġbecoming": 6337,
      "regular": 6338,
      "Ġintervention": 6339,
      "Ġidea": 6340,
      "ĠMerck": 6341,
      "ĠOnce": 6342,
      "oring": 6343,
      "Ġlibido": 6344,
      "ĠNonproprietary": 6345,
      "Ġcrim": 6346,
      "fluor": 6347,
      "oside": 6348,
      "Ġdextroamphetamine": 6349,
      "Ġneuronal": 6350,
      "Ġadapt": 6351,
      "ylase": 6352,
      "ĠNeu": 6353,
      "ĠAsia": 6354,
      "Ġpyrid": 6355,
      "Ġgradually": 6356,
      "Ġ250": 6357,
      "ĠState": 6358,
      "oglobin": 6359,
      "Ġmagnesium": 6360,
      "imetic": 6361,
      "ends": 6362,
      "Ġfoot": 6363,
      "Ġagree": 6364,
      "Ġbehaviour": 6365,
      "ĠHist": 6366,
      "Ġneonatal": 6367,
      "aren": 6368,
      "anal": 6369,
      "Ġdioxide": 6370,
      "tilb": 6371,
      "Ġdocumented": 6372,
      "Ġantigonad": 6373,
      "asteride": 6374,
      "Ġbenzoate": 6375,
      "Ġcontraception": 6376,
      "Ġfaster": 6377,
      "ramidal": 6378,
      "Ġsympathom": 6379,
      "ospitals": 6380,
      "rofloxacin": 6381,
      "anish": 6382,
      "Ġmicronized": 6383,
      "ush": 6384,
      "Ġpsyched": 6385,
      "Ġdegradation": 6386,
      "Ġenlargement": 6387,
      "Ġcyproterone": 6388,
      "trex": 6389,
      "Ġmill": 6390,
      "AA": 6391,
      "ĠAustralian": 6392,
      "Ġinducing": 6393,
      "âĢĿ": 6394,
      "Ġpurch": 6395,
      "greg": 6396,
      "Ġdescribe": 6397,
      "ĠBenzodiazepines": 6398,
      "da": 6399,
      "Ġprofessional": 6400,
      "Ġmetal": 6401,
      "ĠWy": 6402,
      "Ġhydrolysis": 6403,
      "ĠmL": 6404,
      "Ġextraction": 6405,
      "Ġdetection": 6406,
      "Ġimmunosupp": 6407,
      "Ġmanner": 6408,
      "BP": 6409,
      "usted": 6410,
      "Ġfamil": 6411,
      "Ġaccordance": 6412,
      "tionally": 6413,
      "Ġformula": 6414,
      "Ġcontroversial": 6415,
      "Ġatrophy": 6416,
      "Ġconjugated": 6417,
      "Ġ>": 6418,
      "Ġdiuretic": 6419,
      "ternal": 6420,
      "Ġdiabetic": 6421,
      "enanti": 6422,
      "otype": 6423,
      "cement": 6424,
      "ading": 6425,
      "Ġlines": 6426,
      "Ġpromin": 6427,
      "Ġcome": 6428,
      "entially": 6429,
      "Ġcontinues": 6430,
      "Ġbabies": 6431,
      "Ġindirect": 6432,
      "Ġtricyclic": 6433,
      "ensation": 6434,
      "italopram": 6435,
      "operidol": 6436,
      "Ġsituations": 6437,
      "arone": 6438,
      "ĠFirst": 6439,
      "ĠRare": 6440,
      "Ġglaucoma": 6441,
      "Ġaddress": 6442,
      "oarthritis": 6443,
      "Ġpolic": 6444,
      "mann": 6445,
      "Ġzinc": 6446,
      "antit": 6447,
      "Ġthick": 6448,
      "Ġconclusion": 6449,
      "Ġevolution": 6450,
      "Ġdiagnostic": 6451,
      "ĠBANTooltip": 6452,
      "Ġlungs": 6453,
      "ara": 6454,
      "Ġadhe": 6455,
      "Ġadver": 6456,
      "Ġoutput": 6457,
      "Ġinn": 6458,
      "kinesia": 6459,
      "otide": 6460,
      "rating": 6461,
      "Ã§": 6462,
      "ĠAbout": 6463,
      "through": 6464,
      "Ġrefers": 6465,
      "ĠCaffeine": 6466,
      "Ġtransient": 6467,
      "block": 6468,
      "Ġquantities": 6469,
      "gi": 6470,
      "ophag": 6471,
      "BS": 6472,
      "ĠSanofi": 6473,
      "sw": 6474,
      "rote": 6475,
      "ĠTechn": 6476,
      "urance": 6477,
      "Ġrecommendation": 6478,
      "Ġdopaminergic": 6479,
      "Ġcircumstances": 6480,
      "BC": 6481,
      "Ġrough": 6482,
      "Ġreli": 6483,
      "Ġdevelopmental": 6484,
      "Ġdrive": 6485,
      "ĠBlood": 6486,
      "Ġsole": 6487,
      "estern": 6488,
      "administration": 6489,
      "ĠItaly": 6490,
      "Ġequipment": 6491,
      "Ġrequirements": 6492,
      "phylactic": 6493,
      "vic": 6494,
      "inib": 6495,
      "Ġaltered": 6496,
      "ĠHa": 6497,
      "Ġdiffer": 6498,
      "Ġmutation": 6499,
      "Ġnarrow": 6500,
      "Ġproven": 6501,
      "Ġsearch": 6502,
      "ĠGroup": 6503,
      "Ġinfected": 6504,
      "gener": 6505,
      "Ġblue": 6506,
      "iliary": 6507,
      "ĠSevere": 6508,
      "Ġdimin": 6509,
      "Ġaure": 6510,
      "Ġdementia": 6511,
      "ryl": 6512,
      "Ġty": 6513,
      "gencies": 6514,
      "Ġprotective": 6515,
      "Ġvictim": 6516,
      "ĠStreptococcus": 6517,
      "Ġcolitis": 6518,
      "Ġprostaglandin": 6519,
      "imb": 6520,
      "Ġoxazepam": 6521,
      "fying": 6522,
      "Ġsurve": 6523,
      "OS": 6524,
      "ĠEthinylestradiol": 6525,
      "ĠEarly": 6526,
      "Ġlesions": 6527,
      "Ġod": 6528,
      "Ġ1994": 6529,
      "Ġsclerosis": 6530,
      "Ġkg": 6531,
      "lands": 6532,
      "ĠMexico": 6533,
      "Ġhouse": 6534,
      "Ġimprovements": 6535,
      "cetic": 6536,
      "Ġlegs": 6537,
      "Ġkind": 6538,
      "pects": 6539,
      "Ġhallucinations": 6540,
      "Ġconventional": 6541,
      "Ġdisrupt": 6542,
      "Ġcathe": 6543,
      "Ġactivate": 6544,
      "Ġther": 6545,
      "olerance": 6546,
      "ĠIL": 6547,
      "car": 6548,
      "Ġathletes": 6549,
      "Ġgabapentin": 6550,
      "ĠEstrogen": 6551,
      "ophageal": 6552,
      "omotor": 6553,
      "Ġviruses": 6554,
      "Ġpi": 6555,
      "robial": 6556,
      "Ġketamine": 6557,
      "Ġdark": 6558,
      "renorphine": 6559,
      "ported": 6560,
      "Ġvasodil": 6561,
      "Ġcapable": 6562,
      "ĠAmpicillin": 6563,
      "Ch": 6564,
      "iprofloxacin": 6565,
      "axia": 6566,
      "Ġencoura": 6567,
      "01": 6568,
      "Ġpainful": 6569,
      "Ġheroin": 6570,
      "otrexate": 6571,
      "Ġ/": 6572,
      "ners": 6573,
      "ĠBut": 6574,
      "after": 6575,
      "tiff": 6576,
      "Ġstory": 6577,
      "ĠAmphetamine": 6578,
      "Ġhypnotic": 6579,
      "Ġvariable": 6580,
      "minister": 6581,
      "pidem": 6582,
      "ĠHyper": 6583,
      "ĠâĢľ": 6584,
      "reductase": 6585,
      "ieving": 6586,
      "Ġorgans": 6587,
      "Ġhypogonadism": 6588,
      "Ġandrogens": 6589,
      "due": 6590,
      "hn": 6591,
      "weigh": 6592,
      "Ġprocessing": 6593,
      "Ġec": 6594,
      "oflav": 6595,
      "ĠCombin": 6596,
      "ĠEngland": 6597,
      "ĠRobert": 6598,
      "iva": 6599,
      "ĠThat": 6600,
      "Ġpermanent": 6601,
      "Ġrelieve": 6602,
      "Ġpup": 6603,
      "Ġsan": 6604,
      "ĠTherapeutic": 6605,
      "ĠProgest": 6606,
      "Ġcram": 6607,
      "versibly": 6608,
      "Ġapproaches": 6609,
      "Ġdigoxin": 6610,
      "ractory": 6611,
      "Ġsubs": 6612,
      "Ġphenylbutazone": 6613,
      "Ġirreversible": 6614,
      "right": 6615,
      "omon": 6616,
      "ĠEvidence": 6617,
      "Ġconstit": 6618,
      "Ġminoxidil": 6619,
      "Ġosteoarthritis": 6620,
      "Ġtrazodone": 6621,
      "ĠLess": 6622,
      "ologies": 6623,
      "Ġgeneration": 6624,
      "34": 6625,
      "Ġsalicylic": 6626,
      "Ġpac": 6627,
      "emoline": 6628,
      "istance": 6629,
      "acterial": 6630,
      "my": 6631,
      "Ġcust": 6632,
      "rip": 6633,
      "Ġheavy": 6634,
      "Ġmouse": 6635,
      "diazep": 6636,
      "ographic": 6637,
      "tilbestrol": 6638,
      "stric": 6639,
      "bu": 6640,
      "lies": 6641,
      "ramadol": 6642,
      "ĠHar": 6643,
      "Ġ99": 6644,
      "abine": 6645,
      "ĠAcute": 6646,
      "Ġple": 6647,
      "ida": 6648,
      "ĠChildren": 6649,
      "Ġpuberty": 6650,
      "Ġischem": 6651,
      "adox": 6652,
      "key": 6653,
      "Ġcharacteristics": 6654,
      "ĠGastro": 6655,
      "Ã©n": 6656,
      "Ġsubstituted": 6657,
      "diazepoxide": 6658,
      "Ġpair": 6659,
      "Ġcolleagues": 6660,
      "Ġtransl": 6661,
      "anthate": 6662,
      "ĠGeor": 6663,
      "ache": 6664,
      "Ġsense": 6665,
      "Ġnitric": 6666,
      "nortestosterone": 6667,
      "Ġmor": 6668,
      "Ġpassed": 6669,
      "ĠTra": 6670,
      "ĠMich": 6671,
      "Ġclar": 6672,
      "Ġbradycardia": 6673,
      "Ġcastration": 6674,
      "Ġcharge": 6675,
      "Ġerectile": 6676,
      "Ġfing": 6677,
      "anted": 6678,
      "Ġaureus": 6679,
      "ĠEnd": 6680,
      "Ġprogestogens": 6681,
      "oflavin": 6682,
      "Ġmand": 6683,
      "Ġdead": 6684,
      "ĠWest": 6685,
      "Ġlipophilic": 6686,
      "Äģ": 6687,
      "Ġviolet": 6688,
      "Ġopposed": 6689,
      "ocin": 6690,
      "quil": 6691,
      "As": 6692,
      "mineralocorticoid": 6693,
      "Ġsweating": 6694,
      "trexone": 6695,
      "orubicin": 6696,
      "AL": 6697,
      "lastic": 6698,
      "Ġsay": 6699,
      "Ġproject": 6700,
      "ĠRoc": 6701,
      "oxym": 6702,
      "Ġtransform": 6703,
      "Ġnegl": 6704,
      "Ġinsuffici": 6705,
      "Ġmodulator": 6706,
      "urg": 6707,
      "Ġcombinations": 6708,
      "Ġstructurally": 6709,
      "Ġpractition": 6710,
      "Ġenantiomers": 6711,
      "Ġscale": 6712,
      "oxygenase": 6713,
      "ĠCer": 6714,
      "Ġatom": 6715,
      "Ġfeedback": 6716,
      "Ġparticles": 6717,
      "ĠCor": 6718,
      "ĠPP": 6719,
      "Ġsafer": 6720,
      "rapyramidal": 6721,
      "Ġtax": 6722,
      "roat": 6723,
      "Ġdu": 6724,
      "orith": 6725,
      "ĠAlz": 6726,
      "Ġprotoc": 6727,
      "Ġcream": 6728,
      "Ġillegal": 6729,
      "Ġgrams": 6730,
      "Ġirregular": 6731,
      "ĠShort": 6732,
      "Ġvect": 6733,
      "Ġ1955": 6734,
      "atch": 6735,
      "ĠCanadian": 6736,
      "going": 6737,
      "break": 6738,
      "uled": 6739,
      "ĠMis": 6740,
      "Ġmineral": 6741,
      "Ġ95": 6742,
      "Ġphenomenon": 6743,
      "inolones": 6744,
      "Ġuser": 6745,
      "Ġdate": 6746,
      "ĠWilliam": 6747,
      "elihood": 6748,
      "Ġbioc": 6749,
      "hydration": 6750,
      "soluble": 6751,
      "Ġophthal": 6752,
      "andemic": 6753,
      "ĠINNTooltip": 6754,
      "ola": 6755,
      "Ġspas": 6756,
      "Ġleaves": 6757,
      "ki": 6758,
      "urch": 6759,
      "Ġmatrix": 6760,
      "Ġbupropion": 6761,
      "roscopy": 6762,
      "Ġjuice": 6763,
      "isoprodol": 6764,
      "AD": 6765,
      "Ġcrystalline": 6766,
      "ĠSteven": 6767,
      "ademy": 6768,
      "'-": 6769,
      "Ġpoints": 6770,
      "Ġwrote": 6771,
      "Ġgenerated": 6772,
      "lut": 6773,
      "Ġacetic": 6774,
      "atum": 6775,
      "Ġstrict": 6776,
      "Ġappearance": 6777,
      "ĠCommission": 6778,
      "CoA": 6779,
      "Ġcis": 6780,
      "Ġcommercially": 6781,
      "Ġcongestive": 6782,
      "Ġresour": 6783,
      "ĠCro": 6784,
      "dered": 6785,
      "Ġtobacco": 6786,
      "Ġpg": 6787,
      "ĠMeprobamate": 6788,
      "Ġmedull": 6789,
      "Ġplaque": 6790,
      "Ġorganizations": 6791,
      "gel": 6792,
      "Ġrecommendations": 6793,
      "Ã¼": 6794,
      "Ġhor": 6795,
      "Ġantimic": 6796,
      "ansetron": 6797,
      "Ġemul": 6798,
      "Ġgreen": 6799,
      "romet": 6800,
      "Ġopi": 6801,
      "Ġidentical": 6802,
      "Ġ33": 6803,
      "Ġbaseline": 6804,
      "ĠFam": 6805,
      "stilbestrol": 6806,
      "Ġlayer": 6807,
      "ĠSol": 6808,
      "ĠEach": 6809,
      "ĠExamples": 6810,
      "imal": 6811,
      "olec": 6812,
      "Ġterminal": 6813,
      "Ġfal": 6814,
      "Ġlikelihood": 6815,
      "Ġpharmacokinetic": 6816,
      "izole": 6817,
      "leb": 6818,
      "oconstric": 6819,
      "ĠNDMA": 6820,
      "Ġ1985": 6821,
      "aded": 6822,
      "Ġmaintaining": 6823,
      "ica": 6824,
      "ĠChemical": 6825,
      "existing": 6826,
      "ĠSchering": 6827,
      "ĠÂ±": 6828,
      "Ġdestro": 6829,
      "Ġrifampicin": 6830,
      "Ġcod": 6831,
      "Ġconvul": 6832,
      "Ġchemically": 6833,
      "Ġmalaria": 6834,
      "osporin": 6835,
      "65": 6836,
      "Ġantimineralocorticoid": 6837,
      "Ġbed": 6838,
      "Ġgir": 6839,
      "Ġsymptomatic": 6840,
      "Ġuterine": 6841,
      "ĠRich": 6842,
      "lla": 6843,
      "Ġdyskinesia": 6844,
      "ĠCycl": 6845,
      "ethy": 6846,
      "Ġsports": 6847,
      "ED": 6848,
      "Ġdonor": 6849,
      "umed": 6850,
      "Ġexec": 6851,
      "Ġrecorded": 6852,
      "Ġepithel": 6853,
      "action": 6854,
      "Ġhospitals": 6855,
      "Ġnaproxen": 6856,
      "Ġelements": 6857,
      "Ġreflex": 6858,
      "Ġharmful": 6859,
      "AP": 6860,
      "ford": 6861,
      "ato": 6862,
      "ather": 6863,
      "Ġfen": 6864,
      "ĠEv": 6865,
      "change": 6866,
      "ĠThough": 6867,
      "Ġsudden": 6868,
      "Ġvs": 6869,
      "Ġdriving": 6870,
      "Ġbeyond": 6871,
      "ĠHep": 6872,
      "Ġdextromethorphan": 6873,
      "Ġtin": 6874,
      "ĠAlzheimer": 6875,
      "Ġmusculoskeletal": 6876,
      "Ġquantit": 6877,
      "Ġacetaminophen": 6878,
      "Ġsurrounding": 6879,
      "HS": 6880,
      "Ġrectal": 6881,
      "Ġdiges": 6882,
      "iotensin": 6883,
      "enantiomer": 6884,
      "ĠPaul": 6885,
      "irrh": 6886,
      "Ġmentioned": 6887,
      "Ġhemat": 6888,
      "Ġshare": 6889,
      "Ġhypokalemia": 6890,
      "ĠPCBs": 6891,
      "atient": 6892,
      "iodarone": 6893,
      "ĠMoreover": 6894,
      "Ġanalgesia": 6895,
      "irtaz": 6896,
      "Ġpsoriasis": 6897,
      "ĠChris": 6898,
      "Ġbring": 6899,
      "ĠMo": 6900,
      "Ġlocation": 6901,
      "ĠHal": 6902,
      "pective": 6903,
      "itory": 6904,
      "Ġadvoc": 6905,
      "ĠÃ": 6906,
      "Ġnose": 6907,
      "Ġimage": 6908,
      "Ġuterus": 6909,
      "ĠNot": 6910,
      "Ġlangu": 6911,
      "ĠAcademy": 6912,
      "Ġserotonergic": 6913,
      "iro": 6914,
      "lessness": 6915,
      "Ġcorresponding": 6916,
      "avis": 6917,
      "Ġbelieve": 6918,
      "Ġartificial": 6919,
      "itude": 6920,
      "Ġkept": 6921,
      "Ġinducers": 6922,
      "ĠSweden": 6923,
      "Ġ1000": 6924,
      "ceptor": 6925,
      "Ġaccur": 6926,
      "Ġcul": 6927,
      "edema": 6928,
      "Ġexpensive": 6929,
      "Ġunlikely": 6930,
      "Ġingested": 6931,
      "ank": 6932,
      "Ġdecades": 6933,
      "ĠDMSO": 6934,
      "Ġalgorith": 6935,
      "non": 6936,
      "Ġexamples": 6937,
      "Ġplain": 6938,
      "Ġdiclofenac": 6939,
      "Ġmeat": 6940,
      "Ġâī": 6941,
      "ĠCardi": 6942,
      "ĠNitrazepam": 6943,
      "Ġprogestogenic": 6944,
      "Ġnumbers": 6945,
      "Ġpent": 6946,
      "Ġthroat": 6947,
      "Ġpsychos": 6948,
      "Ġsteady": 6949,
      "uff": 6950,
      "Ġlidocaine": 6951,
      "obut": 6952,
      "Ġunderstanding": 6953,
      "Ġcefalexin": 6954,
      "ĠWyeth": 6955,
      "Ġglutamate": 6956,
      "Ġsettings": 6957,
      "Ġpancre": 6958,
      "Ġamnes": 6959,
      "Ġbloodstream": 6960,
      "elt": 6961,
      "aker": 6962,
      "ogene": 6963,
      "Ġalprazolam": 6964,
      "omb": 6965,
      "Ġunderlying": 6966,
      "termine": 6967,
      "Ġminimum": 6968,
      "Ġcond": 6969,
      "Ġstronger": 6970,
      "MD": 6971,
      "ew": 6972,
      "Ġempt": 6973,
      "Ġantihistamines": 6974,
      "oprim": 6975,
      "stein": 6976,
      "Ġcourt": 6977,
      "ranulocytosis": 6978,
      "93": 6979,
      "Ġtro": 6980,
      "78": 6981,
      "sulf": 6982,
      "Ġenanthate": 6983,
      "Ġhospitalized": 6984,
      "Ġhypothesis": 6985,
      "Ġlute": 6986,
      "ĠPT": 6987,
      "Ġ48": 6988,
      "ĠWhe": 6989,
      "Ġlabeling": 6990,
      "Ġbegins": 6991,
      "Ġthrombocytopenia": 6992,
      "amf": 6993,
      "Ġexpired": 6994,
      "Ġfeeling": 6995,
      "Ġrings": 6996,
      "Ġpresented": 6997,
      "rep": 6998,
      "Ġimportance": 6999,
      "Ġbenign": 7000,
      "Ġfollows": 7001,
      "ror": 7002,
      "Ġ...": 7003,
      "axel": 7004,
      "Ġdemonstrate": 7005,
      "Ġrestrictions": 7006,
      "lev": 7007,
      "oprop": 7008,
      "Ġfacilities": 7009,
      "aret": 7010,
      "Ġcollab": 7011,
      "Ġventilation": 7012,
      "Ġsun": 7013,
      "Ġcoagulation": 7014,
      "mp": 7015,
      "Ġalert": 7016,
      "Ġtension": 7017,
      "arizine": 7018,
      "apa": 7019,
      "Ġelectrical": 7020,
      "Ġconjunction": 7021,
      "ĠJames": 7022,
      "Ġgest": 7023,
      "Ġpoorly": 7024,
      "plastic": 7025,
      "Ġbuilding": 7026,
      "ocycline": 7027,
      "Ġaccid": 7028,
      "IP": 7029,
      "ĠTeva": 7030,
      "Ġroughly": 7031,
      "ifene": 7032,
      "Ġinterventions": 7033,
      "Ġwin": 7034,
      "Ġproperty": 7035,
      "orms": 7036,
      "oric": 7037,
      "Ġexer": 7038,
      "ront": 7039,
      "Ġorganism": 7040,
      "Ġstimulants": 7041,
      "Ġnotable": 7042,
      "Ġpandemic": 7043,
      "ĠRan": 7044,
      "Ġnaloxone": 7045,
      "Ġshorter": 7046,
      "ĠHear": 7047,
      "Ġantagonism": 7048,
      "Ġsignals": 7049,
      "Ġfeelings": 7050,
      "gent": 7051,
      "Ġaspects": 7052,
      "Ġprominent": 7053,
      "Ġperme": 7054,
      "Ġfocused": 7055,
      "Ġshif": 7056,
      "Ġcrit": 7057,
      "ĠEast": 7058,
      "fficiently": 7059,
      "Ġfire": 7060,
      "Ġisomer": 7061,
      "Ġinsufficiency": 7062,
      "ĠPrevention": 7063,
      "ozapine": 7064,
      "Ġmiddle": 7065,
      "Ġlimb": 7066,
      "EC": 7067,
      "idi": 7068,
      "Ġros": 7069,
      "Ġtoday": 7070,
      "Ġcommit": 7071,
      "Ġcompet": 7072,
      "Ġcreams": 7073,
      "Ġpatches": 7074,
      "Ġcluster": 7075,
      "ĠPhys": 7076,
      "itter": 7077,
      "Ġtrimester": 7078,
      "Ġaccompan": 7079,
      "Ġland": 7080,
      "Ġusual": 7081,
      "Ġpromoting": 7082,
      "ders": 7083,
      "ĠIniti": 7084,
      "Ġqual": 7085,
      "Ġcapt": 7086,
      "Ġhands": 7087,
      "Ġplays": 7088,
      "Ġpositions": 7089,
      "500": 7090,
      "ilities": 7091,
      "ĠIU": 7092,
      "ĠHis": 7093,
      "Ġdecomp": 7094,
      "Ġmetabolizers": 7095,
      "tigo": 7096,
      "Ġautoimmune": 7097,
      "pers": 7098,
      "athione": 7099,
      "Ġranges": 7100,
      "Ġsalicylate": 7101,
      "Ġfungal": 7102,
      "timate": 7103,
      "terase": 7104,
      "Ġinhibited": 7105,
      "not": 7106,
      "NT": 7107,
      "Ġcephal": 7108,
      "odynamic": 7109,
      "inine": 7110,
      "imus": 7111,
      "Ġmodification": 7112,
      "Î´": 7113,
      "Ġhip": 7114,
      "ĠIS": 7115,
      "Ġinvasive": 7116,
      "itic": 7117,
      "Ġbran": 7118,
      "Ġbehaviors": 7119,
      "Ġprogressive": 7120,
      "enogest": 7121,
      "Ġreplication": 7122,
      "ondon": 7123,
      "Ġexclusively": 7124,
      "othel": 7125,
      "ohn": 7126,
      "ĠIncreased": 7127,
      "qualone": 7128,
      "eneca": 7129,
      "ify": 7130,
      "Ġscalp": 7131,
      "Ġpersistent": 7132,
      "Ġresidues": 7133,
      "Ġplacenta": 7134,
      "Ġsqu": 7135,
      "Ġlymphoma": 7136,
      "Ġservice": 7137,
      "erobic": 7138,
      "bert": 7139,
      "ximab": 7140,
      "Ġexperiences": 7141,
      "Ġlargest": 7142,
      "come": 7143,
      "ecting": 7144,
      "Ġoutbreak": 7145,
      "Ġsuccinate": 7146,
      "ĠSmith": 7147,
      "Ġlesser": 7148,
      "Ġprompt": 7149,
      "propanolamine": 7150,
      "dL": 7151,
      "Ġpanic": 7152,
      "othy": 7153,
      "ectin": 7154,
      "HC": 7155,
      "ĠCurrent": 7156,
      "Ġimplicated": 7157,
      "Ġanth": 7158,
      "Ġoutweigh": 7159,
      "ofloxacin": 7160,
      "agon": 7161,
      "Ġranging": 7162,
      "pe": 7163,
      "sin": 7164,
      "Ġdefic": 7165,
      "Ġactual": 7166,
      "Ġrecurrent": 7167,
      "Ġemerg": 7168,
      "scale": 7169,
      "Ġstored": 7170,
      "ĠBer": 7171,
      "Î³": 7172,
      "Ġfear": 7173,
      "Ġdermatitis": 7174,
      "Ġpreterm": 7175,
      "Ġhimself": 7176,
      "riage": 7177,
      "Ġ1996": 7178,
      "ĠLondon": 7179,
      "Ġwhy": 7180,
      "axo": 7181,
      "Ġpyridox": 7182,
      "arboxyl": 7183,
      "Ġglucuronide": 7184,
      "Ġestablish": 7185,
      "Ġantibacterial": 7186,
      "iety": 7187,
      "Ġones": 7188,
      "peridone": 7189,
      "ĠPharmaceutical": 7190,
      "Ġcontrols": 7191,
      "light": 7192,
      "ict": 7193,
      "Ġprednisone": 7194,
      "ĠDisease": 7195,
      "uthor": 7196,
      "high": 7197,
      "hibition": 7198,
      "Ġoperation": 7199,
      "Ġleaving": 7200,
      "aric": 7201,
      "Ġconcurrent": 7202,
      "ĠNMDA": 7203,
      "NR": 7204,
      "erately": 7205,
      "Ġtheore": 7206,
      "Ġsoil": 7207,
      "esity": 7208,
      "Ġprimidone": 7209,
      "Ġstimulate": 7210,
      "Ġsimply": 7211,
      "avage": 7212,
      "Ġantihyper": 7213,
      "brid": 7214,
      "Ġerg": 7215,
      "Ġimipramine": 7216,
      "ares": 7217,
      "Ġscar": 7218,
      "otrans": 7219,
      "ĠChem": 7220,
      "Ġexternal": 7221,
      "Ġdelir": 7222,
      "Ġversions": 7223,
      "Ġwhom": 7224,
      "Ġpostoperative": 7225,
      "Ġcrisis": 7226,
      "Ġaggreg": 7227,
      "Ġsuperv": 7228,
      "Ġwild": 7229,
      "Ġrefractory": 7230,
      "ĠAstra": 7231,
      "Ġmedium": 7232,
      "Ġprofessionals": 7233,
      "ients": 7234,
      "retic": 7235,
      "Ġpneumoniae": 7236,
      "Ġchance": 7237,
      "Ġcytokines": 7238,
      "timul": 7239,
      "Ġconsiderably": 7240,
      "ypionate": 7241,
      "Ġrelig": 7242,
      "propionate": 7243,
      "Ġreporting": 7244,
      "HSD": 7245,
      "Ġsection": 7246,
      "tened": 7247,
      "Ġopening": 7248,
      "Ġtransformation": 7249,
      "Ġtele": 7250,
      "ĠWomen": 7251,
      "Ġsufficiently": 7252,
      "Ġ31": 7253,
      "obenz": 7254,
      "33": 7255,
      "Ġlowest": 7256,
      "ĠGeneral": 7257,
      "lepsy": 7258,
      "vac": 7259,
      "ĠRet": 7260,
      "Ġmethylprednisolone": 7261,
      "UC": 7262,
      "udd": 7263,
      "ĠBased": 7264,
      "urvy": 7265,
      "icate": 7266,
      "Ġ1956": 7267,
      "Ġcarcinogenic": 7268,
      "irtazapine": 7269,
      "EMA": 7270,
      "othiazide": 7271,
      "Ġaffecting": 7272,
      "Ġ<": 7273,
      "Ġefficiency": 7274,
      "Ġanticoagulant": 7275,
      "Ġschedule": 7276,
      "Ġextrapyramidal": 7277,
      "Ġstain": 7278,
      "Ġ1993": 7279,
      "uria": 7280,
      "ynon": 7281,
      "Ġvesic": 7282,
      "ĠAcet": 7283,
      "ĠSchool": 7284,
      "amfetamine": 7285,
      "MO": 7286,
      "Ġrol": 7287,
      "Ġclos": 7288,
      "reland": 7289,
      "oping": 7290,
      "Ġcomposed": 7291,
      "razine": 7292,
      "Ġflav": 7293,
      "Ġtargeted": 7294,
      "Ġmoiety": 7295,
      "Ġantidote": 7296,
      "nol": 7297,
      "lyl": 7298,
      "Ġmodest": 7299,
      "clinical": 7300,
      "Ġannual": 7301,
      "ham": 7302,
      "Ġadjusted": 7303,
      "aqualone": 7304,
      "Ġsuppresses": 7305,
      "Ġfalse": 7306,
      "Ġbodies": 7307,
      "Ġbonds": 7308,
      "ĠRoche": 7309,
      "Ġnegligible": 7310,
      "ios": 7311,
      "Ġbelief": 7312,
      "Ġstatistically": 7313,
      "Ġsul": 7314,
      "ĠRoy": 7315,
      "Ġerythe": 7316,
      "Ġdiss": 7317,
      "Ġoptions": 7318,
      "Ġbreasts": 7319,
      "Ġligand": 7320,
      "ruct": 7321,
      "att": 7322,
      "Ġamph": 7323,
      "Ġstability": 7324,
      "Ġantifung": 7325,
      "Ġbehind": 7326,
      "Ġbusiness": 7327,
      "Ġtoward": 7328,
      "ensiti": 7329,
      "Ġprecise": 7330,
      "vious": 7331,
      "epin": 7332,
      "Ġregist": 7333,
      "Ġradio": 7334,
      "ĠBlack": 7335,
      "Ġengineering": 7336,
      "Ġtry": 7337,
      "ĠEven": 7338,
      "illary": 7339,
      "Ġrecip": 7340,
      "ancomycin": 7341,
      "ethoprim": 7342,
      "ĠStevens": 7343,
      "hour": 7344,
      "ofib": 7345,
      "Ġmatter": 7346,
      "Ġmacular": 7347,
      "uncil": 7348,
      "Ġgenetically": 7349,
      "aign": 7350,
      "Ġpron": 7351,
      "Ġesc": 7352,
      "Ġdram": 7353,
      "aving": 7354,
      "Ġprohibited": 7355,
      "Ġdyst": 7356,
      "ynaptic": 7357,
      "ethyn": 7358,
      "orvastatin": 7359,
      "Ġintensive": 7360,
      "Ġmethotrexate": 7361,
      "ĠDavid": 7362,
      "zen": 7363,
      "Ġantimicrobial": 7364,
      "ĠMul": 7365,
      "Ġintoxic": 7366,
      "exp": 7367,
      "97": 7368,
      "Ġdistance": 7369,
      "Ġpredicted": 7370,
      "ĠTur": 7371,
      "Ġangina": 7372,
      "Ġundergoing": 7373,
      "called": 7374,
      "Ġcess": 7375,
      "Ġbul": 7376,
      "teb": 7377,
      "ector": 7378,
      "Ġanaesthe": 7379,
      "Ġephedrine": 7380,
      "otropin": 7381,
      "aund": 7382,
      "td": 7383,
      "opt": 7384,
      "Ġfig": 7385,
      "Ġnurs": 7386,
      "Ġalign": 7387,
      "iative": 7388,
      "ĠGastrointestinal": 7389,
      "Ġaccompanied": 7390,
      "regn": 7391,
      "Ġcys": 7392,
      "Ġdye": 7393,
      "Ġseb": 7394,
      "Ġrelaxation": 7395,
      "Joh": 7396,
      "Ġobtain": 7397,
      "Ġneck": 7398,
      "ĠGlaxo": 7399,
      "alking": 7400,
      "ĠPort": 7401,
      "ĠEstr": 7402,
      "onucle": 7403,
      "ĠGI": 7404,
      "Ġserve": 7405,
      "Ġsymb": 7406,
      "Ġemphas": 7407,
      "oprol": 7408,
      "Ġstay": 7409,
      "aching": 7410,
      "Ġcarboxyl": 7411,
      "osteric": 7412,
      "Ġsession": 7413,
      "untary": 7414,
      "Ġdesire": 7415,
      "Ġarterial": 7416,
      "Ġfibrosis": 7417,
      "Ġandrost": 7418,
      "ĠSLS": 7419,
      "ĠDist": 7420,
      "lecting": 7421,
      "Ġantigonadotropic": 7422,
      "oot": 7423,
      "Ġreleasing": 7424,
      "iant": 7425,
      "ĠTak": 7426,
      "rief": 7427,
      "Ġblurred": 7428,
      "fications": 7429,
      "Ġenhancing": 7430,
      "ga": 7431,
      "lysis": 7432,
      "Ġasked": 7433,
      "Ġscore": 7434,
      "Ġextracted": 7435,
      "Ġketone": 7436,
      "Johnson": 7437,
      "Ġpredict": 7438,
      "titis": 7439,
      "ĠTA": 7440,
      "Ġindicating": 7441,
      "Ġprecip": 7442,
      "Ġexhibits": 7443,
      "ĠÎ³": 7444,
      "ĠCity": 7445,
      "Ġimmunity": 7446,
      "dexamfetamine": 7447,
      "Ġcramps": 7448,
      "isk": 7449,
      "afil": 7450,
      "ĠSpain": 7451,
      "Ġmicroorgan": 7452,
      "Ġsubstantially": 7453,
      "omonas": 7454,
      "ergies": 7455,
      "Ġteeth": 7456,
      "Ġthink": 7457,
      "Ġoxidized": 7458,
      "Ġchromos": 7459,
      "gar": 7460,
      "ĠDHT": 7461,
      "Ġconsciousness": 7462,
      "ophosphamide": 7463,
      "Ġwent": 7464,
      "Ġcirrh": 7465,
      "unctiv": 7466,
      "Ġinterfer": 7467,
      "ĠChronic": 7468,
      "AMP": 7469,
      "ĠVer": 7470,
      "Ġworsen": 7471,
      "ĠTCA": 7472,
      "Ġgout": 7473,
      "Ġdoub": 7474,
      "Ġvertigo": 7475,
      "ori": 7476,
      "ĠSim": 7477,
      "Ġblind": 7478,
      "Ġnifedipine": 7479,
      "ĠAz": 7480,
      "Ġdepartment": 7481,
      "Ġallergy": 7482,
      "ĠAAS": 7483,
      "Ġongoing": 7484,
      "Ġstandards": 7485,
      "achment": 7486,
      "Ġ1992": 7487,
      "what": 7488,
      "atonin": 7489,
      "ĠPseud": 7490,
      "quate": 7491,
      "ĠCharles": 7492,
      "reast": 7493,
      "Ġ_{": 7494,
      "Ġrules": 7495,
      "Ġdeple": 7496,
      "roxine": 7497,
      "Ġdiethylstilbestrol": 7498,
      "Ġunus": 7499,
      "Ġallopurinol": 7500,
      "Ġpolyp": 7501,
      "lip": 7502,
      "ĠSmall": 7503,
      "mid": 7504,
      "ĠLa": 7505,
      "Ġpolymorph": 7506,
      "Ġenantiomer": 7507,
      "Ġisomers": 7508,
      "Ġataxia": 7509,
      "ventive": 7510,
      "Ġye": 7511,
      "month": 7512,
      "ulinum": 7513,
      "ĠSSRIs": 7514,
      "aturated": 7515,
      "Ġhazard": 7516,
      "ĠPlasma": 7517,
      "Ġ~": 7518,
      "Ġselectivity": 7519,
      "Ġthin": 7520,
      "ĠDig": 7521,
      "Ġreaches": 7522,
      "Ġmalignant": 7523,
      "ranial": 7524,
      "netic": 7525,
      "Ġ1978": 7526,
      "ationally": 7527,
      "Ġatten": 7528,
      "Ġevaluation": 7529,
      "Ġcirrhosis": 7530,
      "Ġstaff": 7531,
      "oxyphen": 7532,
      "uresis": 7533,
      "okers": 7534,
      "Ġ1971": 7535,
      "Ġsupporting": 7536,
      "grees": 7537,
      "Ġtrigger": 7538,
      "ĠLtd": 7539,
      "Ġrac": 7540,
      "inemia": 7541,
      "Ġfemales": 7542,
      "innarizine": 7543,
      "ĠUSANTooltip": 7544,
      "Ġfight": 7545,
      "Ġvalproate": 7546,
      "ware": 7547,
      "ads": 7548,
      "Ġsuppressing": 7549,
      "Ġcessation": 7550,
      "orks": 7551,
      "olpidem": 7552,
      "ultaneous": 7553,
      "Ġatypical": 7554,
      "ĠGiv": 7555,
      "Ġepidermal": 7556,
      "Ġrecombinant": 7557,
      "uit": 7558,
      "Ġ1975": 7559,
      "Ġsuppressed": 7560,
      "Ġdiagnosed": 7561,
      "Ġald": 7562,
      "artan": 7563,
      "ĠIndian": 7564,
      "Ġmitochondrial": 7565,
      "undred": 7566,
      "Ġdisplay": 7567,
      "Ġmaintained": 7568,
      "ĠAppro": 7569,
      "Ġtransplantation": 7570,
      "TS": 7571,
      "actin": 7572,
      "Ġrelapse": 7573,
      "enesin": 7574,
      "Ġbil": 7575,
      "nor": 7576,
      "Ġdegrees": 7577,
      "Ġmeal": 7578,
      "ĠList": 7579,
      "Ġroot": 7580,
      "ĠIreland": 7581,
      "Ġ1989": 7582,
      "Ġfalls": 7583,
      "istent": 7584,
      "Ġoz": 7585,
      "ĠRoman": 7586,
      "amizole": 7587,
      "estrogen": 7588,
      "ĠUV": 7589,
      "Ġentirely": 7590,
      "ĠSodium": 7591,
      "Ġdeliver": 7592,
      "Ġadminister": 7593,
      "Ġglucuronidation": 7594,
      "AM": 7595,
      "RE": 7596,
      "ostrid": 7597,
      "Ġproportion": 7598,
      "Ġinner": 7599,
      "Ġchildhood": 7600,
      "coal": 7601,
      "Ġ32": 7602,
      "Ġpromotes": 7603,
      "Ġendothel": 7604,
      "Ġjournal": 7605,
      "Ġslower": 7606,
      "Ġcervical": 7607,
      "Ġfram": 7608,
      "Ġallosteric": 7609,
      "Ġpredominantly": 7610,
      "NO": 7611,
      "Ġcontraindications": 7612,
      "Ġglutathione": 7613,
      "Ġancient": 7614,
      "CS": 7615,
      "Ġiod": 7616,
      "Ġinhalation": 7617,
      "Ġsympathomimetic": 7618,
      "then": 7619,
      "ĠMid": 7620,
      "Ġinfectious": 7621,
      "Ġantihistamine": 7622,
      "human": 7623,
      "Ġanxiolytic": 7624,
      "Ġargu": 7625,
      "ediol": 7626,
      "resh": 7627,
      "ĠHol": 7628,
      "ĠExt": 7629,
      "Ġcultures": 7630,
      "Ġnotably": 7631,
      "aif": 7632,
      "raft": 7633,
      "ows": 7634,
      "Ġcarisoprodol": 7635,
      "athion": 7636,
      "Ġhaem": 7637,
      "Ġ1930": 7638,
      "Ġfeeding": 7639,
      "Ġbenzyl": 7640,
      "la": 7641,
      "Ġcyclo": 7642,
      "odeine": 7643,
      "GT": 7644,
      "RP": 7645,
      "ĠEry": 7646,
      "Ġsupports": 7647,
      "gated": 7648,
      "Ġampl": 7649,
      "rax": 7650,
      "Ġpharmacies": 7651,
      "john": 7652,
      "Ġwarnings": 7653,
      "aifenesin": 7654,
      "Ġkil": 7655,
      "ignific": 7656,
      "urns": 7657,
      "ĠControlled": 7658,
      "piratory": 7659,
      "Ġfamotidine": 7660,
      "Ġparox": 7661,
      "Ġ1949": 7662,
      "Ġcampaign": 7663,
      "Ġportion": 7664,
      "Ġtranquil": 7665,
      "Ġcypionate": 7666,
      "udes": 7667,
      "Ġstrategy": 7668,
      "ĠForm": 7669,
      "Ġdivision": 7670,
      "glut": 7671,
      "Ġelse": 7672,
      "Ġautism": 7673,
      "ĠHeart": 7674,
      "Ġtoile": 7675,
      "ocular": 7676,
      "aden": 7677,
      "ĠEli": 7678,
      "uzumab": 7679,
      "ĠCarb": 7680,
      "Ġreviewed": 7681,
      "Ġnarcolepsy": 7682,
      "pes": 7683,
      "atadine": 7684,
      "ĠSupp": 7685,
      "ĠBro": 7686,
      "Ġinteracts": 7687,
      "codone": 7688,
      "enia": 7689,
      "Ġskeletal": 7690,
      "Ġmob": 7691,
      "ĠÎĶ": 7692,
      "Ġscience": 7693,
      "Ġcontamination": 7694,
      "regulation": 7695,
      "Ġtons": 7696,
      "ophosphate": 7697,
      "mod": 7698,
      "ĠPD": 7699,
      "teg": 7700,
      "ethidine": 7701,
      "atically": 7702,
      "rophic": 7703,
      "Ġmedically": 7704,
      "IDS": 7705,
      "Ġthrombosis": 7706,
      "opioid": 7707,
      "oxamine": 7708,
      "Ġamide": 7709,
      "Ġfunctioning": 7710,
      "Ġreward": 7711,
      "Ġreflux": 7712,
      "Ġadditive": 7713,
      "Ã¶": 7714,
      "dansetron": 7715,
      "initis": 7716,
      "Ġparents": 7717,
      "ĠUpjohn": 7718,
      "ignificant": 7719,
      "Ġsco": 7720,
      "Ġ1952": 7721,
      "Ġmeningitis": 7722,
      "liance": 7723,
      "ydro": 7724,
      "Ġabst": 7725,
      "Ġagranulocytosis": 7726,
      "Ġoptimal": 7727,
      "Ġdatabase": 7728,
      "Ġfarm": 7729,
      "ette": 7730,
      "third": 7731,
      "ervation": 7732,
      "Ġsubstitution": 7733,
      "ĠService": 7734,
      "Ġnerves": 7735,
      "rian": 7736,
      "Ġcollagen": 7737,
      "Ġmanifest": 7738,
      "Ġaward": 7739,
      "Ġkilled": 7740,
      "ĠRussia": 7741,
      "Ġintr": 7742,
      "ceptors": 7743,
      "ama": 7744,
      "Ġrob": 7745,
      "ĠProt": 7746,
      "Ġecon": 7747,
      "Ġcompetition": 7748,
      "Ġcomparing": 7749,
      "ĠFe": 7750,
      "Ġantioxid": 7751,
      "Ġrecall": 7752,
      "Ġpool": 7753,
      "Ġsurgeon": 7754,
      "Ġclassical": 7755,
      "Ġ1957": 7756,
      "Ġsubstantial": 7757,
      "acid": 7758,
      "ĠCalc": 7759,
      "ardive": 7760,
      "Ġgeneralized": 7761,
      "36": 7762,
      "Ġdyn": 7763,
      "Ġever": 7764,
      "Ġworked": 7765,
      "ĠSecond": 7766,
      "ano": 7767,
      "rosine": 7768,
      "ĠAndro": 7769,
      "ĠLater": 7770,
      "Ġantit": 7771,
      "ĠPropranolol": 7772,
      "aven": 7773,
      "Ġefficient": 7774,
      "Ġnine": 7775,
      "Ġcouns": 7776,
      "Ġdistinguish": 7777,
      "Ġsublingual": 7778,
      "ĠVi": 7779,
      "Ġpes": 7780,
      "Ġincreasingly": 7781,
      "ĠDHPA": 7782,
      "ĠOcc": 7783,
      "Zeneca": 7784,
      "Ġball": 7785,
      "Ġconverts": 7786,
      "stage": 7787,
      "ĠPost": 7788,
      "amicin": 7789,
      "ĠContra": 7790,
      "enter": 7791,
      "reek": 7792,
      "Ġconsequences": 7793,
      "Ġker": 7794,
      "Ġdemand": 7795,
      "oon": 7796,
      "iles": 7797,
      "Ġfeet": 7798,
      "Ġclasses": 7799,
      "Ġincomp": 7800,
      "Ġ1991": 7801,
      "76": 7802,
      "rey": 7803,
      "Ġinstr": 7804,
      "Ġalongside": 7805,
      "aal": 7806,
      "Ġrefer": 7807,
      "ĠIb": 7808,
      "raline": 7809,
      "Ġthous": 7810,
      "Ġsleepiness": 7811,
      "risk": 7812,
      "Ġguidance": 7813,
      "anthine": 7814,
      "Ġconvulsions": 7815,
      "ethynyl": 7816,
      "Ġwounds": 7817,
      "aundice": 7818,
      "Ġisot": 7819,
      "adrenaline": 7820,
      "ometh": 7821,
      "Ġintensity": 7822,
      "Ġmovements": 7823,
      "kes": 7824,
      "ivered": 7825,
      "itories": 7826,
      "throm": 7827,
      "Ġvancomycin": 7828,
      "Ġinitiated": 7829,
      "ĠLevel": 7830,
      "aginal": 7831,
      "ensing": 7832,
      "Ġ188": 7833,
      "zation": 7834,
      "Ġliability": 7835,
      "ĠHead": 7836,
      "titude": 7837,
      "ĠCompared": 7838,
      "rillation": 7839,
      "Ġstating": 7840,
      "ĠAbb": 7841,
      "ban": 7842,
      "ĠEsc": 7843,
      "ney": 7844,
      "irable": 7845,
      "mar": 7846,
      "Ġcomprom": 7847,
      "Ġincorporated": 7848,
      "Ġelectrolyte": 7849,
      "ĠAG": 7850,
      "Ġdrink": 7851,
      "alutamide": 7852,
      "Ġtools": 7853,
      "ĠTim": 7854,
      "elve": 7855,
      "mb": 7856,
      "otal": 7857,
      "ĠPhenylbutazone": 7858,
      "Ġtea": 7859,
      "Ġtow": 7860,
      "Ġchiral": 7861,
      "orporation": 7862,
      "Ġhemorrhage": 7863,
      "ser": 7864,
      "Ġcharcoal": 7865,
      "Ġconjugation": 7866,
      "Ġcoordination": 7867,
      "Ġvariations": 7868,
      "Ġplastic": 7869,
      "abilities": 7870,
      "Ġpan": 7871,
      "Ġlinear": 7872,
      "Ġselected": 7873,
      "Ġtet": 7874,
      "Ġhar": 7875,
      "Ġdiver": 7876,
      "hetamines": 7877,
      "Ġsuicidal": 7878,
      "ĠRoyal": 7879,
      "rab": 7880,
      "rach": 7881,
      "Ġamiodarone": 7882,
      "Ġflex": 7883,
      "Ġreinf": 7884,
      "ĠTherapy": 7885,
      "aper": 7886,
      "Ġeggs": 7887,
      "ĠPR": 7888,
      "ously": 7889,
      "Ġaccepted": 7890,
      "burn": 7891,
      "Ġatrial": 7892,
      "Ġ1987": 7893,
      "Ġconjunctiv": 7894,
      "ameters": 7895,
      "Ġrig": 7896,
      "phosph": 7897,
      "Ġregimens": 7898,
      "Ġchromat": 7899,
      "Ġnaltrexone": 7900,
      "ĠTB": 7901,
      "ĠPat": 7902,
      "Ġparadox": 7903,
      "Ġspeed": 7904,
      "ophy": 7905,
      "Ġrecur": 7906,
      "Ġnecro": 7907,
      "Ġfertil": 7908,
      "Ġparasite": 7909,
      "Ġseed": 7910,
      "Ġpopularity": 7911,
      "Ġcollected": 7912,
      "oney": 7913,
      "ĠPred": 7914,
      "ĠFound": 7915,
      "Ġclozapine": 7916,
      "coup": 7917,
      "Ġgenerate": 7918,
      "ethylation": 7919,
      "Ġriboflavin": 7920,
      "pit": 7921,
      "Ġvital": 7922,
      "ĠMel": 7923,
      "pot": 7924,
      "Ġ(>": 7925,
      "ĠCef": 7926,
      "Ġlawsu": 7927,
      "Ġagricultural": 7928,
      "areness": 7929,
      "piration": 7930,
      "relin": 7931,
      "Ġneurosteroid": 7932,
      "Ġrashes": 7933,
      "Ġregulations": 7934,
      "Ġanabolic": 7935,
      "derived": 7936,
      "Ġprogress": 7937,
      "ĠLimited": 7938,
      "Ġquite": 7939,
      "Ġ85": 7940,
      "Ġbuilt": 7941,
      "oice": 7942,
      "osyl": 7943,
      "oteric": 7944,
      "ĠLife": 7945,
      "Ġcapsule": 7946,
      "Ġindependently": 7947,
      "44": 7948,
      "metic": 7949,
      "Ġtemperatures": 7950,
      "Ġrepresents": 7951,
      "Ġsomewhat": 7952,
      "Ġrot": 7953,
      "alin": 7954,
      "rays": 7955,
      "Ġowing": 7956,
      "ĠPregn": 7957,
      "rase": 7958,
      "alle": 7959,
      "Ġdesogestrel": 7960,
      "ĠCouncil": 7961,
      "ancies": 7962,
      "onat": 7963,
      "Ġreact": 7964,
      "Ġcomposition": 7965,
      "Ġangiotensin": 7966,
      "Ġglycol": 7967,
      "Ġforming": 7968,
      "Ġbacteri": 7969,
      "Ġuncommon": 7970,
      "Ġgels": 7971,
      "emetic": 7972,
      "Ġobesity": 7973,
      "Ġminimize": 7974,
      "Ġanticoagulants": 7975,
      "Ġtext": 7976,
      "itate": 7977,
      "Ġextension": 7978,
      "ĠProf": 7979,
      "ĠMetoclopramide": 7980,
      "Ġdivided": 7981,
      "nolence": 7982,
      "lymp": 7983,
      "Ġvariation": 7984,
      "Ġdistress": 7985,
      "Ġfamilies": 7986,
      "udy": 7987,
      "ĠHen": 7988,
      "Ġdrinks": 7989,
      "Ġbuprenorphine": 7990,
      "amics": 7991,
      "Ġascorbate": 7992,
      "Ġinade": 7993,
      "Ġrelation": 7994,
      "Ġavoiding": 7995,
      "uate": 7996,
      "vation": 7997,
      "Ġconform": 7998,
      "ĠClostrid": 7999,
      "Ġphotos": 8000,
      "Ġnone": 8001,
      "Man": 8002,
      "utive": 8003,
      "Ġdevelops": 8004,
      "Ġ1982": 8005,
      "Ġmorning": 8006,
      "Ġthreat": 8007,
      "ĠSand": 8008,
      "Ġrodents": 8009,
      "Ġdelivered": 8010,
      "ĠAccept": 8011,
      "ĠAMP": 8012,
      "Ġrule": 8013,
      "ĠRE": 8014,
      "Ġbark": 8015,
      "ĠACE": 8016,
      "valent": 8017,
      "Ġyeast": 8018,
      "Ġfluores": 8019,
      "Ġadding": 8020,
      "onomic": 8021,
      "Ġfine": 8022,
      "Ġjud": 8023,
      "Ġmania": 8024,
      "Ġoffered": 8025,
      "ament": 8026,
      "Ġinstances": 8027,
      "osumab": 8028,
      "ĠCI": 8029,
      "Ġhypert": 8030,
      "Ġsubstrates": 8031,
      "Ġenhancement": 8032,
      "hyp": 8033,
      "pen": 8034,
      "Ġclonidine": 8035,
      "dimethyl": 8036,
      "Ġmanip": 8037,
      "Ġautom": 8038,
      "Ġremoving": 8039,
      "Ġmicroorganisms": 8040,
      "Ġintense": 8041,
      "Ġ1972": 8042,
      "Ġrelationships": 8043,
      "Ġneither": 8044,
      "Ġresidue": 8045,
      "opril": 8046,
      "gene": 8047,
      "ĠGene": 8048,
      "ĠVari": 8049,
      "piride": 8050,
      "Ġadvantages": 8051,
      "MR": 8052,
      "rary": 8053,
      "Ġlaws": 8054,
      "Ġsensory": 8055,
      "Ġfracture": 8056,
      "Ġsuppositories": 8057,
      "ĠOlymp": 8058,
      "Ġ1964": 8059,
      "Ġcrosses": 8060,
      "Ġintoxication": 8061,
      "opamine": 8062,
      "elled": 8063,
      "iperazine": 8064,
      "analyses": 8065,
      "Ġcriteria": 8066,
      "400": 8067,
      "Ġaplastic": 8068,
      "ĠPur": 8069,
      "ĠPeter": 8070,
      "Ġuric": 8071,
      "Ġsatis": 8072,
      "ĠCrohn": 8073,
      "ortriptyline": 8074,
      "Ġmaternal": 8075,
      "ĠFranÃ§": 8076,
      "ĠCentral": 8077,
      "Ġammonia": 8078,
      "Ġcrop": 8079,
      "Ġshape": 8080,
      "achlor": 8081,
      "Ġbarbiturate": 8082,
      "Ġobstructive": 8083,
      "WHO": 8084,
      "neal": 8085,
      "Ġencod": 8086,
      "ĠED": 8087,
      "Ġanaemia": 8088,
      "Ġobservational": 8089,
      "Ġpantoprazole": 8090,
      "acing": 8091,
      "essor": 8092,
      "Ġrelaxant": 8093,
      "Kline": 8094,
      "patient": 8095,
      "Ġexhibit": 8096,
      "eptide": 8097,
      "Ġatorvastatin": 8098,
      "ibility": 8099,
      "ĠSpanish": 8100,
      "Ġopium": 8101,
      "Ġsusceptibility": 8102,
      "Ġorthostatic": 8103,
      "sub": 8104,
      "osite": 8105,
      "iration": 8106,
      "Ġantiv": 8107,
      "Ġarms": 8108,
      "Ġgenerics": 8109,
      "Ġ1962": 8110,
      "cis": 8111,
      "Ġsyrup": 8112,
      "ubb": 8113,
      "Ġtolerability": 8114,
      "ometacin": 8115,
      "uv": 8116,
      "unctive": 8117,
      "oluble": 8118,
      "Ġcommunication": 8119,
      "Ġfruit": 8120,
      "ĠTr": 8121,
      "Ġzopiclone": 8122,
      "Ġhypothalamus": 8123,
      "Ġfixed": 8124,
      "Ġjaundice": 8125,
      "Ġlimits": 8126,
      "ĠServices": 8127,
      "CG": 8128,
      "Ġflushing": 8129,
      "Ġpublication": 8130,
      "cephal": 8131,
      "ĠLor": 8132,
      "Ġsettle": 8133,
      "Ġangio": 8134,
      "Ġbroken": 8135,
      "ĠThree": 8136,
      "Ġorganization": 8137,
      "Ġurea": 8138,
      "brom": 8139,
      "tif": 8140,
      "uction": 8141,
      "igaret": 8142,
      "renol": 8143,
      "Ġsimultaneous": 8144,
      "cryst": 8145,
      "Ġgender": 8146,
      "gence": 8147,
      "Ġnewborn": 8148,
      "Ġweakly": 8149,
      "Ġexpanded": 8150,
      "ait": 8151,
      "ĠClass": 8152,
      "platin": 8153,
      "Ġintestines": 8154,
      "yg": 8155,
      "Ġtriglycer": 8156,
      "Ġdelirium": 8157,
      "Ġantipy": 8158,
      "ounced": 8159,
      "Ġmim": 8160,
      "Ġsubt": 8161,
      "Ġsolvent": 8162,
      "iotic": 8163,
      "Ġnewer": 8164,
      "ĠDirect": 8165,
      "Ġpsychiat": 8166,
      "etherlands": 8167,
      "LP": 8168,
      "Ġhaloperidol": 8169,
      "Ġaug": 8170,
      "Ġgamma": 8171,
      "ocrine": 8172,
      "Ġfluoroquinolones": 8173,
      "xy": 8174,
      "Ġperfor": 8175,
      "ateral": 8176,
      "Ġexperts": 8177,
      "Ġstrategies": 8178,
      "zolid": 8179,
      "Ġemotions": 8180,
      "Ġdocument": 8181,
      "iqu": 8182,
      "urity": 8183,
      "uma": 8184,
      "Ġidentification": 8185,
      "Ġbypass": 8186,
      "sensitive": 8187,
      "Ġtramadol": 8188,
      "Ġfair": 8189,
      "Ġsulfur": 8190,
      "osol": 8191,
      "aves": 8192,
      "ĠDevelop": 8193,
      "unte": 8194,
      "Ġfacility": 8195,
      "Ġcrystal": 8196,
      "Ã¤": 8197,
      "Ġrabb": 8198,
      "Ġillicit": 8199,
      "oxib": 8200,
      "Ġhemoglobin": 8201,
      "Ġhydroxyzine": 8202,
      "Ġmast": 8203,
      "ecal": 8204,
      "Ġdecided": 8205,
      "Ġarch": 8206,
      "Ġevol": 8207,
      "ĠTopical": 8208,
      "ĠTheophylline": 8209,
      "Ġcarbonate": 8210,
      "Ġconsisting": 8211,
      "Ġgon": 8212,
      "berg": 8213,
      "zes": 8214,
      "ĠNetherlands": 8215,
      "ĠJes": 8216,
      "Ġnecrosis": 8217,
      "ky": 8218,
      "Ġdisapp": 8219,
      "Ġvirt": 8220,
      "Ġhundred": 8221,
      "Ġitch": 8222,
      "Ġconjugates": 8223,
      "Ġamnesia": 8224,
      "ropenia": 8225,
      "Ġdog": 8226,
      "ece": 8227,
      "Ġcharacteristic": 8228,
      "ticaria": 8229,
      "olecular": 8230,
      "Ġacidosis": 8231,
      "Ġphosphorylation": 8232,
      "MC": 8233,
      "ĠTheir": 8234,
      "Ġ120": 8235,
      "ĠNav": 8236,
      "Ġdisrup": 8237,
      "Ġparameters": 8238,
      "MI": 8239,
      "point": 8240,
      "Ġdirector": 8241,
      "Ġlegis": 8242,
      "Ġopened": 8243,
      "ĠData": 8244,
      "Ġagreed": 8245,
      "regulated": 8246,
      "ĠSubsequently": 8247,
      "respon": 8248,
      "Ġstones": 8249,
      "androst": 8250,
      "ĠAdv": 8251,
      "Ġhydrocortisone": 8252,
      "Ġregardless": 8253,
      "Ġadvertis": 8254,
      "ĠNar": 8255,
      "ĠRef": 8256,
      "rolimus": 8257,
      "Ġinters": 8258,
      "Ġlanguage": 8259,
      "acea": 8260,
      "Ġ1977": 8261,
      "Ġirritability": 8262,
      "onit": 8263,
      "ceived": 8264,
      "Ġatoms": 8265,
      "Ġatropine": 8266,
      "Ġcoh": 8267,
      "Ġjoin": 8268,
      "Ġpreferen": 8269,
      "Ġconnected": 8270,
      "Ġhypothalamic": 8271,
      "Ġexamined": 8272,
      "Ġsaw": 8273,
      "Ġgrap": 8274,
      "Ġesophag": 8275,
      "ĠAccepted": 8276,
      "52": 8277,
      "uro": 8278,
      "Ġcharged": 8279,
      "sur": 8280,
      "Ġsizes": 8281,
      "using": 8282,
      "about": 8283,
      "Ġvasoconstric": 8284,
      "Ġfermentation": 8285,
      "Ġsinus": 8286,
      "ĠAstraZeneca": 8287,
      "Ġreinfor": 8288,
      "aminophenol": 8289,
      "DO": 8290,
      "Ġincision": 8291,
      "ĠDo": 8292,
      "Ġchlordiazepoxide": 8293,
      "Ġhydroxylation": 8294,
      "acchar": 8295,
      "Ġaddictive": 8296,
      "ocyte": 8297,
      "glucuron": 8298,
      "Ġanterior": 8299,
      "osage": 8300,
      "sey": 8301,
      "ĠWithdraw": 8302,
      "glycoprotein": 8303,
      "Ġagreement": 8304,
      "Ġciprofloxacin": 8305,
      "ĠDoc": 8306,
      "ĠThose": 8307,
      "68": 8308,
      "ongue": 8309,
      "Ġlisdexamfetamine": 8310,
      "Ġgran": 8311,
      "Ġallergies": 8312,
      "Ġpersonality": 8313,
      "rospinal": 8314,
      "VD": 8315,
      "Ġproceed": 8316,
      "Ġclosed": 8317,
      "Ġoffers": 8318,
      "hyroid": 8319,
      "Ġdestroy": 8320,
      "PG": 8321,
      "Ġcannabis": 8322,
      "Ġenzymatic": 8323,
      "hydroxylase": 8324,
      "Ġdisin": 8325,
      "ĠMetronidazole": 8326,
      "urable": 8327,
      "Ġaccounted": 8328,
      "ĠOverdose": 8329,
      "Ġtrop": 8330,
      "rehen": 8331,
      "Ġour": 8332,
      "partum": 8333,
      "\").": 8334,
      "ells": 8335,
      "ĠRh": 8336,
      "Ġlaboratories": 8337,
      "Ġcarcinoma": 8338,
      "Ġdehydration": 8339,
      "ĠPseudomonas": 8340,
      "ashing": 8341,
      "Ġcofactor": 8342,
      "Ġextracellular": 8343,
      "omination": 8344,
      "osides": 8345,
      "thern": 8346,
      "apamil": 8347,
      "Ġbiop": 8348,
      "Ġclassification": 8349,
      "Ġlay": 8350,
      "ĠLDL": 8351,
      "onscious": 8352,
      "ĠConc": 8353,
      "enth": 8354,
      "Ġangioedema": 8355,
      "^{": 8356,
      "ĠIns": 8357,
      "Ġsert": 8358,
      "Ġdiscom": 8359,
      "hythmic": 8360,
      "Ġarous": 8361,
      "ĠÎ¼mol": 8362,
      "hist": 8363,
      "ĠmRNA": 8364,
      "ĠCas": 8365,
      "ĠFederal": 8366,
      "Ġ1965": 8367,
      "Ġemplo": 8368,
      "Ġalkaline": 8369,
      "Ġpemoline": 8370,
      "Ġtool": 8371,
      "entamicin": 8372,
      "ĠMi": 8373,
      "Ġbelong": 8374,
      "opar": 8375,
      "ĠPart": 8376,
      "ĠUl": 8377,
      "98": 8378,
      "à¤": 8379,
      "Ġ55": 8380,
      "Ġcontrolling": 8381,
      "\"),": 8382,
      "raf": 8383,
      "ĠAfrican": 8384,
      "Ġaerobic": 8385,
      "Ġdiscomfort": 8386,
      "under": 8387,
      "isia": 8388,
      "esides": 8389,
      "quality": 8390,
      "cysteine": 8391,
      "Ġ38": 8392,
      "Ġvisits": 8393,
      "ARS": 8394,
      "Ġgirls": 8395,
      "Ġ37": 8396,
      "level": 8397,
      "Ġmusic": 8398,
      "Ġimplemented": 8399,
      "Ġprevalence": 8400,
      "ani": 8401,
      "ticide": 8402,
      "Ġcerebrospinal": 8403,
      "rene": 8404,
      "Ġantihypertensive": 8405,
      "ĠCyp": 8406,
      "MAO": 8407,
      "cyclines": 8408,
      "habil": 8409,
      "Ġunderstand": 8410,
      "Ġrunning": 8411,
      "PE": 8412,
      "Ġ39": 8413,
      "ĠKore": 8414,
      "Ġresources": 8415,
      "ask": 8416,
      "ĠLD": 8417,
      "Ġvariability": 8418,
      "alytic": 8419,
      "ĠRepublic": 8420,
      "ĠGiven": 8421,
      "vin": 8422,
      "Ġnewly": 8423,
      "Ġpurified": 8424,
      "Ġcontaminated": 8425,
      "ĠRichard": 8426,
      "folate": 8427,
      "ĠCorporation": 8428,
      "Ġvitamins": 8429,
      "Ġcaro": 8430,
      "ococcal": 8431,
      "Ġunusual": 8432,
      "ĠEstrone": 8433,
      "igher": 8434,
      "Ġdialysis": 8435,
      "ĠVol": 8436,
      "Ġpathogens": 8437,
      "Ġprivate": 8438,
      "Ġprinciple": 8439,
      "Ġlup": 8440,
      "Ġpronounced": 8441,
      "pres": 8442,
      "vol": 8443,
      "inea": 8444,
      "plate": 8445,
      "Ġlactation": 8446,
      "Ġapnea": 8447,
      "Ġfinasteride": 8448,
      "Ġcatheter": 8449,
      "especially": 8450,
      "Ġactivating": 8451,
      "ju": 8452,
      "ocarbamol": 8453,
      "Ġpall": 8454,
      "Ġ1981": 8455,
      "Ġherpes": 8456,
      "Ġpromising": 8457,
      "ĠFranÃ§aise": 8458,
      "ael": 8459,
      "ĠHem": 8460,
      "Ġscurvy": 8461,
      "Ġangi": 8462,
      "Ġfresh": 8463,
      "opolamine": 8464,
      "ieties": 8465,
      "Ġburning": 8466,
      "Ġvolunte": 8467,
      "ĠIg": 8468,
      "Ġ1986": 8469,
      "46": 8470,
      "Ġnandrolone": 8471,
      "Ġtransporters": 8472,
      "Ġcity": 8473,
      "esting": 8474,
      "ogram": 8475,
      "Ġconsiderable": 8476,
      "Ġstopping": 8477,
      "USA": 8478,
      "lif": 8479,
      "iling": 8480,
      "ĠJer": 8481,
      "angl": 8482,
      "Ġfeminization": 8483,
      "Ġeasy": 8484,
      "chers": 8485,
      "itol": 8486,
      "Ġadjunct": 8487,
      "ille": 8488,
      "ĠOv": 8489,
      "Ġocular": 8490,
      "enn": 8491,
      "usive": 8492,
      "ĠHum": 8493,
      "Ġhybrid": 8494,
      "Ġ1988": 8495,
      "iferol": 8496,
      "Ġischemic": 8497,
      "ĠLindane": 8498,
      "Ġurticaria": 8499,
      "alciferol": 8500,
      "idin": 8501,
      "Ġ1976": 8502,
      "Ġmilitary": 8503,
      "unity": 8504,
      "ceeding": 8505,
      "osen": 8506,
      "ĠAuthor": 8507,
      "Ġvide": 8508,
      "LT": 8509,
      "Ġrecalled": 8510,
      "Ġamphetamines": 8511,
      "ichia": 8512,
      "Ġlacking": 8513,
      "ridge": 8514,
      "Ġbreakdown": 8515,
      "AC": 8516,
      "ball": 8517,
      "Ġassigned": 8518,
      "Ġcattle": 8519,
      "ĠCommune": 8520,
      "Ġlupus": 8521,
      "ĠAss": 8522,
      "ĠâĪ": 8523,
      "Ġbasal": 8524,
      "ĠDÃ©n": 8525,
      "ĠDÃ©nomination": 8526,
      "Ġcontraction": 8527,
      "Ġfibrillation": 8528,
      "nic": 8529,
      "oo": 8530,
      "Ġeffort": 8531,
      "ĠFin": 8532,
      "Ġprolactin": 8533,
      "titial": 8534,
      "blind": 8535,
      "roscopic": 8536,
      "ĠFoundation": 8537,
      "ATP": 8538,
      "Ġcinnarizine": 8539,
      "Ġwind": 8540,
      "dione": 8541,
      "Ġcontract": 8542,
      "Ġauthorities": 8543,
      "ulsive": 8544,
      "Ġdetectable": 8545,
      "Ġswallow": 8546,
      "promazine": 8547,
      "amides": 8548,
      "Ġrhythm": 8549,
      "ĠAnimal": 8550,
      "Ġtesticular": 8551,
      "Ġpowerful": 8552,
      "Ġperception": 8553,
      "Ġ1983": 8554,
      "Ġprolongation": 8555,
      "igu": 8556,
      "Ġunderg": 8557,
      "Ġselection": 8558,
      "Ġattempted": 8559,
      "Ġclonazepam": 8560,
      "Ġknee": 8561,
      "oprolol": 8562,
      "rise": 8563,
      "Ġhab": 8564,
      "Ġanalogs": 8565,
      "Ġmammals": 8566,
      "ĠPortug": 8567,
      "ĠInstead": 8568,
      "ĠConvention": 8569,
      "Ġtongue": 8570,
      "Ġsought": 8571,
      "ĠHence": 8572,
      "acetamide": 8573,
      "Ġcarbonic": 8574,
      "Ġdermat": 8575,
      "Ġsound": 8576,
      "Ġantiandrogens": 8577,
      "ĠDCF": 8578,
      "ĠFre": 8579,
      "Ġpreced": 8580,
      "gered": 8581,
      "Ġinsoluble": 8582,
      "Ġdiets": 8583,
      "Ġpromoted": 8584,
      "Ġnm": 8585,
      "ĠPos": 8586,
      "ĠÂ£": 8587,
      "Ġmiscar": 8588,
      "Ġyoga": 8589,
      "ĠWarfarin": 8590,
      "PT": 8591,
      "Ġpossesses": 8592,
      "ĠCHMP": 8593,
      "ires": 8594,
      "rents": 8595,
      "Ġtwelve": 8596,
      "Ġaminoglyc": 8597,
      "jected": 8598,
      "otes": 8599,
      "phth": 8600,
      "ionic": 8601,
      "Ġexcit": 8602,
      "ĠImpaired": 8603,
      "ĠEryth": 8604,
      "Ġconsuming": 8605,
      "Ġgall": 8606,
      "ococci": 8607,
      "Ġgained": 8608,
      "Ġspecialized": 8609,
      "Ġformerly": 8610,
      "oprenaline": 8611,
      "ĠWal": 8612,
      "Ġvalve": 8613,
      "Ġimpairments": 8614,
      "ĠCertain": 8615,
      "Ġantiarr": 8616,
      "Ġjus": 8617,
      "Ġprevented": 8618,
      "Ġtask": 8619,
      "iopathic": 8620,
      "ĠDCFTooltip": 8621,
      "ague": 8622,
      "ĠAlcohol": 8623,
      "Ġthoughts": 8624,
      "Ġendometrium": 8625,
      "anes": 8626,
      "omifene": 8627,
      "Ġdispl": 8628,
      "gestone": 8629,
      "Ġ1973": 8630,
      "Ġburns": 8631,
      "Ġbromide": 8632,
      "Ġeuphoria": 8633,
      "Ġpolicy": 8634,
      "ml": 8635,
      "ĠDu": 8636,
      "ĠJos": 8637,
      "nitol": 8638,
      "otericin": 8639,
      "Ġagency": 8640,
      "Ġaging": 8641,
      "idence": 8642,
      "Ġprophylactic": 8643,
      "Ġquar": 8644,
      "Ġfluids": 8645,
      "Ġregulate": 8646,
      "ĠUT": 8647,
      "omics": 8648,
      "herichia": 8649,
      "Ġabrupt": 8650,
      "Ġprodrugs": 8651,
      "voxamine": 8652,
      "Ġbor": 8653,
      "Ġresc": 8654,
      "ya": 8655,
      "hep": 8656,
      "oli": 8657,
      "ĠMS": 8658,
      "ĠGod": 8659,
      "ĠWestern": 8660,
      "Ġalterations": 8661,
      "Ġmedulla": 8662,
      "96": 8663,
      "mate": 8664,
      "Ġfif": 8665,
      "ademic": 8666,
      "Ġmelan": 8667,
      "Ġmaximal": 8668,
      "Ġcav": 8669,
      "Ġgum": 8670,
      "ĠEPA": 8671,
      "Ġclots": 8672,
      "week": 8673,
      "Ġ1963": 8674,
      "chloro": 8675,
      "Ġsituation": 8676,
      "Ġulceration": 8677,
      "Ġpsychostimul": 8678,
      "omethyl": 8679,
      "Ġtherapist": 8680,
      "ospasm": 8681,
      "Ġdeal": 8682,
      "ĠGood": 8683,
      "Ġaware": 8684,
      "vacizumab": 8685,
      "ighted": 8686,
      "Ġabortion": 8687,
      "Ġallele": 8688,
      "utch": 8689,
      "ĠCount": 8690,
      "Ġchallenge": 8691,
      "ffic": 8692,
      "Ġbirds": 8693,
      "Ġboard": 8694,
      "Ġpharmacologically": 8695,
      "ylure": 8696,
      "utrition": 8697,
      "NI": 8698,
      "Ġson": 8699,
      "Ġiso": 8700,
      "Ġru": 8701,
      "ĠNicot": 8702,
      "Ġparalle": 8703,
      "Ġ600": 8704,
      "Ġgradual": 8705,
      "ha": 8706,
      "Ġinhaled": 8707,
      "Ġteratogenic": 8708,
      "apor": 8709,
      "onide": 8710,
      "Ġintrac": 8711,
      "Ġregularly": 8712,
      "Ġsupportive": 8713,
      "oxyphene": 8714,
      "cul": 8715,
      "ompl": 8716,
      "Ġthor": 8717,
      "Ġdism": 8718,
      "Ġtraumatic": 8719,
      "Ġhypoglycemia": 8720,
      "Ġinactivated": 8721,
      "Ġinstrum": 8722,
      "ulose": 8723,
      "antine": 8724,
      "Ġaccounts": 8725,
      "van": 8726,
      "Ġaqu": 8727,
      "oden": 8728,
      "ĠLSD": 8729,
      "Ġunless": 8730,
      "Ġmelatonin": 8731,
      "Ġawareness": 8732,
      "enh": 8733,
      "-,": 8734,
      "47": 8735,
      "Ġwat": 8736,
      "romorphone": 8737,
      "iform": 8738,
      "ranasal": 8739,
      "ypically": 8740,
      "Ġfeat": 8741,
      "Ġneedle": 8742,
      "Ġ1979": 8743,
      "oxicam": 8744,
      "Ġwebs": 8745,
      "Ġcarbo": 8746,
      "Ġidiopathic": 8747,
      "Ġrestlessness": 8748,
      "ĠAltern": 8749,
      "Ġmagnitude": 8750,
      "Ġcervix": 8751,
      "gthen": 8752,
      "Ġflat": 8753,
      "Ġspeech": 8754,
      "ĠAD": 8755,
      "Ġindometacin": 8756,
      "Ġpumps": 8757,
      "Ġaldosterone": 8758,
      "66": 8759,
      "Ġtre": 8760,
      "Ġbott": 8761,
      "ivil": 8762,
      "Ġphenylpropanolamine": 8763,
      "Ġonline": 8764,
      "Ġinten": 8765,
      "Ġarg": 8766,
      "Ġdifficile": 8767,
      "pox": 8768,
      "Ġdepri": 8769,
      "ĠUsing": 8770,
      "Ġaromatic": 8771,
      "ĠWithdrawal": 8772,
      "vals": 8773,
      "Ġlb": 8774,
      "Ġnotes": 8775,
      "etal": 8776,
      "iacin": 8777,
      "anto": 8778,
      "Ġdipropionate": 8779,
      "Ġbrands": 8780,
      "Ġpoli": 8781,
      "Ġtargeting": 8782,
      "Ġendothelial": 8783,
      "ĠPy": 8784,
      "ĠPrednisolone": 8785,
      "Ġ1961": 8786,
      "mat": 8787,
      "Ġassemb": 8788,
      "yces": 8789,
      "Ġoperating": 8790,
      "ĠUpon": 8791,
      "ĠVen": 8792,
      "Ġlooking": 8793,
      "ĠSwit": 8794,
      "stable": 8795,
      "Ġretinoic": 8796,
      "hic": 8797,
      "Ġagencies": 8798,
      "acill": 8799,
      "amber": 8800,
      "Ġintraocular": 8801,
      "ippoc": 8802,
      "uraz": 8803,
      "Ġzolpidem": 8804,
      "ĠOrth": 8805,
      "ĠEss": 8806,
      "sized": 8807,
      "Ġfeature": 8808,
      "Ġvagina": 8809,
      "37": 8810,
      "nel": 8811,
      "ĠGreek": 8812,
      "ĠStand": 8813,
      "Ġneurom": 8814,
      "rov": 8815,
      "Ġwood": 8816,
      "ĠMass": 8817,
      "phan": 8818,
      "Ġclient": 8819,
      "riptan": 8820,
      "Ki": 8821,
      "Ġmerc": 8822,
      "Ġmeeting": 8823,
      "entative": 8824,
      "Ġreportedly": 8825,
      "ofol": 8826,
      "Ġpancreatic": 8827,
      "ĠBAN": 8828,
      "Ġstarts": 8829,
      "III": 8830,
      "cre": 8831,
      "ĠJANTooltip": 8832,
      "ĠBar": 8833,
      "Ġlowers": 8834,
      "Ġaccompl": 8835,
      "Ġpolar": 8836,
      "rizine": 8837,
      "Ġguideline": 8838,
      "inizing": 8839,
      "ĠNob": 8840,
      "Ġantiemetic": 8841,
      "Ġneutropenia": 8842,
      "Ġinadequate": 8843,
      "Ġcred": 8844,
      "Ġsubmitted": 8845,
      "Ġlook": 8846,
      "Ġregarded": 8847,
      "Ġpsychedelic": 8848,
      "ĠOmeprazole": 8849,
      "ĠLu": 8850,
      "ĠProgram": 8851,
      "ĠKet": 8852,
      "Ġprosthe": 8853,
      "Ġplatelets": 8854,
      "Ġvictims": 8855,
      "ofibrate": 8856,
      "Ġfri": 8857,
      "ĠMil": 8858,
      "ĠRA": 8859,
      "Ġsuspensions": 8860,
      "Ġinserted": 8861,
      "administered": 8862,
      "aint": 8863,
      "Ġmoderately": 8864,
      "Ġaccumulate": 8865,
      "Ġging": 8866,
      "Ġanaerobic": 8867,
      "Ġregistered": 8868,
      "Ġwet": 8869,
      "orectal": 8870,
      "Ġrespect": 8871,
      "Ġlevofloxacin": 8872,
      "Ġcopper": 8873,
      "ĠTAAR": 8874,
      "pret": 8875,
      "ichlor": 8876,
      "MG": 8877,
      "Ġcited": 8878,
      "Ġdegeneration": 8879,
      "Ġpostpartum": 8880,
      "Ġpsychoactive": 8881,
      "ails": 8882,
      "opic": 8883,
      "ĠBudd": 8884,
      "charge": 8885,
      "Ġencephal": 8886,
      "Ġmedian": 8887,
      "itig": 8888,
      "ĠChurch": 8889,
      "Ġabsorb": 8890,
      "PO": 8891,
      "len": 8892,
      "Ġprefer": 8893,
      "angi": 8894,
      "Ġtrimethoprim": 8895,
      "Ġshared": 8896,
      "Ġpercentage": 8897,
      "Ġepisode": 8898,
      "verm": 8899,
      "Ġfertility": 8900,
      "opeia": 8901,
      "Ġdefinitive": 8902,
      "Ġfacilitate": 8903,
      "Ġdecompression": 8904,
      "onym": 8905,
      "omed": 8906,
      "ĠTNF": 8907,
      "Ġlicense": 8908,
      "Ġalleged": 8909,
      "Ġprur": 8910,
      "gestrol": 8911,
      "Ġexpress": 8912,
      "Ġyields": 8913,
      "Ġdescribes": 8914,
      "300": 8915,
      "Ġonto": 8916,
      "Ġscores": 8917,
      "oct": 8918,
      "sorption": 8919,
      "Ġprincipal": 8920,
      "ĠBelg": 8921,
      "Ġcohort": 8922,
      "ĠFinally": 8923,
      "ĠMer": 8924,
      "Ġdepressed": 8925,
      "Ġsubjective": 8926,
      "Ġmitochondria": 8927,
      "inating": 8928,
      "Ġacqu": 8929,
      "Ġplaces": 8930,
      "ĠMichael": 8931,
      "control": 8932,
      "Ġofloxacin": 8933,
      "Ġsecret": 8934,
      "Ġdissolved": 8935,
      "ca": 8936,
      "mented": 8937,
      "ught": 8938,
      "Ġyour": 8939,
      "fav": 8940,
      "Ġart": 8941,
      "BN": 8942,
      "Ġarth": 8943,
      "ĠFil": 8944,
      "Ġ1966": 8945,
      "rasound": 8946,
      "Ġwords": 8947,
      "rative": 8948,
      "Ġfortification": 8949,
      "Ġsupplied": 8950,
      "Ġdiscl": 8951,
      "Ġvariants": 8952,
      "Ġantipyretic": 8953,
      "asant": 8954,
      "Ġsew": 8955,
      "Ġdoing": 8956,
      "Ġcholest": 8957,
      "Ġargued": 8958,
      "Ġendoscop": 8959,
      "Ġprostatic": 8960,
      "Ġmidazolam": 8961,
      "ĠBrit": 8962,
      "ĠLo": 8963,
      "âĢł": 8964,
      "Ġscan": 8965,
      "Ġstimulating": 8966,
      "ĠJack": 8967,
      "Ġneurotoxicity": 8968,
      "ĠEscherichia": 8969,
      "Ġhyperp": 8970,
      "Ġhyperactivity": 8971,
      "ĠAmericans": 8972,
      "ĠReview": 8973,
      "32": 8974,
      "Ġvoice": 8975,
      "Ġpref": 8976,
      "Ġchemistry": 8977,
      "Ġadvis": 8978,
      "ĠMor": 8979,
      "Ġmyeloma": 8980,
      "Ġpyridoxine": 8981,
      "Ġawarded": 8982,
      "Sm": 8983,
      "rose": 8984,
      "andon": 8985,
      "Ġconsequence": 8986,
      "IS": 8987,
      "hi": 8988,
      "uated": 8989,
      "rav": 8990,
      "Ġdimethyl": 8991,
      "lasting": 8992,
      "Di": 8993,
      "ansion": 8994,
      "Ġmi": 8995,
      "Ġcharacters": 8996,
      "Ġschools": 8997,
      "Ġundecylate": 8998,
      "Ġduct": 8999,
      "Ġintolerance": 9000,
      "ĠIsra": 9001,
      "Ġlining": 9002,
      "An": 9003,
      "Ġdro": 9004,
      "ĠMac": 9005,
      "Ġhygi": 9006,
      "Ġchemists": 9007,
      "ĠDoses": 9008,
      "issed": 9009,
      "ĠPotassium": 9010,
      "Ġnecrolysis": 9011,
      "epilep": 9012,
      "tetra": 9013,
      "ĠTer": 9014,
      "litaxel": 9015,
      "Ġchanging": 9016,
      "Ġpractitioners": 9017,
      "ding": 9018,
      "Ġnode": 9019,
      "Ġ(<": 9020,
      "Ġondansetron": 9021,
      "Ġtransferred": 9022,
      "cript": 9023,
      "Ġmask": 9024,
      "treatment": 9025,
      "ĠBreast": 9026,
      "SAID": 9027,
      "ĠMethadone": 9028,
      "Ġpermeability": 9029,
      "ĠJesus": 9030,
      "yd": 9031,
      "Ġolig": 9032,
      "Ġimages": 9033,
      "Ġ1968": 9034,
      "Ġresolve": 9035,
      "zerland": 9036,
      "ameter": 9037,
      "ĠPublic": 9038,
      "Ġconvert": 9039,
      "Ġreversed": 9040,
      "Ġsanitation": 9041,
      "Ġpyl": 9042,
      "irth": 9043,
      "Ġhydrocodone": 9044,
      "ony": 9045,
      "umes": 9046,
      "Ġmeditation": 9047,
      "isted": 9048,
      "Ġpolice": 9049,
      "ĠChristian": 9050,
      "Ġtap": 9051,
      "Ġtonic": 9052,
      "esophageal": 9053,
      "Ġemission": 9054,
      "nam": 9055,
      "Ġenhances": 9056,
      "Ġparasites": 9057,
      "link": 9058,
      "wan": 9059,
      "ora": 9060,
      "GE": 9061,
      "ĠRif": 9062,
      "Ġsynaptic": 9063,
[...]
